<unk>	0
<s>	0
</s>	0
an	-0
▁t	-1
in	-2
er	-3
on	-4
he	-5
or	-6
re	-7
▁a	-8
es	-9
▁the	-10
ti	-11
en	-12
▁o	-13
▁s	-14
▁p	-15
al	-16
and	-17
▁f	-18
▁c	-19
▁in	-20
ro	-21
ar	-22
ed	-23
is	-24
▁of	-25
▁and	-26
▁m	-27
▁"	-28
ic	-29
▁b	-30
ing	-31
at	-32
it	-33
▁w	-34
▁C	-35
tion	-36
▁to	-37
."	-38
as	-39
il	-40
ts	-41
ad	-42
▁d	-43
ou	-44
om	-45
ec	-46
et	-47
▁re	-48
el	-49
00	-50
ent	-51
por	-52
▁pro	-53
▁h	-54
▁l	-55
ation	-56
uc	-57
▁S	-58
▁A	-59
st	-60
od	-61
▁T	-62
▁2	-63
▁e	-64
ood	-65
▁for	-66
▁(	-67
▁th	-68
▁I	-69
ac	-70
im	-71
duc	-72
th	-73
▁is	-74
▁M	-75
ri	-76
ul	-77
ers	-78
port	-79
anad	-80
▁n	-81
ur	-82
▁g	-83
▁1	-84
▁F	-85
le	-86
▁P	-87
ly	-88
▁200	-89
ve	-90
▁Canad	-91
▁con	-92
ion	-93
▁produc	-94
▁ex	-95
ver	-96
ol	-97
▁E	-98
ark	-99
ig	-100
nt	-101
ill	-102
▁be	-103
▁are	-104
um	-105
ce	-106
▁B	-107
ab	-108
▁on	-109
id	-110
us	-111
ow	-112
ith	-113
ess	-114
ment	-115
un	-116
ir	-117
▁or	-118
ag	-119
▁im	-120
▁D	-121
ut	-122
ian	-123
ain	-124
▁with	-125
est	-126
ot	-127
▁as	-128
▁com	-129
▁G	-130
arket	-131
__	-132
ry	-133
▁R	-134
pp	-135
ric	-136
ust	-137
am	-138
▁st	-139
rom	-140
ure	-141
op	-142
▁The	-143
ate	-144
qu	-145
▁N	-146
▁inc	-147
▁food	-148
▁U	-149
▁al	-150
▁from	-151
▁Canada	-152
se	-153
▁products	-154
▁by	-155
em	-156
ist	-157
▁an	-158
ay	-159
▁O	-160
ect	-161
tic	-162
rad	-163
illion	-164
▁v	-165
if	-166
▁wh	-167
res	-168
ern	-169
oc	-170
ity	-171
ia	-172
ount	-173
ports	-174
ult	-175
▁In	-176
▁market	-177
ap	-178
▁Canadian	-179
▁sh	-180
ww	-181
▁that	-182
▁su	-183
▁y	-184
ch	-185
ies	-186
▁comp	-187
os	-188
▁ag	-189
▁at	-190
ish	-191
ere	-192
ore	-193
▁L	-194
ail	-195
▁cons	-196
ents	-197
▁it	-198
igh	-199
ast	-200
ear	-201
▁•	-202
▁H	-203
our	-204
▁r	-205
reas	-206
rade	-207
erm	-208
ue	-209
ant	-210
▁int	-211
▁import	-212
ld	-213
vel	-214
▁million	-215
▁has	-216
▁de	-217
ff	-218
ew	-219
▁ac	-220
cess	-221
ial	-222
act	-223
▁3	-224
▁Ag	-225
▁W	-226
▁ha	-227
The	-228
ex	-229
ud	-230
ations	-231
ricult	-232
▁increas	-233
▁per	-234
ber	-235
gh	-236
ther	-237
ak	-238
▁J	-239
iv	-240
age	-241
iz	-242
____	-243
ire	-244
▁gro	-245
ated	-246
▁cont	-247
▁se	-248
able	-249
▁have	-250
ra	-251
ell	-252
erv	-253
ost	-254
▁19	-255
▁$	-256
end	-257
all	-258
""	-259
iti	-260
▁ch	-261
ine	-262
▁ind	-263
▁5	-264
▁St	-265
▁-	-266
▁sp	-267
▁4	-268
orm	-269
arg	-270
ational	-271
gan	-272
▁exp	-273
▁count	-274
ign	-275
food	-276
▁consum	-277
▁export	-278
og	-279
ard	-280
▁Ch	-281
ip	-282
▁year	-283
▁this	-284
▁was	-285
In	-286
ong	-287
onom	-288
▁ad	-289
tive	-290
ich	-291
▁V	-292
up	-293
▁he	-294
▁reg	-295
ran	-296
any	-297
▁me	-298
▁wor	-299
▁app	-300
form	-301
over	-302
▁K	-303
are	-304
art	-305
rop	-306
▁Int	-307
ition	-308
eg	-309
ca	-310
▁will	-311
▁grow	-312
▁6	-313
ustry	-314
▁un	-315
▁which	-316
tt	-317
ary	-318
▁not	-319
ax	-320
ural	-321
ector	-322
▁Pro	-323
so	-324
ally	-325
ib	-326
ome	-327
ates	-328
der	-329
ons	-330
▁en	-331
▁Un	-332
ep	-333
▁their	-334
▁9	-335
▁Food	-336
▁us	-337
▁res	-338
▁Intern	-339
ence	-340
▁Com	-341
lud	-342
▁also	-343
▁larg	-344
▁more	-345
▁its	-346
ice	-347
ries	-348
▁over	-349
ack	-350
velop	-351
ang	-352
mer	-353
rib	-354
▁op	-355
ities	-356
▁all	-357
ile	-358
▁Ind	-359
▁7	-360
▁fish	-361
▁k	-362
▁Th	-363
▁pl	-364
ater	-365
▁organ	-366
▁sal	-367
▁trade	-368
▁exports	-369
ets	-370
formation	-371
ont	-372
▁2005	-373
oun	-374
▁qu	-375
ide	-376
▁val	-377
fer	-378
▁le	-379
▁prov	-380
ech	-381
ific	-382
▁Ex	-383
▁high	-384
ttp	-385
//	-386
ments	-387
://	-388
▁Trade	-389
▁other	-390
ors	-391
▁product	-392
ous	-393
com	-394
ean	-395
fic	-396
▁imports	-397
▁includ	-398
▁http	-399
oll	-400
▁suc	-401
iness	-402
▁can	-403
▁"•	-404
tal	-405
ree	-406
lo	-407
ina	-408
▁pre	-409
ub	-410
ould	-411
▁ab	-412
usiness	-413
ct	-414
▁sector	-415
▁industry	-416
000	-417
▁199	-418
ter	-419
▁Tel	-420
▁process	-421
enti	-422
lic	-423
exic	-424
ance	-425
..	-426
ight	-427
ru	-428
overn	-429
ugh	-430
riculture	-431
▁US	-432
ven	-433
out	-434
▁2004	-435
▁than	-436
▁Sp	-437
ite	-438
www	-439
av	-440
we	-441
urop	-442
▁supp	-443
▁Mexic	-444
les	-445
▁www	-446
),	-447
▁8	-448
ace	-449
ricultural	-450
ati	-451
▁pric	-452
ass	-453
arkets	-454
econom	-455
▁Fax	-456
cent	-457
▁been	-458
ely	-459
ection	-460
arm	-461
ey	-462
li	-463
▁""	-464
gc	-465
overnment	-466
▁2003	-467
▁dec	-468
opul	-469
ited	-470
________	-471
▁econom	-472
alth	-473
▁develop	-474
ren	-475
▁acc	-476
▁requ	-477
ok	-478
ov	-479
enc	-480
▁2002	-481
▁Europ	-482
anies	-483
▁country	-484
land	-485
rough	-486
▁production	-487
sion	-488
red	-489
:"	-490
air	-491
0%	-492
AD	-493
▁growth	-494
▁information	-495
hed	-496
ive	-497
ach	-498
▁2006	-499
▁were	-500
▁organic	-501
ase	-502
▁countries	-503
▁value	-504
▁total	-505
ual	-506
▁Market	-507
▁popul	-508
old	-509
▁0	-510
ines	-511
13	-512
▁As	-513
eed	-514
bs	-515
echn	-516
▁spec	-517
▁companies	-518
olog	-519
ption	-520
▁years	-521
ari	-522
ory	-523
▁inv	-524
ef	-525
ever	-526
▁EU	-527
-2	-528
▁add	-529
▁good	-530
,000	-531
aw	-532
ll	-533
ected	-534
str	-535
▁j	-536
▁fir	-537
▁par	-538
▁such	-539
ener	-540
ame	-541
▁billion	-542
▁most	-543
tit	-544
▁Germ	-545
istrib	-546
▁dis	-547
▁co	-548
afood	-549
resent	-550
▁but	-551
▁new	-552
anu	-553
und	-554
▁ret	-555
.5	-556
.2	-557
▁rel	-558
als	-559
apan	-560
▁dem	-561
)."	-562
its	-563
co	-564
▁foods	-565
her	-566
▁sup	-567
▁&	-568
mail	-569
▁imp	-570
▁str	-571
ery	-572
▁Internet	-573
ord	-574
ution	-575
▁require	-576
▁one	-577
▁Agri	-578
▁these	-579
▁we	-580
Food	-581
ond	-582
aj	-583
.1	-584
▁Is	-585
ens	-586
▁comm	-587
▁imported	-588
ks	-589
▁business	-590
▁bet	-591
▁loc	-592
.:	-593
cial	-594
▁sales	-595
sp	-596
▁Japan	-597
▁agri	-598
hen	-599
▁out	-600
▁An	-601
▁Comm	-602
erti	-603
ween	-604
▁lab	-605
▁may	-606
▁world	-607
▁serv	-608
ical	-609
▁well	-610
ices	-611
▁Im	-612
ays	-613
▁into	-614
▁bo	-615
▁agricultural	-616
rand	-617
▁–	-618
▁Re	-619
▁num	-620
arch	-621
▁Mexico	-622
▁Produc	-623
▁increase	-624
▁This	-625
ces	-626
ernational	-627
▁China	-628
▁through	-629
Th	-630
▁Q	-631
▁bec	-632
▁up	-633
▁Agriculture	-634
▁increasing	-635
▁rep	-636
ards	-637
▁retail	-638
▁am	-639
resh	-640
▁there	-641
ission	-642
ajor	-643
own	-644
ort	-645
▁2001	-646
50	-647
-1	-648
ollow	-649
▁meat	-650
verage	-651
ality	-652
ating	-653
.3	-654
▁Cont	-655
irect	-656
▁largest	-657
inist	-658
▁only	-659
▁demand	-660
echnolog	-661
ee	-662
▁consumers	-663
ember	-664
▁cap	-665
▁increased	-666
ted	-667
rin	-668
AF	-669
ages	-670
▁fin	-671
ility	-672
▁distrib	-673
ake	-674
▁main	-675
▁under	-676
eti	-677
rans	-678
▁follow	-679
▁ro	-680
rael	-681
uring	-682
very	-683
portun	-684
.4	-685
ivers	-686
ures	-687
ipp	-688
ves	-689
ied	-690
▁they	-691
▁part	-692
zen	-693
tain	-694
▁inf	-695
▁United	-696
▁health	-697
fact	-698
ork	-699
ased	-700
▁dom	-701
▁markets	-702
▁International	-703
rozen	-704
▁sign	-705
owever	-706
▁between	-707
▁European	-708
ans	-709
▁region	-710
▁sub	-711
▁about	-712
▁regul	-713
▁goods	-714
▁sa	-715
ough	-716
ene	-717
▁appro	-718
▁(6	-719
▁major	-720
ms	-721
10	-722
ized	-723
▁should	-724
▁government	-725
ob	-726
▁so	-727
▁do	-728
ram	-729
ains	-730
eb	-731
Canad	-732
▁must	-733
▁contin	-734
yp	-735
ress	-736
▁population	-737
ange	-738
get	-739
anufact	-740
-3	-741
▁li	-742
▁seafood	-743
ci	-744
ise	-745
▁eff	-746
▁tim	-747
olic	-748
oci	-749
ustom	-750
▁10	-751
.6	-752
▁provid	-753
urre	-754
ade	-755
orth	-756
ateg	-757
▁exporters	-758
▁2007	-759
▁Israel	-760
▁partic	-761
.7	-762
ose	-763
urrent	-764
mb	-765
▁sy	-766
.8	-767
EC	-768
▁any	-769
ative	-770
vi	-771
one	-772
▁low	-773
ON	-774
▁cl	-775
▁Sh	-776
▁sm	-777
▁Spain	-778
▁international	-779
ral	-780
echnology	-781
▁Ar	-782
▁ass	-783
▁pos	-784
meric	-785
abl	-786
▁$1	-787
▁number	-788
ues	-789
▁2000	-790
pl	-791
▁Germany	-792
AN	-793
ince	-794
▁trans	-795
▁pur	-796
▁consumer	-797
▁Cent	-798
int	-799
▁inter	-800
▁large	-801
ible	-802
AR	-803
ants	-804
▁Reg	-805
estic	-806
▁ent	-807
ium	-808
ared	-809
olum	-810
▁Americ	-811
▁New	-812
▁resp	-813
▁brand	-814
▁pack	-815
▁first	-816
.9	-817
▁bu	-818
▁fresh	-819
ai	-820
tim	-821
▁rest	-822
ick	-823
wo	-824
▁quality	-825
els	-826
ublic	-827
▁opportun	-828
▁States	-829
io	-830
ock	-831
eign	-832
▁consumption	-833
▁vari	-834
▁suppli	-835
▁20	-836
ound	-837
read	-838
▁include	-839
▁foreign	-840
outh	-841
▁expected	-842
▁gener	-843
▁gre	-844
ug	-845
▁Al	-846
ys	-847
▁show	-848
▁some	-849
▁price	-850
▁Ph	-851
▁des	-852
▁stand	-853
▁percent	-854
▁"""	-855
▁rem	-856
TC	-857
▁use	-858
ER	-859
TI	-860
▁est	-861
▁invest	-862
ize	-863
▁farm	-864
▁pe	-865
ove	-866
▁es	-867
ately	-868
uss	-869
vail	-870
▁att	-871
▁Export	-872
▁level	-873
▁manufact	-874
stem	-875
13)	-876
ars	-877
▁Or	-878
ered	-879
▁small	-880
rim	-881
▁fru	-882
▁rese	-883
ountry	-884
▁economic	-885
ily	-886
riv	-887
▁adv	-888
tions	-889
ision	-890
▁Aust	-891
▁(613)	-892
tics	-893
▁work	-894
▁ann	-895
ource	-896
▁no	-897
▁two	-898
▁while	-899
AFC	-900
▁12	-901
urn	-902
▁ph	-903
ertific	-904
▁prices	-905
▁research	-906
▁fl	-907
▁stor	-908
ished	-909
▁cent	-910
▁establ	-911
▁pot	-912
▁sl	-913
ety	-914
▁Cons	-915
▁Minist	-916
▁past	-917
▁average	-918
▁ve	-919
▁oil	-920
▁rate	-921
▁local	-922
ds	-923
wn	-924
▁Co	-925
▁Serv	-926
11	-927
▁development	-928
▁dif	-929
▁rec	-930
ge	-931
ix	-932
▁time	-933
iot	-934
▁lead	-935
raz	-936
ued	-937
tical	-938
▁Commission	-939
hib	-940
vely	-941
▁ob	-942
▁prep	-943
ES	-944
aterial	-945
ificant	-946
200	-947
▁ar	-948
▁shall	-949
razil	-950
ization	-951
hip	-952
▁trad	-953
▁share	-954
As	-955
ilk	-956
aus	-957
atory	-958
OR	-959
ings	-960
redi	-961
▁account	-962
▁current	-963
▁including	-964
ht	-965
▁:	-966
iet	-967
▁company	-968
rain	-969
20	-970
▁many	-971
▁De	-972
ential	-973
________________	-974
▁Y	-975
tiv	-976
xim	-977
ann	-978
▁Import	-979
▁*	-980
DP	-981
▁prom	-982
▁significant	-983
uct	-984
▁India	-985
▁who	-986
▁form	-987
▁material	-988
ild	-989
▁15	-990
▁AAFC	-991
▁Country	-992
▁important	-993
ources	-994
▁capit	-995
mercial	-996
gram	-997
rap	-998
▁el	-999
▁min	-1000
gredi	-1001
▁domestic	-1002
ese	-1003
▁det	-1004
ration	-1005
itional	-1006
cc	-1007
▁system	-1008
elling	-1009
▁North	-1010
.0	-1011
anc	-1012
htm	-1013
▁Se	-1014
▁cre	-1015
ie	-1016
arly	-1017
▁frozen	-1018
▁oper	-1019
ins	-1020
roduc	-1021
).	-1022
-8	-1023
atis	-1024
▁ext	-1025
▁used	-1026
▁growing	-1027
amp	-1028
rac	-1029
ability	-1030
▁economy	-1031
-7	-1032
ke	-1033
....	-1034
▁18	-1035
▁avail	-1036
▁veget	-1037
stronom	-1038
df	-1039
19	-1040
30	-1041
▁Brazil	-1042
▁due	-1043
▁mon	-1044
mbass	-1045
▁competi	-1046
▁che	-1047
▁need	-1048
▁very	-1049
oreign	-1050
▁iss	-1051
-4	-1052
▁ev	-1053
▁ITC	-1054
▁decreas	-1055
▁represent	-1056
▁/	-1057
CAD	-1058
ined	-1059
▁sec	-1060
▁processing	-1061
eth	-1062
▁Products	-1063
▁purch	-1064
▁supply	-1065
ris	-1066
IC	-1067
▁Industry	-1068
ind	-1069
▁custom	-1070
▁report	-1071
▁strong	-1072
▁made	-1073
This	-1074
-0	-1075
▁He	-1076
▁your	-1077
▁consid	-1078
agr	-1079
▁mod	-1080
▁Government	-1081
orn	-1082
bserv	-1083
ved	-1084
ects	-1085
However	-1086
ency	-1087
▁11	-1088
▁GDP	-1089
▁ITCan	-1090
▁special	-1091
eng	-1092
▁fact	-1093
▁It	-1094
irec	-1095
mbassy	-1096
▁access	-1097
aged	-1098
▁Organ	-1099
▁both	-1100
▁equ	-1101
▁Contact	-1102
▁buy	-1103
▁you	-1104
▁worth	-1105
bec	-1106
onn	-1107
▁services	-1108
▁when	-1109
though	-1110
mp	-1111
▁where	-1112
uts	-1113
apor	-1114
Canada	-1115
▁Foreign	-1116
▁opportunities	-1117
eries	-1118
▁Univers	-1119
ma	-1120
eat	-1121
aur	-1122
▁Z	-1123
For	-1124
▁Ad	-1125
▁certific	-1126
▁agriculture	-1127
-6	-1128
te	-1129
view	-1130
ables	-1131
▁term	-1132
▁Embassy	-1133
▁Inc	-1134
aking	-1135
ximately	-1136
▁Fish	-1137
▁Mexican	-1138
iff	-1139
ouse	-1140
▁ingredi	-1141
▁Develop	-1142
ounc	-1143
▁result	-1144
▁direct	-1145
▁following	-1146
lands	-1147
▁pres	-1148
eri	-1149
▁CAD	-1150
▁being	-1151
.,	-1152
mon	-1153
uel	-1154
▁would	-1155
▁available	-1156
une	-1157
iron	-1158
ipment	-1159
ingapor	-1160
TA	-1161
artment	-1162
▁support	-1163
▁requirements	-1164
▁vis	-1165
round	-1166
▁interest	-1167
▁distribut	-1168
orld	-1169
▁2005,	-1170
▁South	-1171
cep	-1172
uff	-1173
fore	-1174
vest	-1175
ariff	-1176
▁superm	-1177
ats	-1178
▁Off	-1179
IN	-1180
ty	-1181
▁Fran	-1182
▁regulations	-1183
ried	-1184
▁specific	-1185
72	-1186
▁Dep	-1187
▁fac	-1188
▁within	-1189
▁provide	-1190
airy	-1191
▁disc	-1192
▁Res	-1193
▁sug	-1194
ato	-1195
▁list	-1196
▁Ministry	-1197
sh	-1198
▁Bo	-1199
▁med	-1200
▁Asia	-1201
ingapore	-1202
uth	-1203
▁cond	-1204
▁light	-1205
▁applic	-1206
nam	-1207
itor	-1208
ward	-1209
▁Ass	-1210
▁our	-1211
5%	-1212
fter	-1213
line	-1214
▁Development	-1215
iod	-1216
ocum	-1217
▁dep	-1218
ually	-1219
▁recent	-1220
▁processed	-1221
▁Pl	-1222
▁fruit	-1223
raph	-1224
▁whe	-1225
▁Man	-1226
tional	-1227
▁had	-1228
▁Europe	-1229
▁sti	-1230
▁tren	-1231
▁conf	-1232
▁milk	-1233
ause	-1234
▁ins	-1235
▁Information	-1236
ait	-1237
airs	-1238
conom	-1239
uthor	-1240
viron	-1241
▁GM	-1242
▁Gu	-1243
▁non	-1244
55	-1245
▁For	-1246
ilipp	-1247
olume	-1248
▁conc	-1249
Al	-1250
ros	-1251
EN	-1252
itions	-1253
▁particul	-1254
bers	-1255
▁less	-1256
▁same	-1257
▁three	-1258
▁regist	-1259
▁Con	-1260
▁since	-1261
▁success	-1262
It	-1263
▁Net	-1264
▁each	-1265
▁tons	-1266
ording	-1267
itt	-1268
▁car	-1269
▁kn	-1270
▁bas	-1271
vironment	-1272
▁distribution	-1273
anish	-1274
igin	-1275
▁partn	-1276
eration	-1277
▁Business	-1278
▁Car	-1279
▁lo	-1280
ient	-1281
ified	-1282
▁areas	-1283
▁Report	-1284
way	-1285
▁period	-1286
▁stores	-1287
▁Singapore	-1288
▁investment	-1289
uch	-1290
▁impro	-1291
▁Br	-1292
▁estim	-1293
▁13	-1294
aging	-1295
-9	-1296
▁Agricultural	-1297
44	-1298
ociation	-1299
spection	-1300
▁contain	-1301
▁program	-1302
ful	-1303
led	-1304
mark	-1305
atural	-1306
iotechnology	-1307
fo	-1308
ata	-1309
▁Sal	-1310
▁own	-1311
▁based	-1312
▁po	-1313
▁meet	-1314
▁$2	-1315
▁16	-1316
▁second	-1317
▁Comp	-1318
▁water	-1319
▁Direc	-1320
▁Union	-1321
let	-1322
ling	-1323
IA	-1324
▁off	-1325
80	-1326
osts	-1327
imal	-1328
ouncil	-1329
td	-1330
▁his	-1331
▁typ	-1332
▁long	-1333
ending	-1334
file	-1335
▁differ	-1336
▁standards	-1337
cop	-1338
▁14	-1339
▁offer	-1340
reement	-1341
OM	-1342
most	-1343
▁sur	-1344
,""	-1345
▁ingredients	-1346
▁if	-1347
ties	-1348
▁capita	-1349
▁approximately	-1350
ute	-1351
▁23	-1352
earch	-1353
uture	-1354
▁Philipp	-1355
▁Mal	-1356
▁top	-1357
▁origin	-1358
ble	-1359
▁lim	-1360
ecial	-1361
▁producers	-1362
org	-1363
rivate	-1364
▁hel	-1365
▁potential	-1366
ank	-1367
enez	-1368
ract	-1369
▁Aff	-1370
ne	-1371
ject	-1372
▁annual	-1373
▁University	-1374
rol	-1375
urther	-1376
▁indic	-1377
▁Service	-1378
▁Directive	-1379
▁help	-1380
▁pers	-1381
▁still	-1382
▁present	-1383
);	-1384
▁World	-1385
enezuel	-1386
▁last	-1387
▁group	-1388
▁those	-1389
▁Department	-1390
ended	-1391
▁Consum	-1392
▁Sector	-1393
▁during	-1394
att	-1395
▁En	-1396
▁ref	-1397
ft	-1398
emp	-1399
▁22	-1400
ases	-1401
hile	-1402
ople	-1403
▁man	-1404
ories	-1405
ements	-1406
▁Council	-1407
til	-1408
▁Que	-1409
▁German	-1410
▁required	-1411
▁vegetables	-1412
acts	-1413
rice	-1414
▁aff	-1415
▁prim	-1416
▁reduc	-1417
▁author	-1418
loy	-1419
▁bro	-1420
▁Russ	-1421
▁Affairs	-1422
ster	-1423
▁Econom	-1424
herlands	-1425
▁restaur	-1426
DA	-1427
▁(3	-1428
▁Regul	-1429
12	-1430
gov	-1431
▁del	-1432
▁now	-1433
ucture	-1434
▁higher	-1435
▁American	-1436
ale	-1437
▁ben	-1438
ffee	-1439
export	-1440
▁expand	-1441
eal	-1442
hes	-1443
gent	-1444
▁feed	-1445
▁pork	-1446
▁conven	-1447
oul	-1448
▁ju	-1449
lets	-1450
▁key	-1451
▁area	-1452
rug	-1453
▁Ins	-1454
▁popular	-1455
▁Sw	-1456
illed	-1457
▁(9	-1458
▁cr	-1459
▁astronom	-1460
▁Netherlands	-1461
59	-1462
ext	-1463
▁cost	-1464
▁polic	-1465
14	-1466
au	-1467
hold	-1468
▁exc	-1469
▁leg	-1470
▁ris	-1471
dfait	-1472
▁infl	-1473
▁Austral	-1474
▁continue	-1475
▁marketing	-1476
▁materials	-1477
▁emp	-1478
eneral	-1479
eci	-1480
lob	-1481
▁land	-1482
▁them	-1483
bia	-1484
ones	-1485
▁Rep	-1486
maeci	-1487
▁rece	-1488
ietnam	-1489
▁sever	-1490
▁income	-1491
▁Venezuel	-1492
unc	-1493
▁UK	-1494
▁Bri	-1495
▁relations	-1496
▁Dec	-1497
▁among	-1498
awa	-1499
▁stud	-1500
▁costs	-1501
▁IN	-1502
utri	-1503
lement	-1504
52	-1505
rig	-1506
pos	-1507
TION	-1508
▁Gro	-1509
▁tel	-1510
ustri	-1511
▁like	-1512
ograph	-1513
▁Foods	-1514
eral	-1515
▁Over	-1516
▁Direct	-1517
ting	-1518
lease	-1519
▁Quebec	-1520
▁17	-1521
▁sc	-1522
▁service	-1523
▁100	-1524
▁Ret	-1525
▁importer	-1526
▁environment	-1527
alf	-1528
▁levels	-1529
▁tariff	-1530
ced	-1531
▁open	-1532
▁France	-1533
▁volume	-1534
ective	-1535
ertain	-1536
▁range	-1537
ering	-1538
oy	-1539
coh	-1540
▁30	-1541
▁tr	-1542
▁public	-1543
▁currently	-1544
ady	-1545
ethod	-1546
▁remain	-1547
▁further	-1548
▁provides	-1549
▁manufactur	-1550
RI	-1551
ph	-1552
ience	-1553
▁2002."	-1554
▁concern	-1555
ecti	-1556
ring	-1557
▁Bar	-1558
▁Association	-1559
▁ON	-1560
▁Ital	-1561
▁month	-1562
▁almost	-1563
▁strateg	-1564
oles	-1565
acific	-1566
▁ens	-1567
ttawa	-1568
▁Health	-1569
dom	-1570
▁East	-1571
▁make	-1572
ulture	-1573
▁order	-1574
▁suppliers	-1575
itive	-1576
bean	-1577
▁Ltd	-1578
▁cle	-1579
▁King	-1580
af	-1581
▁50	-1582
▁activ	-1583
ason	-1584
inese	-1585
▁1999	-1586
▁Mont	-1587
▁benef	-1588
▁found	-1589
▁America	-1590
With	-1591
▁Vietnam	-1592
▁because	-1593
▁sim	-1594
anuary	-1595
▁Ottawa	-1596
40	-1597
▁At	-1598
aceu	-1599
▁saf	-1600
▁she	-1601
▁West	-1602
cept	-1603
oult	-1604
▁hot	-1605
▁net	-1606
other	-1607
▁five	-1608
▁wheat	-1609
▁Research	-1610
val	-1611
verages	-1612
▁national	-1613
▁establish	-1614
▁ed	-1615
▁wine	-1616
Canadian	-1617
▁produced	-1618
▁pay	-1619
▁General	-1620
▁particip	-1621
.5%	-1622
▁1998	-1623
▁There	-1624
▁after	-1625
atistics	-1626
▁however	-1627
▁id	-1628
ences	-1629
oultry	-1630
▁Profile	-1631
▁respons	-1632
▁2004,	-1633
▁sugar	-1634
ination	-1635
70	-1636
▁does	-1637
▁Chinese	-1638
US	-1639
to	-1640
▁exhib	-1641
ism	-1642
▁Col	-1643
stuff	-1644
enmark	-1645
▁January	-1646
▁beverages	-1647
AC	-1648
▁end	-1649
escop	-1650
▁people	-1651
▁contact	-1652
▁labelling	-1653
▁commercial	-1654
info	-1655
▁see	-1656
ribut	-1657
▁hand	-1658
▁name	-1659
▁experi	-1660
pr	-1661
▁site	-1662
▁Source	-1663
▁estimated	-1664
▁increasingly	-1665
1,	-1666
akes	-1667
ocol	-1668
▁drin	-1669
▁free	-1670
▁meas	-1671
▁allow	-1672
▁commod	-1673
▁member	-1674
▁private	-1675
▁addition	-1676
AL	-1677
▁gu	-1678
iver	-1679
▁liv	-1680
▁offic	-1681
▁become	-1682
▁National	-1683
▁conditions	-1684
▁neg	-1685
▁pow	-1686
▁perm	-1687
gentina	-1688
▁transport	-1689
▁Qu	-1690
ional	-1691
orpor	-1692
▁reach	-1693
▁several	-1694
▁exporter	-1695
15	-1696
▁tonn	-1697
▁dairy	-1698
▁established	-1699
▁supermarkets	-1700
▁categ	-1701
ocument	-1702
▁salmon	-1703
ems	-1704
ivid	-1705
▁few	-1706
▁set	-1707
▁beef	-1708
atives	-1709
▁visit	-1710
▁Exports	-1711
eas	-1712
urk	-1713
▁various	-1714
AS	-1715
▁terms	-1716
▁Centre	-1717
▁identi	-1718
ross	-1719
▁App	-1720
▁bel	-1721
ounts	-1722
▁near	-1723
▁could	-1724
▁leading	-1725
▁Australia	-1726
▁label	-1727
ilities	-1728
OD	-1729
▁No	-1730
▁These	-1731
▁firms	-1732
▁house	-1733
▁25	-1734
▁Be	-1735
otal	-1736
▁lic	-1737
lobal	-1738
oking	-1739
▁importers	-1740
1)	-1741
▁bl	-1742
ness	-1743
ecess	-1744
▁equipment	-1745
▁observ	-1746
ird	-1747
isc	-1748
ten	-1749
arvest	-1750
▁chang	-1751
Ex	-1752
oth	-1753
▁Ac	-1754
▁jo	-1755
tish	-1756
ustrial	-1757
▁Malays	-1758
html	-1759
ving	-1760
▁High	-1761
▁Kong	-1762
▁tonnes	-1763
▁$3	-1764
▁2004."	-1765
ics	-1766
▁24	-1767
rast	-1768
▁May	-1769
▁around	-1770
AT	-1771
▁June	-1772
▁crop	-1773
60	-1774
▁.	-1775
stan	-1776
▁foc	-1777
▁size	-1778
▁Russia	-1779
▁advant	-1780
▁before	-1781
▁sectors	-1782
▁giv	-1783
▁cann	-1784
ference	-1785
▁Pacific	-1786
ature	-1787
▁Hong	-1788
▁developed	-1789
▁la	-1790
▁take	-1791
6,	-1792
fied	-1793
embers	-1794
obster	-1795
▁foodstuff	-1796
▁Wh	-1797
quent	-1798
▁sold	-1799
cienti	-1800
▁Chile	-1801
▁necess	-1802
▁provided	-1803
EEC	-1804
iel	-1805
ier	-1806
ott	-1807
▁data	-1808
ists	-1809
ached	-1810
▁find	-1811
▁Venezuela	-1812
erg	-1813
▁even	-1814
▁using	-1815
▁2003."	-1816
▁person	-1817
▁general	-1818
IS	-1819
▁down	-1820
▁sources	-1821
ria	-1822
▁(4	-1823
▁ur	-1824
▁Table	-1825
▁plant	-1826
▁Imports	-1827
▁Philippines	-1828
que	-1829
▁common	-1830
pro	-1831
alys	-1832
▁Bel	-1833
▁met	-1834
▁quan	-1835
▁turn	-1836
Although	-1837
▁partners	-1838
▁Argentina	-1839
7,	-1840
gg	-1841
▁1,	-1842
▁Sup	-1843
▁nutri	-1844
▁place	-1845
▁Denmark	-1846
▁Seafood	-1847
▁Spanish	-1848
▁December	-1849
▁Republic	-1850
Ch	-1851
inn	-1852
▁play	-1853
▁fam	-1854
▁ful	-1855
▁por	-1856
▁domin	-1857
24	-1858
An	-1859
idd	-1860
▁ri	-1861
hest	-1862
▁Par	-1863
▁much	-1864
ancial	-1865
▁2002,	-1866
tically	-1867
▁Retail	-1868
▁valued	-1869
▁Kingdom	-1870
▁exported	-1871
▁convenience	-1872
esp	-1873
uly	-1874
ailand	-1875
uation	-1876
▁trend	-1877
▁coffee	-1878
▁design	-1879
▁ensure	-1880
ung	-1881
▁Af	-1882
apid	-1883
▁fre	-1884
ather	-1885
▁tast	-1886
▁2003,	-1887
▁certain	-1888
▁improve	-1889
ead	-1890
rep	-1891
▁60	-1892
▁et	-1893
ours	-1894
▁prof	-1895
ept	-1896
wan	-1897
▁sel	-1898
▁influ	-1899
▁promot	-1900
▁natural	-1901
▁Overview	-1902
▁telescop	-1903
▁AN	-1904
ober	-1905
▁four	-1906
▁tour	-1907
▁fishery	-1908
▁Malaysia	-1909
▁consider	-1910
▁Su	-1911
▁All	-1912
▁Oct	-1913
▁Web	-1914
▁complet	-1915
▁Director	-1916
oh	-1917
"",	-1918
endit	-1919
▁invol	-1920
▁obtain	-1921
aple	-1922
▁Lab	-1923
ample	-1924
iment	-1925
▁Kore	-1926
▁Product	-1927
TS	-1928
ica	-1929
ived	-1930
▁bar	-1931
ighest	-1932
▁go	-1933
alled	-1934
▁poss	-1935
▁rice	-1936
▁future	-1937
▁Atl	-1938
▁raw	-1939
▁agre	-1940
onesia	-1941
ructure	-1942
▁prepar	-1943
▁Japanese	-1944
43	-1945
iss	-1946
▁know	-1947
▁rates	-1948
▁buyers	-1949
▁members	-1950
▁Regulations	-1951
▁biotechnology	-1952
eds	-1953
inc	-1954
▁Feb	-1955
▁(200	-1956
▁rapid	-1957
▁amount	-1958
▁proble	-1959
Ag	-1960
rup	-1961
▁sn	-1962
▁seg	-1963
There	-1964
order	-1965
▁USDA	-1966
▁March	-1967
▁British	-1968
▁packaging	-1969
▁Commercial	-1970
▁then	-1971
▁state	-1972
▁outlets	-1973
▁produce	-1974
▁Thailand	-1975
▁introduc	-1976
▁household	-1977
4)	-1978
DF	-1979
ea	-1980
rid	-1981
ario	-1982
mber	-1983
weet	-1984
▁subs	-1985
▁shipp	-1986
▁Agency	-1987
▁poultry	-1988
▁restric	-1989
96	-1990
ask	-1991
▁bre	-1992
ruary	-1993
▁animal	-1994
▁brands	-1995
........	-1996
▁highest	-1997
▁technology	-1998
▁%	-1999
%),	-2000
arily	-2001
▁dist	-2002
▁entry	-2003
▁focus	-2004
▁control	-2005
▁retailers	-2006
for	-2007
▁added	-2008
▁every	-2009
▁safety	-2010
▁customs	-2011
ectionery	-2012
▁competitive	-2013
90	-2014
az	-2015
▁'	-2016
ready	-2017
▁decl	-2018
▁fast	-2019
ealand	-2020
▁great	-2021
operation	-2022
▁We	-2023
estock	-2024
▁techn	-2025
▁particularly	-2026
▁certification	-2027
16	-2028
88	-2029
ED	-2030
utes	-2031
▁Turk	-2032
▁lower	-2033
▁highly	-2034
▁40	-2035
▁lif	-2036
▁sit	-2037
coholic	-2038
ecially	-2039
▁prepared	-2040
▁financial	-2041
ules	-2042
▁law	-2043
▁method	-2044
▁28	-2045
▁gr	-2046
▁kg	-2047
▁half	-2048
▁sell	-2049
ateral	-2050
▁Italy	-2051
ustries	-2052
▁determ	-2053
▁traditional	-2054
nov	-2055
opp	-2056
avil	-2057
vers	-2058
ident	-2059
▁Other	-2060
▁until	-2061
▁Zealand	-2062
▁factors	-2063
▁February	-2064
▁agreement	-2065
22	-2066
titute	-2067
▁chain	-2068
▁different	-2069
-5	-2070
ised	-2071
▁Val	-2072
▁coll	-2073
▁real	-2074
ederal	-2075
▁items	-2076
avilion	-2077
▁sk	-2078
augh	-2079
▁Cub	-2080
While	-2081
▁Offic	-2082
armaceu	-2083
▁wholes	-2084
ectively	-2085
▁section	-2086
▁beverage	-2087
fy	-2088
tity	-2089
arant	-2090
▁Belg	-2091
ically	-2092
▁third	-2093
▁limited	-2094
po	-2095
ees	-2096
pril	-2097
▁home	-2098
ovember	-2099
23	-2100
Un	-2101
▁Ann	-2102
▁(972	-2103
▁harvest	-2104
77	-2105
rench	-2106
agement	-2107
OS	-2108
lish	-2109
iddle	-2110
▁slow	-2111
▁Total	-2112
▁Custom	-2113
▁relationship	-2114
At	-2115
▁Sc	-2116
eria	-2117
reng	-2118
▁assist	-2119
▁followed	-2120
▁presence	-2121
rastructure	-2122
▁competition	-2123
%)	-2124
If	-2125
On	-2126
TR	-2127
ulk	-2128
▁Sy	-2129
▁soy	-2130
avour	-2131
▁Past	-2132
alysis	-2133
▁ready	-2134
▁restaurants	-2135
18	-2136
5,	-2137
▁prot	-2138
▁pasta	-2139
▁maintain	-2140
▁sol	-2141
▁often	-2142
▁lobster	-2143
ides	-2144
ining	-2145
ntario	-2146
▁needs	-2147
▁commun	-2148
▁divers	-2149
ink	-2150
▁col	-2151
▁reached	-2152
▁position	-2153
▁foodstuffs	-2154
▁DE	-2155
load	-2156
▁exce	-2157
▁mark	-2158
▁seen	-2159
▁targ	-2160
▁initi	-2161
ocolate	-2162
▁mainly	-2163
▁Indonesia	-2164
▁26	-2165
itted	-2166
▁April	-2167
▁forec	-2168
9,	-2169
ban	-2170
reat	-2171
▁Dom	-2172
▁esp	-2173
▁tax	-2174
krain	-2175
▁expl	-2176
▁exist	-2177
atively	-2178
▁October	-2179
▁exporting	-2180
0)	-2181
▁July	-2182
▁hold	-2183
ivision	-2184
▁prefer	-2185
▁Services	-2186
▁compared	-2187
infoexport	-2188
▁distributors	-2189
86	-2190
-200	-2191
oked	-2192
stand	-2193
▁corn	-2194
▁again	-2195
▁issues	-2196
▁Ontario	-2197
▁implement	-2198
▁manufacturers	-2199
%."	-2200
zer	-2201
▁du	-2202
minist	-2203
▁elect	-2204
▁short	-2205
titution	-2206
▁November	-2207
▁advantage	-2208
▁especially	-2209
▁cat	-2210
▁occ	-2211
▁consist	-2212
▁regional	-2213
TO	-2214
ley	-2215
ton	-2216
wards	-2217
▁fruits	-2218
▁additional	-2219
ah	-2220
uk	-2221
oli	-2222
per	-2223
rated	-2224
▁dried	-2225
▁positive	-2226
POR	-2227
erc	-2228
ify	-2229
▁($	-2230
etit	-2231
less	-2232
▁197	-2233
▁chains	-2234
▁plants	-2235
▁Organic	-2236
ses	-2237
ured	-2238
▁enc	-2239
▁her	-2240
acter	-2241
▁2005.	-2242
▁meals	-2243
▁2001."	-2244
▁regard	-2245
ccording	-2246
▁subject	-2247
▁agreements	-2248
▁opportunity	-2249
de	-2250
ops	-2251
▁etc	-2252
▁prac	-2253
▁cover	-2254
ividual	-2255
▁medium	-2256
▁potato	-2257
▁address	-2258
UR	-2259
eye	-2260
par	-2261
ron	-2262
▁PR	-2263
▁egg	-2264
▁desc	-2265
▁sauc	-2266
▁enter	-2267
ilateral	-2268
▁expendit	-2269
ras	-2270
▁mix	-2271
▁Stand	-2272
%,	-2273
26	-2274
alal	-2275
lies	-2276
asing	-2277
icken	-2278
▁Sept	-2279
▁case	-2280
▁next	-2281
▁above	-2282
▁class	-2283
▁modern	-2284
▁decline	-2285
▁21	-2286
eter	-2287
▁Eng	-2288
enced	-2289
▁2001,	-2290
▁diffic	-2291
▁Process	-2292
▁Economic	-2293
▁according	-2294
ogn	-2295
ense	-2296
pper	-2297
▁air	-2298
▁def	-2299
aiwan	-2300
▁char	-2301
onitor	-2302
▁appear	-2303
▁employ	-2304
95	-2305
ING	-2306
asp	-2307
based	-2308
▁making	-2309
▁months	-2310
▁policy	-2311
ta	-2312
▁best	-2313
▁doll	-2314
ockeye	-2315
▁Korea	-2316
▁bread	-2317
▁2005."	-2318
▁detail	-2319
▁Belgium	-2320
▁telescope	-2321
▁activities	-2322
▁Commissioner	-2323
▁infrastructure	-2324
oming	-2325
oront	-2326
▁here	-2327
olumbia	-2328
▁variety	-2329
▁directly	-2330
▁throughout	-2331
▁Fl	-2332
▁French	-2333
▁Frozen	-2334
▁overall	-2335
▁working	-2336
▁supplied	-2337
▁necessary	-2338
▁Statistics	-2339
▁inspection	-2340
bo	-2341
""."	-2342
lation	-2343
▁study	-2344
▁Center	-2345
▁Observ	-2346
▁Ukrain	-2347
▁states	-2348
▁Austria	-2349
▁Customs	-2350
▁organiz	-2351
▁perform	-2352
orporation	-2353
▁accounted	-2354
ably	-2355
comm	-2356
▁mat	-2357
These	-2358
▁Arab	-2359
▁fund	-2360
▁gene	-2361
▁line	-2362
▁global	-2363
▁target	-2364
▁farmers	-2365
CI	-2366
▁BC	-2367
ergy	-2368
ention	-2369
▁basis	-2370
▁provin	-2371
▁substan	-2372
▁commodities	-2373
2,	-2374
83	-2375
AP	-2376
oup	-2377
rior	-2378
ingle	-2379
ticle	-2380
oronto	-2381
▁cream	-2382
▁already	-2383
▁related	-2384
▁majority	-2385
25	-2386
edi	-2387
ght	-2388
struc	-2389
▁Cost	-2390
▁inst	-2391
▁Guide	-2392
▁regions	-2393
▁successful	-2394
63	-2395
▁€	-2396
ager	-2397
ensive	-2398
▁example	-2399
▁manufacturing	-2400
angh	-2401
▁Port	-2402
▁Exhib	-2403
SE	-2404
Sp	-2405
err	-2406
▁Sa	-2407
entil	-2408
vious	-2409
▁1990	-2410
▁Meat	-2411
▁held	-2412
▁prin	-2413
▁located	-2414
▁resources	-2415
4,	-2416
iew	-2417
king	-2418
uman	-2419
ators	-2420
▁pass	-2421
▁said	-2422
endent	-2423
espite	-2424
▁least	-2425
▁stars	-2426
▁Taiwan	-2427
▁season	-2428
oti	-2429
work	-2430
▁beg	-2431
▁just	-2432
▁tend	-2433
cience	-2434
▁chall	-2435
▁means	-2436
erve	-2437
ique	-2438
▁Nor	-2439
▁proj	-2440
▁test	-2441
luding	-2442
▁given	-2443
▁sweet	-2444
ibility	-2445
▁Turkey	-2446
▁slight	-2447
▁Officer	-2448
▁exhibit	-2449
▁Columbia	-2450
▁confectionery	-2451
me	-2452
▁AND	-2453
istan	-2454
▁gain	-2455
icient	-2456
▁snack	-2457
▁content	-2458
▁scienti	-2459
▁included	-2460
▁developing	-2461
▁Le	-2462
vent	-2463
alers	-2464
▁live	-2465
anghai	-2466
aughter	-2467
▁better	-2468
▁change	-2469
▁record	-2470
▁Central	-2471
▁tariffs	-2472
▁accounts	-2473
...	-2474
OOD	-2475
tial	-2476
▁Lat	-2477
▁plan	-2478
▁Afric	-2479
▁Toronto	-2480
▁increases	-2481
▁responsible	-2482
/0	-2483
lus	-2484
▁Cl	-2485
ires	-2486
▁Show	-2487
isions	-2488
▁Office	-2489
▁rapidly	-2490
▁Consumer	-2491
▁Division	-2492
▁includes	-2493
▁individual	-2494
ert	-2495
ret	-2496
ares	-2497
ison	-2498
▁Box	-2499
▁Del	-2500
▁Med	-2501
▁USA	-2502
▁what	-2503
sequent	-2504
▁encour	-2505
▁please	-2506
▁programs	-2507
▁considered	-2508
17	-2509
▁(5	-2510
▁date	-2511
▁fair	-2512
▁border	-2513
▁conduc	-2514
▁capital	-2515
▁concent	-2516
▁without	-2517
▁Contacts	-2518
▁although	-2519
▁supplier	-2520
▁registered	-2521
▁relatively	-2522
Im	-2523
ana	-2524
ape	-2525
the	-2526
▁2,	-2527
▁27	-2528
imum	-2529
▁Aug	-2530
ulate	-2531
▁able	-2532
▁dest	-2533
▁full	-2534
▁rise	-2535
▁whole	-2536
▁Indian	-2537
▁Israeli	-2538
▁greater	-2539
▁official	-2540
33	-2541
uty	-2542
ests	-2543
play	-2544
▁bulk	-2545
▁come	-2546
▁ship	-2547
ervice	-2548
▁Bever	-2549
▁trends	-2550
▁intended	-2551
▁interested	-2552
▁Corporation	-2553
To	-2554
row	-2555
▁lik	-2556
▁pub	-2557
▁State	-2558
▁juice	-2559
▁recogn	-2560
▁primary	-2561
▁segment	-2562
▁character	-2563
▁fisheries	-2564
▁transportation	-2565
99	-2566
500	-2567
ded	-2568
itam	-2569
▁way	-2570
iance	-2571
ravel	-2572
▁beans	-2573
▁event	-2574
▁drinks	-2575
▁expanding	-2576
day	-2577
ush	-2578
▁$4	-2579
▁ne	-2580
fish	-2581
▁rad	-2582
redit	-2583
▁innov	-2584
▁Shanghai	-2585
▁decrease	-2586
▁standard	-2587
▁continues	-2588
ades	-2589
ions	-2590
ising	-2591
▁cere	-2592
iotech	-2593
loaded	-2594
▁rough	-2595
▁white	-2596
▁excell	-2597
▁nearly	-2598
▁cor	-2599
▁associ	-2600
▁streng	-2601
▁document	-2602
▁spending	-2603
▁September	-2604
▁contribut	-2605
▁decreased	-2606
▁generally	-2607
ash	-2608
▁Ed	-2609
▁bod	-2610
▁clo	-2611
alance	-2612
▁promo	-2613
▁trading	-2614
▁applicant	-2615
▁Observatory	-2616
66	-2617
vey	-2618
▁mL	-2619
real	-2620
ware	-2621
▁10%	-2622
▁los	-2623
▁obj	-2624
▁six	-2625
change	-2626
▁source	-2627
▁quantity	-2628
▁decreasing	-2629
▁facilities	-2630
▁supermarket	-2631
Int	-2632
▁29	-2633
▁Dr	-2634
▁Mr	-2635
▁rele	-2636
▁butter	-2637
▁involved	-2638
▁x	-2639
▁Bu	-2640
ados	-2641
anit	-2642
rimp	-2643
▁198	-2644
attle	-2645
▁crops	-2646
▁spect	-2647
▁energy	-2648
▁single	-2649
▁weight	-2650
▁towards	-2651
According	-2652
▁primarily	-2653
)"	-2654
met	-2655
ield	-2656
vant	-2657
▁20%	-2658
▁Per	-2659
▁She	-2660
▁how	-2661
▁comb	-2662
▁space	-2663
▁canned	-2664
▁storage	-2665
ification	-2666
▁chocolate	-2667
▁industries	-2668
▁certificate	-2669
cy	-2670
lex	-2671
tis	-2672
uay	-2673
Over	-2674
atic	-2675
ilar	-2676
oney	-2677
▁Mar	-2678
▁forward	-2679
▁healthy	-2680
▁roughly	-2681
▁sockeye	-2682
▁Organization	-2683
of	-2684
▁Eu	-2685
."""	-2686
omes	-2687
tern	-2688
▁Not	-2689
▁tot	-2690
▁prem	-2691
▁apply	-2692
▁basic	-2693
▁power	-2694
▁shows	-2695
pportun	-2696
▁forecast	-2697
ev	-2698
eph	-2699
ola	-2700
aper	-2701
chie	-2702
ATION	-2703
▁diet	-2704
▁point	-2705
▁Distrib	-2706
▁particular	-2707
▁respectively	-2708
oi	-2709
ama	-2710
yle	-2711
▁Sea	-2712
▁age	-2713
▁bak	-2714
▁eng	-2715
antic	-2716
igure	-2717
imals	-2718
ustain	-2719
29	-2720
St	-2721
Com	-2722
▁On	-2723
lled	-2724
oung	-2725
quac	-2726
ruit	-2727
ults	-2728
▁River	-2729
▁proced	-2730
▁remains	-2731
▁benefits	-2732
▁difficult	-2733
EL	-2734
▁u	-2735
put	-2736
reg	-2737
▁Ro	-2738
ither	-2739
▁beer	-2740
▁wide	-2741
▁Sales	-2742
▁issued	-2743
▁totaled	-2744
▁customers	-2745
oms	-2746
utch	-2747
heast	-2748
thers	-2749
▁Cuba	-2750
▁Farm	-2751
▁Email	-2752
▁human	-2753
▁start	-2754
quaculture	-2755
▁livestock	-2756
▁registration	-2757
sw	-2758
agn	-2759
ior	-2760
ilit	-2761
tire	-2762
▁day	-2763
▁ice	-2764
inary	-2765
▁Barb	-2766
▁back	-2767
▁firm	-2768
ilding	-2769
ousand	-2770
▁Group	-2771
▁prior	-2772
▁taste	-2773
▁players	-2774
▁previous	-2775
▁Institute	-2776
8,	-2777
AB	-2778
Ar	-2779
aim	-2780
elf	-2781
ici	-2782
▁Av	-2783
cery	-2784
ends	-2785
▁CON	-2786
▁Cal	-2787
▁cod	-2788
▁cur	-2789
bsite	-2790
▁City	-2791
▁poli	-2792
▁Brand	-2793
▁below	-2794
Despite	-2795
▁govern	-2796
▁Ukraine	-2797
romonitor	-2798
▁purchase	-2799
▁received	-2800
▁Agreement	-2801
▁specialty	-2802
▁industrial	-2803
▁management	-2804
pportunities	-2805
international	-2806
raw	-2807
▁OF	-2808
▁nam	-2809
anada	-2810
riers	-2811
▁1997	-2812
▁Pres	-2813
▁They	-2814
▁func	-2815
▁west	-2816
▁along	-2817
▁Western	-2818
▁fishing	-2819
ownloaded	-2820
▁Standards	-2821
ET	-2822
.4%	-2823
app	-2824
▁ge	-2825
ette	-2826
gest	-2827
▁lit	-2828
▁dise	-2829
▁salt	-2830
etween	-2831
▁urban	-2832
▁subsid	-2833
▁policies	-2834
▁purchasing	-2835
75	-2836
OT	-2837
ek	-2838
.6%	-2839
orts	-2840
▁beh	-2841
▁red	-2842
▁ste	-2843
▁Prov	-2844
▁fall	-2845
Market	-2846
istics	-2847
▁known	-2848
etitors	-2849
▁eating	-2850
▁changes	-2851
ermarkets	-2852
▁possible	-2853
▁reported	-2854
▁application	-2855
6)	-2856
go	-2857
uan	-2858
▁(8	-2859
osed	-2860
wide	-2861
Other	-2862
▁cris	-2863
▁lack	-2864
▁move	-2865
ecting	-2866
▁north	-2867
▁rules	-2868
▁across	-2869
▁negoti	-2870
▁slaughter	-2871
73	-2872
EX	-2873
.2%	-2874
cip	-2875
▁36	-2876
▁Mc	-2877
▁Gre	-2878
eties	-2879
itzer	-2880
▁Iran	-2881
▁capac	-2882
ription	-2883
▁larger	-2884
▁farming	-2885
▁Pavilion	-2886
▁producer	-2887
▁slightly	-2888
▁vegetable	-2889
Pro	-2890
rem	-2891
rict	-2892
▁GMO	-2893
▁days	-2894
▁quick	-2895
▁similar	-2896
▁packaged	-2897
▁problems	-2898
▁reaching	-2899
CC	-2900
ict	-2901
ways	-2902
▁cal	-2903
▁head	-2904
▁refl	-2905
▁Costa	-2906
▁Polic	-2907
▁agent	-2908
▁likely	-2909
▁looking	-2910
▁becoming	-2911
▁contract	-2912
▁excellent	-2913
▁providing	-2914
▁subsequent	-2915
▁organizations	-2916
aff	-2917
ecu	-2918
▁mt	-2919
aken	-2920
erved	-2921
osher	-2922
▁Portug	-2923
▁impact	-2924
▁listed	-2925
ocuments	-2926
▁sustain	-2927
itzerland	-2928
▁recently	-2929
▁bilateral	-2930
▁Inspection	-2931
▁significantly	-2932
.8%	-2933
▁50%	-2934
▁chem	-2935
lished	-2936
▁south	-2937
▁compet	-2938
▁another	-2939
▁chilled	-2940
▁capacity	-2941
▁Marketing	-2942
▁pharmaceu	-2943
▁institution	-2944
5)	-2945
pdf	-2946
▁$5	-2947
▁$6	-2948
▁5%	-2949
PORT	-2950
inal	-2951
▁Est	-2952
▁Joh	-2953
▁wid	-2954
ranch	-2955
▁post	-2956
gether	-2957
▁chann	-2958
▁clear	-2959
▁legis	-2960
▁August	-2961
▁Invest	-2962
▁consult	-2963
▁systems	-2964
▁together	-2965
Downloaded	-2966
▁Biotechnology	-2967
PDF	-2968
amb	-2969
umm	-2970
/200	-2971
comp	-2972
▁And	-2973
eding	-2974
ittee	-2975
▁achie	-2976
▁Commun	-2977
▁rising	-2978
21	-2979
rs	-2980
sc	-2981
▁43	-2982
▁Act	-2983
▁sem	-2984
quire	-2985
▁outs	-2986
ibbean	-2987
▁Value	-2988
▁early	-2989
▁partner	-2990
▁category	-2991
▁complete	-2992
▁accounting	-2993
▁categories	-2994
▁000	-2995
▁deg	-2996
anced	-2997
ocial	-2998
▁role	-2999
▁2006,	-3000
▁store	-3001
▁types	-3002
loyment	-3003
vention	-3004
▁cities	-3005
▁offers	-3006
ographic	-3007
▁Montreal	-3008
▁technical	-3009
▁processors	-3010
DI	-3011
.3%	-3012
man	-3013
▁33	-3014
▁Bl	-3015
▁km	-3016
etro	-3017
izing	-3018
▁brok	-3019
▁phot	-3020
encies	-3021
ticals	-3022
atories	-3023
▁Africa	-3024
▁either	-3025
▁animals	-3026
▁analysis	-3027
▁households	-3028
2)	-3029
AG	-3030
OC	-3031
gyp	-3032
▁eas	-3033
▁quot	-3034
▁reli	-3035
▁Latin	-3036
▁amend	-3037
▁apples	-3038
▁became	-3039
▁Exporters	-3040
▁importing	-3041
▁regarding	-3042
▁operations	-3043
55)	-3044
oon	-3045
59-7	-3046
avor	-3047
▁Mor	-3048
▁San	-3049
▁act	-3050
▁sale	-3051
ansion	-3052
▁close	-3053
▁shrimp	-3054
ependent	-3055
▁Company	-3056
▁Present	-3057
▁Minister	-3058
▁Caribbean	-3059
▁restaurant	-3060
▁understand	-3061
wh	-3062
iam	-3063
oice	-3064
reet	-3065
venue	-3066
ediate	-3067
▁balance	-3068
▁benefit	-3069
▁promote	-3070
▁Regional	-3071
▁consumed	-3072
▁therefore	-3073
85	-3074
-3)	-3075
▁El	-3076
▁La	-3077
▁Slo	-3078
▁fat	-3079
ledge	-3080
▁grew	-3081
▁phys	-3082
▁wild	-3083
urance	-3084
▁Access	-3085
▁chicken	-3086
▁thousand	-3087
▁influence	-3088
He	-3089
by	-3090
ova	-3091
uis	-3092
ule	-3093
ury	-3094
▁bi	-3095
▁Whe	-3096
▁far	-3097
tices	-3098
▁soup	-3099
▁young	-3100
▁2006."	-3101
▁labels	-3102
▁Atlantic	-3103
▁published	-3104
45	-3105
Cons	-3106
cean	-3107
road	-3108
▁Add	-3109
▁Sec	-3110
▁big	-3111
▁kil	-3112
ittle	-3113
rises	-3114
▁Grow	-3115
▁grown	-3116
▁press	-3117
▁times	-3118
▁Future	-3119
▁entire	-3120
▁Fisheries	-3121
AE	-3122
arn	-3123
ili	-3124
net	-3125
asts	-3126
iche	-3127
unei	-3128
▁pul	-3129
erous	-3130
▁Asian	-3131
▁issue	-3132
▁joint	-3133
▁Federal	-3134
▁importance	-3135
▁Opportunities	-3136
47	-3137
EU	-3138
FA	-3139
IT	-3140
fl	-3141
/19	-3142
ath	-3143
cel	-3144
▁eat	-3145
▁mul	-3146
entils	-3147
▁Colom	-3148
▁aware	-3149
▁farms	-3150
▁force	-3151
▁integ	-3152
anitary	-3153
▁Norway	-3154
▁return	-3155
▁Manager	-3156
▁Program	-3157
▁usually	-3158
▁alcoholic	-3159
▁distributor	-3160
98	-3161
da	-3162
ils	-3163
▁PO	-3164
omen	-3165
▁Sun	-3166
▁imm	-3167
▁1996	-3168
▁Rica	-3169
▁info	-3170
ephone	-3171
▁flour	-3172
▁events	-3173
▁soybean	-3174
▁Astronom	-3175
▁discount	-3176
▁astronomy	-3177
▁reference	-3178
ua	-3179
▁90	-3180
abor	-3181
▁Che	-3182
▁Fin	-3183
▁enj	-3184
▁let	-3185
▁mov	-3186
▁sea	-3187
merce	-3188
raser	-3189
▁soft	-3190
▁type	-3191
▁Suite	-3192
▁groups	-3193
▁reform	-3194
▁annually	-3195
▁experience	-3196
▁Switzerland	-3197
ck	-3198
.7%	-3199
▁(0	-3200
▁35	-3201
unis	-3202
▁Pol	-3203
▁dry	-3204
▁Orig	-3205
▁Prep	-3206
▁eggs	-3207
▁effect	-3208
▁effort	-3209
▁exchange	-3210
▁determine	-3211
▁expansion	-3212
--	-3213
3,	-3214
42	-3215
By	-3216
PP	-3217
▁+	-3218
che	-3219
oph	-3220
udi	-3221
urs	-3222
inks	-3223
merg	-3224
▁CAN	-3225
▁Trad	-3226
▁star	-3227
osition	-3228
▁little	-3229
▁smaller	-3230
We	-3231
ece	-3232
oba	-3233
ites	-3234
▁CAR	-3235
▁Pan	-3236
▁old	-3237
China	-3238
ticip	-3239
▁feat	-3240
▁heav	-3241
▁meal	-3242
▁2000,	-3243
berries	-3244
resents	-3245
▁approved	-3246
▁shipment	-3247
▁totalled	-3248
▁represents	-3249
▁represented	-3250
ips	-3251
▁45	-3252
▁RE	-3253
▁(52	-3254
▁Hot	-3255
added	-3256
ropri	-3257
▁John	-3258
▁More	-3259
▁note	-3260
▁Brunei	-3261
▁Fraser	-3262
▁having	-3263
fication	-3264
▁biotech	-3265
▁Barbados	-3266
▁requires	-3267
employment	-3268
▁Consulate	-3269
▁partnership	-3270
oa	-3271
▁80	-3272
isms	-3273
▁ban	-3274
▁bio	-3275
▁Part	-3276
canada	-3277
idence	-3278
▁Fresh	-3279
▁coast	-3280
▁against	-3281
▁reports	-3282
▁challeng	-3283
▁obtained	-3284
▁economies	-3285
▁situation	-3286
▁Exhibition	-3287
▁scientific	-3288
▁experienced	-3289
27	-3290
IL	-3291
Ind	-3292
ico	-3293
arge	-3294
ighb	-3295
ondon	-3296
▁Bang	-3297
▁drug	-3298
▁educ	-3299
▁Domin	-3300
▁accur	-3301
ackaged	-3302
▁freight	-3303
▁methods	-3304
▁tourism	-3305
▁approval	-3306
▁negative	-3307
▁environmental	-3308
▁participation	-3309
vo	-3310
100	-3311
ave	-3312
lim	-3313
▁Ev	-3314
iscu	-3315
quid	-3316
tice	-3317
▁cli	-3318
aries	-3319
index	-3320
onstr	-3321
▁Egyp	-3322
▁vent	-3323
quette	-3324
Current	-3325
▁active	-3326
▁duties	-3327
▁profess	-3328
▁results	-3329
▁Administ	-3330
▁attribut	-3331
▁political	-3332
▁Investment	-3333
▁procedures	-3334
CA	-3335
yd	-3336
rum	-3337
▁56	-3338
▁FR	-3339
aced	-3340
ular	-3341
▁Fre	-3342
▁WTO	-3343
asons	-3344
inter	-3345
istic	-3346
strum	-3347
▁clos	-3348
▁mach	-3349
▁Dairy	-3350
▁booth	-3351
▁cheese	-3352
▁recomm	-3353
▁spread	-3354
▁payment	-3355
▁concerns	-3356
▁shipping	-3357
▁continued	-3358
▁knowledge	-3359
3)	-3360
.00	-3361
▁AG	-3362
ador	-3363
olid	-3364
ébec	-3365
▁yet	-3366
iting	-3367
▁Merc	-3368
▁city	-3369
▁duty	-3370
▁rank	-3371
▁suff	-3372
▁arran	-3373
▁powder	-3374
outheast	-3375
▁Carling	-3376
▁amendments	-3377
▁nutritional	-3378
92	-3379
eu	-3380
uck	-3381
urg	-3382
▁OJ	-3383
▁(44	-3384
▁Bio	-3385
▁Sen	-3386
▁Str	-3387
ouver	-3388
Export	-3389
▁2003.	-3390
▁image	-3391
▁legal	-3392
▁resid	-3393
▁accept	-3394
▁family	-3395
▁reduced	-3396
▁technolog	-3397
46	-3398
ik	-3399
.1%	-3400
All	-3401
ara	-3402
More	-3403
ights	-3404
▁clim	-3405
ancing	-3406
▁carry	-3407
▁grain	-3408
▁dispos	-3409
▁neighb	-3410
▁outside	-3411
▁Certific	-3412
▁appropri	-3413
;"	-3414
CE	-3415
DC	-3416
ón	-3417
4-9	-3418
▁EX	-3419
eget	-3420
west	-3421
▁adop	-3422
iented	-3423
reland	-3424
▁certi	-3425
▁seeds	-3426
▁vitam	-3427
▁Annual	-3428
▁attrac	-3429
▁hotels	-3430
▁dollars	-3431
▁efforts	-3432
▁identify	-3433
▁strategy	-3434
▁Committee	-3435
2%	-3436
48	-3437
za	-3438
▁◦	-3439
.9%	-3440
Germ	-3441
ches	-3442
ital	-3443
ream	-3444
▁fil	-3445
▁tea	-3446
▁norm	-3447
▁seed	-3448
▁Trans	-3449
▁final	-3450
▁Middle	-3451
▁Origin	-3452
▁cattle	-3453
▁grocery	-3454
▁network	-3455
▁princip	-3456
opulation	-3457
▁modified	-3458
▁potatoes	-3459
▁projects	-3460
▁relevant	-3461
▁transfer	-3462
▁visitors	-3463
▁wholesalers	-3464
▁manufacturer	-3465
ator	-3466
loor	-3467
▁Rel	-3468
▁dou	-3469
▁Fact	-3470
▁Hung	-3471
▁base	-3472
▁emerg	-3473
olution	-3474
▁Québec	-3475
arantine	-3476
▁measures	-3477
▁purchases	-3478
▁genetically	-3479
▁legislation	-3480
▁performance	-3481
ss	-3482
FIA	-3483
urt	-3484
angu	-3485
▁INR	-3486
▁UAE	-3487
▁dri	-3488
▁log	-3489
▁pen	-3490
gress	-3491
rency	-3492
▁(011	-3493
▁Milk	-3494
▁laws	-3495
▁oils	-3496
▁shif	-3497
▁thus	-3498
inning	-3499
itives	-3500
▁Alber	-3501
▁green	-3502
▁prosp	-3503
▁wines	-3504
▁travel	-3505
▁(972-3)	-3506
▁created	-3507
▁effects	-3508
▁minutes	-3509
▁premium	-3510
▁observatory	-3511
76	-3512
GM	-3513
IF	-3514
can	-3515
They	-3516
ower	-3517
year	-3518
▁aim	-3519
▁ide	-3520
Since	-3521
adrid	-3522
anned	-3523
▁hard	-3524
▁port	-3525
produc	-3526
▁Fruit	-3527
▁Manit	-3528
▁cases	-3529
▁compl	-3530
▁plans	-3531
▁Danish	-3532
▁labour	-3533
▁stable	-3534
▁cooking	-3535
▁measure	-3536
▁activity	-3537
▁supplies	-3538
▁documents	-3539
▁Consumption	-3540
▁authorities	-3541
▁preparations	-3542
mx	-3543
ARK	-3544
acy	-3545
▁70	-3546
ened	-3547
term	-3548
▁Exp	-3549
▁hyp	-3550
▁ver	-3551
▁body	-3552
▁risk	-3553
▁shel	-3554
▁sauce	-3555
▁syrup	-3556
▁centre	-3557
▁edible	-3558
▁others	-3559
▁propos	-3560
▁rather	-3561
▁Insight	-3562
▁numbers	-3563
▁businesses	-3564
53	-3565
7%	-3566
UN	-3567
ij	-3568
▁"(	-3569
▁Ab	-3570
eans	-3571
free	-3572
▁Sur	-3573
▁ten	-3574
ureau	-3575
▁Pork	-3576
▁With	-3577
▁caus	-3578
▁deal	-3579
▁once	-3580
Consum	-3581
▁adver	-3582
▁began	-3583
▁bring	-3584
▁compar	-3585
▁favour	-3586
▁social	-3587
atistical	-3588
ermediate	-3589
▁designed	-3590
▁entering	-3591
▁Community	-3592
▁shipments	-3593
▁Philippine	-3594
▁exhibitors	-3595
▁appropriate	-3596
▁independent	-3597
eam	-3598
nic	-3599
▁38	-3600
▁AS	-3601
▁To	-3602
ICOM	-3603
ills	-3604
izes	-3605
then	-3606
▁30%	-3607
▁Nes	-3608
▁lat	-3609
▁put	-3610
▁via	-3611
▁Main	-3612
▁News	-3613
▁care	-3614
▁broad	-3615
▁Member	-3616
▁juices	-3617
▁living	-3618
▁taking	-3619
▁culture	-3620
▁barriers	-3621
▁Southeast	-3622
▁Convention	-3623
▁assistance	-3624
▁expenditure	-3625
▁preparation	-3626
/3	-3627
ols	-3628
▁53	-3629
▁ke	-3630
▁500	-3631
▁Bal	-3632
▁did	-3633
▁mar	-3634
organ	-3635
▁look	-3636
▁2006"	-3637
▁Dutch	-3638
▁ports	-3639
ecutive	-3640
▁Policy	-3641
▁accord	-3642
▁licens	-3643
▁English	-3644
▁facilit	-3645
▁demonstr	-3646
▁turnover	-3647
▁President	-3648
▁commodity	-3649
▁substantial	-3650
4%	-3651
49	-3652
UC	-3653
UL	-3654
VI	-3655
ula	-3656
▁Am	-3657
▁Her	-3658
▁coc	-3659
▁cul	-3660
▁want	-3661
▁Tunis	-3662
▁prote	-3663
▁shopp	-3664
▁taken	-3665
▁London	-3666
ancouver	-3667
▁Ireland	-3668
▁selling	-3669
▁practices	-3670
▁percentage	-3671
Is	-3672
ux	-3673
▁X	-3674
ona	-3675
onia	-3676
osur	-3677
▁cut	-3678
▁run	-3679
▁life	-3680
▁marg	-3681
▁temp	-3682
▁Appro	-3683
▁Atlas	-3684
▁round	-3685
▁ground	-3686
▁offered	-3687
▁whether	-3688
▁Processed	-3689
▁structure	-3690
▁containing	-3691
RE	-3692
ges	-3693
osp	-3694
ider	-3695
oper	-3696
▁(19	-3697
▁Min	-3698
arter	-3699
▁Prin	-3700
anning	-3701
▁2004.	-3702
▁Maple	-3703
▁treat	-3704
▁Eastern	-3705
▁Reports	-3706
▁guarant	-3707
▁largely	-3708
▁indicated	-3709
▁regulatory	-3710
▁competitors	-3711
VER	-3712
irc	-3713
new	-3714
▁31	-3715
▁91	-3716
izer	-3717
▁cel	-3718
erson	-3719
quare	-3720
▁Free	-3721
▁Stud	-3722
ruguay	-3723
▁Street	-3724
▁lifest	-3725
▁signed	-3726
▁species	-3727
▁Manufact	-3728
▁restrictions	-3729
82	-3730
▁1.	-3731
▁sw	-3732
iles	-3733
lied	-3734
▁(50	-3735
inery	-3736
▁bott	-3737
▁Saudi	-3738
▁display	-3739
▁minimum	-3740
▁project	-3741
ederation	-3742
▁Portugal	-3743
▁discover	-3744
▁Telephone	-3745
▁strengthen	-3746
▁foodservice	-3747
▁[	-3748
gen	-3749
▁TO	-3750
ancy	-3751
chin	-3752
ival	-3753
▁mic	-3754
ently	-3755
▁Most	-3756
▁mand	-3757
▁view	-3758
inseng	-3759
ociety	-3760
▁Halal	-3761
▁parts	-3762
▁altern	-3763
▁clients	-3764
▁continu	-3765
▁portion	-3766
Currently	-3767
▁Manitoba	-3768
▁contacts	-3769
▁Vancouver	-3770
▁dominated	-3771
▁cooperation	-3772
▁considerable	-3773
▁organization	-3774
Ad	-3775
-2)	-3776
ala	-3777
ams	-3778
aps	-3779
ump	-3780
ocal	-3781
urth	-3782
▁40%	-3783
▁Ber	-3784
▁eth	-3785
▁get	-3786
▁led	-3787
arent	-3788
ertil	-3789
▁Bank	-3790
▁Veget	-3791
▁satis	-3792
▁grains	-3793
▁survey	-3794
▁though	-3795
tiquette	-3796
▁Markets	-3797
▁incomes	-3798
itionally	-3799
▁Colombia	-3800
▁strategic	-3801
▁Industrial	-3802
▁description	-3803
................	-3804
▁49	-3805
▁Sm	-3806
▁gl	-3807
▁ra	-3808
acco	-3809
omet	-3810
▁25%	-3811
▁Key	-3812
▁aut	-3813
▁rose	-3814
▁subm	-3815
igures	-3816
veness	-3817
▁Annex	-3818
▁Inter	-3819
▁break	-3820
▁claim	-3821
▁makes	-3822
▁occur	-3823
▁Salmon	-3824
▁Senior	-3825
▁temper	-3826
▁attract	-3827
▁western	-3828
▁approach	-3829
▁insurance	-3830
ENT	-3831
ita	-3832
▁ir	-3833
aily	-3834
ales	-3835
ints	-3836
▁125	-3837
▁Ben	-3838
adesh	-3839
umber	-3840
▁GMOs	-3841
▁Some	-3842
▁ques	-3843
ladesh	-3844
▁Nesoi	-3845
▁drink	-3846
▁enjoy	-3847
▁langu	-3848
▁maple	-3849
▁niche	-3850
process	-3851
▁Arabia	-3852
▁Bureau	-3853
▁abroad	-3854
▁proper	-3855
▁Special	-3856
▁Uruguay	-3857
▁centres	-3858
▁disease	-3859
roduction	-3860
▁collabor	-3861
▁produces	-3862
▁additives	-3863
▁effective	-3864
enn	-3865
gar	-3866
tia	-3867
▁CH	-3868
unch	-3869
▁Alg	-3870
▁Cod	-3871
▁NOT	-3872
▁Pot	-3873
▁bri	-3874
▁tri	-3875
berry	-3876
ovine	-3877
▁2010	-3878
▁FOOD	-3879
▁Rest	-3880
▁dess	-3881
ermore	-3882
iteria	-3883
tivity	-3884
▁2002.	-3885
akistan	-3886
▁Regist	-3887
▁decade	-3888
▁expect	-3889
▁permit	-3890
▁CARICOM	-3891
▁Commerce	-3892
▁existing	-3893
urthermore	-3894
▁producing	-3895
▁provinces	-3896
▁specified	-3897
▁concentrated	-3898
▁Administration	-3899
28	-3900
41	-3901
ID	-3902
MA	-3903
Wh	-3904
be	-3905
▁i	-3906
irt	-3907
lin	-3908
▁Gl	-3909
▁em	-3910
avou	-3911
irst	-3912
pose	-3913
rate	-3914
▁HRI	-3915
▁yen	-3916
urity	-3917
▁Fair	-3918
▁exam	-3919
▁hist	-3920
▁repl	-3921
▁week	-3922
inated	-3923
itable	-3924
ithuan	-3925
▁Dried	-3926
▁Egypt	-3927
▁Hotel	-3928
▁Swiss	-3929
▁alone	-3930
▁field	-3931
▁radio	-3932
▁right	-3933
▁comply	-3934
▁pepper	-3935
▁shopping	-3936
▁resulting	-3937
▁varieties	-3938
▁restricted	-3939
▁institutions	-3940
▁unemployment	-3941
aby	-3942
has	-3943
med	-3944
ths	-3945
▁Bi	-3946
eden	-3947
live	-3948
▁Chi	-3949
▁Sco	-3950
Table	-3951
elled	-3952
europ	-3953
force	-3954
▁late	-3955
ussels	-3956
▁honey	-3957
▁later	-3958
▁scale	-3959
iscuits	-3960
▁agents	-3961
▁buying	-3962
▁snacks	-3963
▁Natural	-3964
▁Require	-3965
▁contrib	-3966
▁instrum	-3967
▁website	-3968
▁detailed	-3969
ME	-3970
.0%	-3971
con	-3972
ots	-3973
▁65	-3974
▁Mé	-3975
pped	-3976
ture	-3977
▁250	-3978
▁Expo	-3979
▁drop	-3980
▁face	-3981
▁spir	-3982
Israel	-3983
tities	-3984
▁comes	-3985
▁lines	-3986
lements	-3987
▁always	-3988
▁depend	-3989
▁reason	-3990
▁reduce	-3991
▁Economy	-3992
▁criteria	-3993
▁currency	-3994
▁declined	-3995
▁Production	-3996
▁Regulation	-3997
▁accordance	-3998
▁provincial	-3999
▁pharmaceutical	-4000
icy	-4001
utr	-4002
▁(1	-4003
ores	-4004
▁60%	-4005
▁996	-4006
▁Bay	-4007
▁sky	-4008
▁Land	-4009
▁rang	-4010
▁upon	-4011
▁const	-4012
▁hours	-4013
▁table	-4014
▁degree	-4015
▁litres	-4016
▁unique	-4017
▁problem	-4018
▁testing	-4019
▁location	-4020
▁province	-4021
▁Technology	-4022
▁attractive	-4023
▁disposable	-4024
▁expenditures	-4025
▁responsibility	-4026
93	-4027
-20	-4028
ids	-4029
ude	-4030
▁wr	-4031
AFTA	-4032
From	-4033
areh	-4034
▁Pre	-4035
▁enh	-4036
▁max	-4037
Mexic	-4038
cohol	-4039
▁Form	-4040
▁self	-4041
amples	-4042
tising	-4043
▁Avail	-4044
▁Moroc	-4045
▁Scotia	-4046
▁nation	-4047
▁ability	-4048
▁cereals	-4049
▁mission	-4050
▁agencies	-4051
▁authority	-4052
▁Population	-4053
▁ingredient	-4054
▁introduced	-4055
▁astronomers	-4056
▁contributed	-4057
▁relationships	-4058
8%	-4059
gi	-4060
Agri	-4061
▁SAR	-4062
▁lot	-4063
▁Dist	-4064
▁cold	-4065
▁keep	-4066
rative	-4067
uality	-4068
▁(34-9	-4069
▁Plant	-4070
▁labor	-4071
▁rural	-4072
▁Madrid	-4073
▁bakery	-4074
▁compon	-4075
▁mostly	-4076
▁review	-4077
▁defined	-4078
▁figures	-4079
▁recover	-4080
▁Brazilian	-4081
▁operating	-4082
IB	-4083
OL	-4084
cl	-4085
▁2%	-4086
▁3,	-4087
▁32	-4088
roph	-4089
zech	-4090
▁Cor	-4091
▁cho	-4092
▁ess	-4093
▁Nova	-4094
▁Read	-4095
▁Seed	-4096
▁mean	-4097
▁belie	-4098
▁direc	-4099
▁forms	-4100
▁shops	-4101
▁coming	-4102
▁emphas	-4103
▁Italian	-4104
▁Beverage	-4105
▁accuracy	-4106
▁decision	-4107
▁contained	-4108
▁popularity	-4109
▁aquaculture	-4110
):	-4111
App	-4112
ION	-4113
ago	-4114
bio	-4115
oss	-4116
▁63	-4117
rich	-4118
▁15%	-4119
▁pig	-4120
ondur	-4121
rends	-4122
ribed	-4123
▁Drug	-4124
▁Gene	-4125
▁Many	-4126
▁poor	-4127
,000);	-4128
ensity	-4129
ground	-4130
ourmet	-4131
ressed	-4132
▁cater	-4133
▁exper	-4134
▁hotel	-4135
▁links	-4136
▁2000."	-4137
▁Hungary	-4138
▁central	-4139
▁federal	-4140
▁receive	-4141
▁Pakistan	-4142
▁beginning	-4143
▁Federation	-4144
yl	-4145
▁z	-4146
ERS	-4147
alt	-4148
▁46	-4149
▁73	-4150
▁Ge	-4151
When	-4152
iter	-4153
yles	-4154
▁Dem	-4155
▁EDC	-4156
▁dro	-4157
cious	-4158
opped	-4159
▁1995	-4160
▁Size	-4161
▁Wine	-4162
▁Year	-4163
▁east	-4164
ummary	-4165
▁759-7	-4166
▁defic	-4167
▁names	-4168
▁refer	-4169
▁reput	-4170
quality	-4171
ulation	-4172
▁Secret	-4173
▁cannot	-4174
▁middle	-4175
▁Aliment	-4176
▁lentils	-4177
struction	-4178
Agriculture	-4179
▁protection	-4180
▁Euromonitor	-4181
▁destination	-4182
▁documentation	-4183
97	-4184
▁#	-4185
IAL	-4186
ney	-4187
aves	-4188
ican	-4189
rawn	-4190
▁80%	-4191
▁Can	-4192
▁Fil	-4193
▁Rec	-4194
▁Red	-4195
ARKET	-4196
ields	-4197
▁Aviv	-4198
▁crab	-4199
▁hect	-4200
▁step	-4201
▁2006.	-4202
▁House	-4203
▁launc	-4204
raining	-4205
▁Coffee	-4206
▁Events	-4207
▁fertil	-4208
▁equival	-4209
▁quickly	-4210
▁Mercosur	-4211
▁electric	-4212
▁expensive	-4213
▁challenges	-4214
▁representing	-4215
VE	-4216
ino	-4217
see	-4218
▁CC	-4219
book	-4220
erch	-4221
ives	-4222
ocks	-4223
▁1.4	-4224
▁Cro	-4225
▁gal	-4226
▁gas	-4227
▁pat	-4228
▁Prot	-4229
Import	-4230
ecific	-4231
ficial	-4232
hedule	-4233
▁paper	-4234
Between	-4235
utraceu	-4236
▁Growth	-4237
▁Please	-4238
▁Poland	-4239
▁commit	-4240
▁create	-4241
▁allowed	-4242
▁counter	-4243
▁ginseng	-4244
▁communic	-4245
▁numerous	-4246
▁machinery	-4247
▁promotion	-4248
Furthermore	-4249
▁functional	-4250
▁Cooperation	-4251
6/	-4252
EW	-4253
New	-4254
aid	-4255
bon	-4256
hrs	-4257
ila	-4258
▁di	-4259
date	-4260
▁70%	-4261
▁Oil	-4262
▁cop	-4263
▁fee	-4264
▁hog	-4265
Spain	-4266
Trade	-4267
ellow	-4268
elves	-4269
foods	-4270
▁Brun	-4271
▁Supp	-4272
▁away	-4273
▁peas	-4274
attern	-4275
rought	-4276
▁Czech	-4277
▁Ocean	-4278
titutes	-4279
▁Figure	-4280
▁accomp	-4281
▁contro	-4282
▁liquid	-4283
▁output	-4284
▁Building	-4285
▁Universe	-4286
▁frequent	-4287
▁relating	-4288
▁Beverages	-4289
▁purchased	-4290
▁typically	-4291
PA	-4292
SC	-4293
ple	-4294
▁3%	-4295
▁4%	-4296
arth	-4297
orks	-4298
ques	-4299
xico	-4300
▁One	-4301
rance	-4302
swick	-4303
▁Name	-4304
▁conn	-4305
ticles	-4306
▁Price	-4307
▁child	-4308
▁corre	-4309
▁today	-4310
Imports	-4311
▁Animal	-4312
▁Island	-4313
▁México	-4314
▁assess	-4315
▁credit	-4316
▁factor	-4317
▁leader	-4318
▁matter	-4319
▁nature	-4320
▁office	-4321
▁slowly	-4322
tiveness	-4323
▁Lithuan	-4324
▁monitor	-4325
▁operate	-4326
▁reasons	-4327
▁community	-4328
▁department	-4329
57	-4330
SA	-4331
rob	-4332
▁6,	-4333
▁93	-4334
▁II	-4335
▁Pe	-4336
▁TH	-4337
lesh	-4338
▁300	-4339
▁Ast	-4340
▁obl	-4341
▁web	-4342
ances	-4343
aring	-4344
atoes	-4345
thing	-4346
▁Mart	-4347
▁Sask	-4348
▁came	-4349
▁ever	-4350
▁fill	-4351
▁give	-4352
▁grad	-4353
ership	-4354
ulated	-4355
▁catch	-4356
▁separ	-4357
▁stock	-4358
▁thems	-4359
▁Common	-4360
▁Region	-4361
▁except	-4362
▁longer	-4363
▁opened	-4364
▁Competi	-4365
▁funding	-4366
▁affected	-4367
▁changing	-4368
▁Bangladesh	-4369
▁encouraged	-4370
▁themselves	-4371
▁Requirements	-4372
81	-4373
cf	-4374
TOR	-4375
dic	-4376
ife	-4377
now	-4378
▁"1	-4379
▁5,	-4380
oint	-4381
wise	-4382
▁Ave	-4383
▁Bre	-4384
▁COM	-4385
▁Ent	-4386
ening	-4387
ernal	-4388
ively	-4389
style	-4390
▁mass	-4391
▁news	-4392
▁Coast	-4393
▁assum	-4394
▁stead	-4395
▁women	-4396
▁Avenue	-4397
▁System	-4398
▁Section	-4399
▁Prepared	-4400
▁administ	-4401
▁relative	-4402
▁spectrum	-4403
▁Brunswick	-4404
▁Importers	-4405
▁healthier	-4406
▁inflation	-4407
▁provisions	-4408
▁advertising	-4409
▁characteristics	-4410
EY	-4411
kg	-4412
Inc	-4413
isk	-4414
uce	-4415
▁$7	-4416
Comp	-4417
emon	-4418
▁Tim	-4419
▁dur	-4420
▁som	-4421
amber	-4422
owned	-4423
place	-4424
ushro	-4425
▁Beef	-4426
▁Post	-4427
▁cuis	-4428
▁eval	-4429
▁fees	-4430
▁priv	-4431
ishing	-4432
prises	-4433
▁galax	-4434
▁multi	-4435
▁attemp	-4436
ivestock	-4437
ological	-4438
▁Russian	-4439
▁Tunisia	-4440
▁climate	-4441
▁deliver	-4442
▁pattern	-4443
▁steadily	-4444
▁remaining	-4445
▁treatment	-4446
▁applicable	-4447
▁strategies	-4448
HS	-4449
TH	-4450
Reg	-4451
▁75	-4452
-20)	-4453
-55)	-4454
face	-4455
ghan	-4456
lick	-4457
▁930	-4458
▁Hog	-4459
▁fats	-4460
▁page	-4461
▁poll	-4462
chmark	-4463
tially	-4464
utions	-4465
▁Floor	-4466
ultural	-4467
▁engine	-4468
▁quotas	-4469
▁refrig	-4470
▁Article	-4471
▁gaining	-4472
▁channels	-4473
▁chemical	-4474
▁launched	-4475
▁original	-4476
▁pressure	-4477
▁identified	-4478
Due	-4479
aul	-4480
bed	-4481
lab	-4482
ows	-4483
una	-4484
▁er	-4485
fast	-4486
oday	-4487
urch	-4488
▁Are	-4489
▁Cat	-4490
▁Out	-4491
▁Roy	-4492
▁too	-4493
After	-4494
aster	-4495
essel	-4496
ummer	-4497
▁Prom	-4498
▁guid	-4499
▁link	-4500
rophys	-4501
▁Space	-4502
▁crisp	-4503
▁cereal	-4504
▁dollar	-4505
▁Alberta	-4506
▁flavour	-4507
▁willing	-4508
abilities	-4509
▁Analysis	-4510
▁offering	-4511
▁pavilion	-4512
▁conducted	-4513
▁efficient	-4514
▁astronomer	-4515
EB	-4516
MP	-4517
-23	-4518
▁39	-4519
▁Do	-4520
▁IS	-4521
▁MT	-4522
alls	-4523
osph	-4524
stim	-4525
▁Top	-4526
▁abs	-4527
▁mid	-4528
▁tob	-4529
ramew	-4530
▁blue	-4531
▁deli	-4532
▁nuts	-4533
▁reve	-4534
olumes	-4535
ussion	-4536
▁meats	-4537
▁might	-4538
▁spent	-4539
▁called	-4540
▁(52-55)	-4541
▁Ingredi	-4542
▁Million	-4543
▁demands	-4544
▁licence	-4545
▁protein	-4546
▁quarter	-4547
▁request	-4548
▁contains	-4549
▁customer	-4550
▁electron	-4551
▁awareness	-4552
▁decisions	-4553
67	-4554
Ph	-4555
aly	-4556
irr	-4557
▁$0	-4558
▁4,	-4559
▁Me	-4560
ises	-4561
orse	-4562
▁FOR	-4563
▁rip	-4564
racts	-4565
▁What	-4566
▁anti	-4567
▁prop	-4568
▁side	-4569
▁stat	-4570
ounced	-4571
riving	-4572
venues	-4573
▁Rural	-4574
▁apple	-4575
▁olive	-4576
▁Sweden	-4577
▁caused	-4578
▁points	-4579
▁strict	-4580
ermarket	-4581
▁Morocco	-4582
▁compete	-4583
▁heavily	-4584
▁tobacco	-4585
▁univers	-4586
▁language	-4587
▁resulted	-4588
▁worldwide	-4589
▁statistics	-4590
/2	-4591
ía	-4592
-10	-4593
1.0	-4594
ane	-4595
cia	-4596
aria	-4597
head	-4598
rink	-4599
▁ASE	-4600
▁MER	-4601
▁Mus	-4602
▁saw	-4603
iforn	-4604
ology	-4605
rates	-4606
▁Conf	-4607
▁Data	-4608
▁Mark	-4609
▁done	-4610
▁fine	-4611
▁says	-4612
▁sens	-4613
▁Phone	-4614
▁accep	-4615
▁clean	-4616
▁quite	-4617
erchand	-4618
ifornia	-4619
ography	-4620
▁Number	-4621
▁exceed	-4622
▁achieve	-4623
▁volumes	-4624
▁Document	-4625
▁vitamins	-4626
▁Canadians	-4627
▁Consumers	-4628
▁financing	-4629
▁improving	-4630
▁associated	-4631
▁authorized	-4632
▁innovative	-4633
▁Distribution	-4634
▁technologies	-4635
65	-4636
Ac	-4637
rus	-4638
via	-4639
vin	-4640
▁55	-4641
▁Em	-4642
▁943	-4643
▁But	-4644
▁Mac	-4645
echan	-4646
▁Nest	-4647
▁Uses	-4648
▁2001.	-4649
▁Flesh	-4650
▁cross	-4651
▁overs	-4652
▁shown	-4653
▁wareh	-4654
Germany	-4655
iciency	-4656
▁Panama	-4657
▁Return	-4658
▁Trends	-4659
▁agency	-4660
▁broker	-4661
▁colour	-4662
▁confir	-4663
▁interv	-4664
▁itself	-4665
▁kosher	-4666
ramework	-4667
▁Control	-4668
▁dropped	-4669
▁meeting	-4670
▁mention	-4671
▁mineral	-4672
▁Domestic	-4673
▁Exporter	-4674
▁indicate	-4675
▁nutrition	-4676
▁attributed	-4677
▁quantities	-4678
▁regulation	-4679
▁recommended	-4680
▁hypermarkets	-4681
.)	-4682
1%	-4683
nd	-4684
nl	-4685
ya	-4686
16)	-4687
enu	-4688
ler	-4689
ole	-4690
son	-4691
▁37	-4692
▁fo	-4693
Most	-4694
ters	-4695
▁(31	-4696
▁Law	-4697
▁lay	-4698
▁why	-4699
▁Vari	-4700
▁qual	-4701
iments	-4702
▁ASEAN	-4703
▁Pasta	-4704
▁buyer	-4705
▁grant	-4706
▁serve	-4707
▁trace	-4708
▁Sloven	-4709
▁lowest	-4710
▁tastes	-4711
▁Quality	-4712
▁Scienti	-4713
▁package	-4714
▁reforms	-4715
including	-4716
▁amounted	-4717
▁overview	-4718
▁exception	-4719
▁presented	-4720
▁Protection	-4721
▁certificates	-4722
▁representatives	-4723
6%	-4724
Of	-4725
▁,	-4726
▁«	-4727
cap	-4728
cis	-4729
ype	-4730
▁Li	-4731
▁SU	-4732
amer	-4733
irds	-4734
▁613	-4735
▁Inf	-4736
▁Lic	-4737
▁Mod	-4738
▁Saf	-4739
▁pan	-4740
ained	-4741
going	-4742
seeds	-4743
▁bank	-4744
▁desp	-4745
▁terr	-4746
▁Green	-4747
▁Shape	-4748
▁guide	-4749
▁medic	-4750
▁owned	-4751
onduras	-4752
▁barley	-4753
▁canola	-4754
▁exclus	-4755
▁franch	-4756
▁losing	-4757
▁chopped	-4758
▁clearly	-4759
▁purpose	-4760
▁Labelling	-4761
▁concerned	-4762
▁reputation	-4763
▁associations	-4764
2.	-4765
94	-4766
Ab	-4767
CO	-4768
Add	-4769
emb	-4770
ini	-4771
lam	-4772
orf	-4773
▁7%	-4774
just	-4775
▁(24	-4776
▁1-8	-4777
▁atm	-4778
Under	-4779
▁1994	-4780
▁baby	-4781
▁fell	-4782
▁teas	-4783
ipping	-4784
▁CANAD	-4785
▁Study	-4786
▁cocoa	-4787
▁divid	-4788
▁spend	-4789
▁takes	-4790
Article	-4791
▁behalf	-4792
▁toward	-4793
▁Restaur	-4794
▁applied	-4795
▁complex	-4796
▁despite	-4797
▁follows	-4798
▁respect	-4799
▁spreads	-4800
▁Province	-4801
▁advanced	-4802
▁constant	-4803
▁remained	-4804
▁Livestock	-4805
▁certified	-4806
▁guarantee	-4807
▁Manufactur	-4808
▁equivalent	-4809
▁supplement	-4810
▁Ingredients	-4811
▁association	-4812
▁specifically	-4813
bt	-4814
yo	-4815
ze	-4816
Ann	-4817
TUR	-4818
aci	-4819
ads	-4820
jsp	-4821
tig	-4822
uge	-4823
usc	-4824
vis	-4825
agne	-4826
aled	-4827
hens	-4828
ille	-4829
seed	-4830
▁map	-4831
▁pet	-4832
abits	-4833
itory	-4834
▁1980	-4835
▁Info	-4836
▁born	-4837
▁calc	-4838
▁elim	-4839
▁took	-4840
ategis	-4841
▁(416)	-4842
▁Cuban	-4843
▁juicy	-4844
▁Afghan	-4845
▁Tariff	-4846
▁arrang	-4847
▁ethnic	-4848
▁urchin	-4849
▁values	-4850
▁widely	-4851
▁(34-91)	-4852
▁(44-20)	-4853
▁dessert	-4854
▁generic	-4855
▁packing	-4856
▁spirits	-4857
▁children	-4858
▁improved	-4859
▁organisms	-4860
▁compliance	-4861
▁lifestyles	-4862
▁recognized	-4863
▁Environment	-4864
▁governments	-4865
▁instruments	-4866
▁availability	-4867
87	-4868
89	-4869
-30	-4870
.50	-4871
PEC	-4872
arb	-4873
ply	-4874
ulf	-4875
ugar	-4876
▁12%	-4877
▁Des	-4878
▁EUR	-4879
▁Leb	-4880
▁him	-4881
arian	-4882
armon	-4883
olden	-4884
ospit	-4885
water	-4886
▁Good	-4887
▁Meas	-4888
▁adap	-4889
▁cook	-4890
▁cuts	-4891
▁outl	-4892
erated	-4893
isplay	-4894
▁Water	-4895
▁Wheat	-4896
▁limit	-4897
▁showc	-4898
isation	-4899
▁Volume	-4900
▁enough	-4901
▁extrem	-4902
▁deficit	-4903
▁greatly	-4904
▁Imported	-4905
▁distance	-4906
▁elements	-4907
▁planning	-4908
▁security	-4909
▁secondary	-4910
▁wholesale	-4911
▁California	-4912
▁Statistical	-4913
▁composition	-4914
▁implemented	-4915
▁developments	-4916
400	-4917
Con	-4918
TAL	-4919
equ	-4920
ipe	-4921
osh	-4922
vak	-4923
▁8%	-4924
▁GB	-4925
▁IM	-4926
anks	-4927
atab	-4928
▁Bro	-4929
▁Sch	-4930
▁sun	-4931
,000)	-4932
▁heat	-4933
▁jobs	-4934
During	-4935
aining	-4936
▁Forec	-4937
▁build	-4938
▁charg	-4939
▁daily	-4940
▁perce	-4941
avoured	-4942
ectives	-4943
version	-4944
▁Muslim	-4945
▁cooked	-4946
▁inform	-4947
▁prohib	-4948
▁ranked	-4949
▁series	-4950
ountries	-4951
▁anticip	-4952
▁biggest	-4953
▁entered	-4954
▁focused	-4955
▁Schedule	-4956
▁hectares	-4957
▁register	-4958
▁resource	-4959
structions	-4960
▁investors	-4961
▁confidence	-4962
▁sustainable	-4963
▁intermediate	-4964
62	-4965
EM	-4966
ns	-4967
ESS	-4968
hel	-4969
rie	-4970
▁1%	-4971
▁59	-4972
▁NS	-4973
argo	-4974
atia	-4975
larg	-4976
unic	-4977
▁rev	-4978
▁tom	-4979
enses	-4980
ilies	-4981
trade	-4982
▁Pack	-4983
▁read	-4984
ertise	-4985
market	-4986
▁Earth	-4987
▁Major	-4988
▁Public	-4989
▁affect	-4990
▁crisis	-4991
▁fourth	-4992
▁steady	-4993
▁unless	-4994
National	-4995
▁Nations	-4996
▁Support	-4997
▁compris	-4998
▁kilomet	-4999
▁science	-5000
▁subsidi	-5001
▁venture	-5002
▁oriented	-5003
▁recorded	-5004
▁revenues	-5005
▁Lithuania	-5006
▁Relations	-5007
▁announced	-5008
▁promoting	-5009
▁innovation	-5010
▁initiatives	-5011
▁investments	-5012
▁promotional	-5013
▁establishing	-5014
▁representative	-5015
$1	-5016
GR	-5017
rd	-5018
Top	-5019
ilt	-5020
▁"3	-5021
▁44	-5022
ODUC	-5023
Some	-5024
ania	-5025
raft	-5026
resp	-5027
▁13%	-5028
▁Equ	-5029
▁THE	-5030
▁der	-5031
▁tre	-5032
overs	-5033
utors	-5034
while	-5035
▁Area	-5036
▁Corp	-5037
▁Road	-5038
▁mirr	-5039
▁Royal	-5040
▁fluct	-5041
▁halal	-5042
▁Establ	-5043
▁cultiv	-5044
▁struct	-5045
▁(972-2)	-5046
▁amounts	-5047
▁diverse	-5048
▁pricing	-5049
▁seeking	-5050
▁started	-5051
eterinary	-5052
▁articles	-5053
▁biscuits	-5054
▁northern	-5055
▁southern	-5056
▁training	-5057
▁attention	-5058
▁completed	-5059
▁expertise	-5060
▁forwarder	-5061
▁Processing	-5062
▁Venezuelan	-5063
▁advantages	-5064
▁enterprises	-5065
▁implementation	-5066
71	-5067
uri	-5068
▁"0	-5069
▁$8	-5070
▁34	-5071
▁vi	-5072
AAFC	-5073
Fish	-5074
ames	-5075
ceed	-5076
come	-5077
enge	-5078
rist	-5079
void	-5080
▁1.5	-5081
▁Ice	-5082
▁Lim	-5083
anner	-5084
inant	-5085
ously	-5086
▁1993	-5087
▁Feed	-5088
▁Yang	-5089
▁cand	-5090
▁vers	-5091
elines	-5092
europa	-5093
▁1999,	-5094
▁doing	-5095
▁penet	-5096
▁shell	-5097
▁Flavor	-5098
▁breads	-5099
▁metric	-5100
▁moving	-5101
▁sauces	-5102
▁status	-5103
▁advised	-5104
▁carried	-5105
▁details	-5106
▁medical	-5107
▁consists	-5108
▁controls	-5109
▁handling	-5110
▁personal	-5111
▁expressed	-5112
▁extremely	-5113
▁reduction	-5114
▁concerning	-5115
▁marketplace	-5116
▁introduction	-5117
uy	-5118
TRY	-5119
bre	-5120
ida	-5121
mbH	-5122
▁HS	-5123
▁fr	-5124
atch	-5125
dorf	-5126
eful	-5127
wing	-5128
zens	-5129
▁Cap	-5130
▁Tok	-5131
▁ber	-5132
▁hop	-5133
▁rib	-5134
icals	-5135
uable	-5136
▁bars	-5137
▁circ	-5138
▁sour	-5139
▁vary	-5140
▁Alask	-5141
▁Brief	-5142
▁Order	-5143
▁holds	-5144
▁media	-5145
▁sites	-5146
▁MARKET	-5147
▁allows	-5148
▁herein	-5149
▁latest	-5150
▁needed	-5151
▁ripens	-5152
▁verify	-5153
▁accepted	-5154
▁combined	-5155
▁creating	-5156
▁families	-5157
▁progress	-5158
▁realized	-5159
▁segments	-5160
inspection	-5161
▁etiquette	-5162
▁discussion	-5163
▁manufacture	-5164
▁Availability	-5165
IO	-5166
8-6	-5167
ATE	-5168
Key	-5169
alm	-5170
osm	-5171
▁42	-5172
ired	-5173
plet	-5174
usda	-5175
▁Bak	-5176
▁Tex	-5177
▁tal	-5178
▁und	-5179
aters	-5180
eanut	-5181
inent	-5182
▁CFIA	-5183
▁From	-5184
Econom	-5185
Mexico	-5186
Produc	-5187
▁NAFTA	-5188
▁taxes	-5189
▁works	-5190
▁advice	-5191
▁fluctu	-5192
▁habits	-5193
▁alcohol	-5194
▁appears	-5195
▁channel	-5196
▁correct	-5197
▁cuisine	-5198
▁prepare	-5199
▁consolid	-5200
▁soybeans	-5201
▁students	-5202
▁Companies	-5203
▁Including	-5204
▁estimates	-5205
▁processes	-5206
▁Certificate	-5207
▁requirement	-5208
▁temperature	-5209
▁traditionally	-5210
7/	-5211
.10	-5212
One	-5213
omm	-5214
ray	-5215
▁(7	-5216
▁7,	-5217
▁Ni	-5218
/199	-5219
FOOD	-5220
aint	-5221
berg	-5222
cont	-5223
iang	-5224
lear	-5225
pled	-5226
▁asp	-5227
▁dev	-5228
▁nor	-5229
ement	-5230
light	-5231
ouses	-5232
rices	-5233
weets	-5234
▁COMP	-5235
▁GmbH	-5236
▁arom	-5237
▁plac	-5238
encing	-5239
oodles	-5240
▁Estim	-5241
▁Local	-5242
▁alloc	-5243
▁avoid	-5244
▁brief	-5245
▁click	-5246
▁shelf	-5247
,000)."	-5248
english	-5249
▁Author	-5250
▁format	-5251
▁metres	-5252
▁consign	-5253
▁regular	-5254
▁studies	-5255
▁surface	-5256
▁Northern	-5257
▁Slovenia	-5258
▁emerging	-5259
erchandise	-5260
▁Astrophys	-5261
▁declining	-5262
▁depending	-5263
▁permitted	-5264
▁importation	-5265
▁reliability	-5266
▁participants	-5267
▁establishments	-5268
!"	-5269
Eu	-5270
yt	-5271
600	-5272
ELL	-5273
▁64	-5274
▁CO	-5275
▁Ky	-5276
ians	-5277
onse	-5278
oria	-5279
▁Mon	-5280
▁bus	-5281
arlic	-5282
itten	-5283
▁Euro	-5284
▁Terr	-5285
▁cell	-5286
▁mill	-5287
▁paid	-5288
▁prob	-5289
▁tool	-5290
▁unit	-5291
▁weak	-5292
celand	-5293
igence	-5294
ousing	-5295
▁Nutri	-5296
▁boost	-5297
▁feeds	-5298
▁stage	-5299
▁valid	-5300
respond	-5301
▁2007."	-5302
▁Manila	-5303
▁Slovak	-5304
▁constr	-5305
▁excess	-5306
▁former	-5307
▁images	-5308
▁pulses	-5309
Moreover	-5310
▁Algeria	-5311
▁brought	-5312
▁maximum	-5313
▁weather	-5314
▁Resources	-5315
▁accession	-5316
▁challenge	-5317
▁education	-5318
▁essential	-5319
▁mandatory	-5320
▁mentioned	-5321
▁manufactured	-5322
▁competitiveness	-5323
EP	-5324
Mr	-5325
RA	-5326
TM	-5327
lé	-5328
pe	-5329
ré	-5330
-33	-5331
ref	-5332
▁"2	-5333
▁6%	-5334
▁wa	-5335
aste	-5336
reci	-5337
rive	-5338
▁$10	-5339
▁1.9	-5340
▁16%	-5341
▁Aut	-5342
▁bud	-5343
▁cri	-5344
▁fif	-5345
▁try	-5346
erior	-5347
scale	-5348
ultin	-5349
▁Best	-5350
▁Code	-5351
▁MERC	-5352
▁deep	-5353
▁easy	-5354
▁uses	-5355
▁util	-5356
andina	-5357
inegar	-5358
▁black	-5359
▁drugs	-5360
▁gross	-5361
aration	-5362
▁Safety	-5363
▁invent	-5364
▁pestic	-5365
Consumer	-5366
▁Between	-5367
▁discuss	-5368
▁offices	-5369
▁prevent	-5370
▁Honduras	-5371
▁branding	-5372
▁delivery	-5373
▁dominate	-5374
ospitality	-5375
ribusiness	-5376
▁Exporting	-5377
▁objective	-5378
▁organized	-5379
▁otherwise	-5380
▁correspond	-5381
▁quarantine	-5382
ultinational	-5383
▁differences	-5384
▁construction	-5385
▁negotiations	-5386
56	-5387
84	-5388
HA	-5389
lu	-5390
na	-5391
ubs	-5392
unt	-5393
▁00	-5394
▁83	-5395
▁89	-5396
▁AC	-5397
▁FA	-5398
▁Gr	-5399
▁Ha	-5400
▁tw	-5401
Mart	-5402
alog	-5403
atiz	-5404
down	-5405
olec	-5406
▁150	-5407
▁400	-5408
▁Dav	-5409
▁PAR	-5410
▁opp	-5411
Japan	-5412
etary	-5413
otton	-5414
ustac	-5415
▁cour	-5416
▁noti	-5417
▁wood	-5418
ologne	-5419
▁Board	-5420
▁graph	-5421
▁leads	-5422
▁liber	-5423
▁mount	-5424
▁roast	-5425
▁solid	-5426
▁units	-5427
acional	-5428
holders	-5429
largest	-5430
▁helped	-5431
▁mechan	-5432
▁profit	-5433
▁shares	-5434
▁square	-5435
▁summer	-5436
▁Private	-5437
▁divided	-5438
▁locally	-5439
▁mixture	-5440
▁parties	-5441
▁protect	-5442
▁samples	-5443
▁expanded	-5444
▁marketed	-5445
▁breakfast	-5446
▁extensive	-5447
▁neighbour	-5448
▁Management	-5449
▁containers	-5450
▁harvesters	-5451
▁preferences	-5452
▁Introduction	-5453
▁partnerships	-5454
▁productivity	-5455
BC	-5456
IG	-5457
OP	-5458
-00	-5459
edc	-5460
mar	-5461
ota	-5462
ull	-5463
▁02	-5464
▁67	-5465
▁72	-5466
▁79	-5467
▁Up	-5468
▁hy	-5469
fort	-5470
look	-5471
nack	-5472
rier	-5473
▁(60	-5474
▁10,	-5475
▁196	-5476
▁995	-5477
▁Dan	-5478
▁Soy	-5479
▁fri	-5480
▁sat	-5481
files	-5482
iliar	-5483
poses	-5484
rants	-5485
sters	-5486
▁Lake	-5487
▁Plan	-5488
▁camp	-5489
▁grap	-5490
▁rail	-5491
iation	-5492
ranean	-5493
▁(246)	-5494
▁CONTA	-5495
▁First	-5496
▁Tokyo	-5497
▁dress	-5498
▁gives	-5499
▁semin	-5500
▁shift	-5501
▁stake	-5502
▁behind	-5503
▁bovine	-5504
▁undert	-5505
Astronom	-5506
ushrooms	-5507
▁Cologne	-5508
▁Society	-5509
▁Website	-5510
▁advance	-5511
▁options	-5512
▁suggest	-5513
alcoholic	-5514
operative	-5515
▁movement	-5516
▁proposed	-5517
▁Represent	-5518
▁interests	-5519
▁supplying	-5520
▁commitment	-5521
▁determined	-5522
▁facilitate	-5523
▁laboratory	-5524
▁improvement	-5525
▁multinational	-5526
acc	-5527
eek	-5528
sts	-5529
▁SA	-5530
Many	-5531
iant	-5532
like	-5533
plus	-5534
rian	-5535
ucks	-5536
▁FDI	-5537
▁gum	-5538
▁ill	-5539
▁say	-5540
aguay	-5541
inate	-5542
ishes	-5543
▁Gulf	-5544
▁Moon	-5545
▁OVER	-5546
▁Park	-5547
▁peak	-5548
▁rich	-5549
Access	-5550
Annual	-5551
active	-5552
tively	-5553
▁Leban	-5554
▁lemon	-5555
▁older	-5556
Exports	-5557
Overall	-5558
▁(2005)	-5559
▁Person	-5560
▁afford	-5561
▁attend	-5562
▁budget	-5563
▁fairly	-5564
▁farmed	-5565
▁tender	-5566
▁Fishery	-5567
▁covered	-5568
▁opening	-5569
ustaceans	-5570
▁building	-5571
▁millions	-5572
▁normally	-5573
▁nutraceu	-5574
▁purposes	-5575
▁selected	-5576
▁valuable	-5577
▁projected	-5578
▁supported	-5579
▁commission	-5580
▁guidelines	-5581
▁Afghanistan	-5582
▁specialized	-5583
▁instructions	-5584
$2	-5585
$3	-5586
su	-5587
ote	-5588
rel	-5589
▁(2	-5590
▁mm	-5591
VIEW	-5592
aign	-5593
cons	-5594
ided	-5595
ning	-5596
▁90%	-5597
▁Our	-5598
▁Vis	-5599
▁ago	-5600
About	-5601
ariat	-5602
ransp	-5603
sized	-5604
▁(55)	-5605
▁book	-5606
▁goal	-5607
▁pick	-5608
frozen	-5609
rehens	-5610
▁(604)	-5611
▁2004"	-5612
▁2007,	-5613
▁Booth	-5614
▁Paris	-5615
▁Purch	-5616
▁Texas	-5617
▁irrig	-5618
▁staff	-5619
osphere	-5620
portion	-5621
▁extent	-5622
ocolates	-5623
▁Iceland	-5624
▁Science	-5625
▁concept	-5626
▁visible	-5627
rehensive	-5628
▁explains	-5629
▁labeling	-5630
▁reducing	-5631
iterranean	-5632
▁clearance	-5633
▁employees	-5634
▁indicates	-5635
▁interview	-5636
▁operators	-5637
Astronomers	-5638
▁Industries	-5639
▁employment	-5640
▁objectives	-5641
▁necessarily	-5642
▁Registration	-5643
54	-5644
Mé	-5645
gr	-5646
ka	-5647
ox	-5648
xi	-5649
-50	-5650
arc	-5651
fas	-5652
obe	-5653
ool	-5654
▁66	-5655
▁Sk	-5656
▁br	-5657
▁dy	-5658
Also	-5659
OCIA	-5660
yond	-5661
▁(20	-5662
▁(49	-5663
▁1.1	-5664
▁17%	-5665
▁18%	-5666
▁Bol	-5667
▁Jer	-5668
▁Wal	-5669
ellar	-5670
endix	-5671
iving	-5672
ought	-5673
prise	-5674
value	-5675
▁Thai	-5676
▁Turn	-5677
▁earn	-5678
▁flav	-5679
▁loss	-5680
▁room	-5681
▁safe	-5682
▁seri	-5683
▁text	-5684
▁ties	-5685
capita	-5686
ptions	-5687
▁Promo	-5688
ections	-5689
▁Global	-5690
▁Greece	-5691
▁PRODUC	-5692
▁adjust	-5693
▁beyond	-5694
▁driven	-5695
▁sample	-5696
▁closely	-5697
▁holding	-5698
▁liberal	-5699
▁managed	-5700
▁nations	-5701
▁shipped	-5702
▁overseas	-5703
▁patterns	-5704
▁response	-5705
▁Executive	-5706
▁component	-5707
▁container	-5708
▁controlled	-5709
▁kilometres	-5710
▁telescopes	-5711
▁discounters	-5712
▁researchers	-5713
▁Agribusiness	-5714
▁capabilities	-5715
▁improvements	-5716
1/	-5717
EA	-5718
LE	-5719
MC	-5720
QU	-5721
RC	-5722
ho	-5723
kn	-5724
-4)	-5725
oct	-5726
sex	-5727
uls	-5728
▁52	-5729
▁94	-5730
▁Du	-5731
▁So	-5732
▁sq	-5733
aren	-5734
ghts	-5735
illa	-5736
ubai	-5737
▁1.6	-5738
▁Cop	-5739
▁Jal	-5740
▁Tax	-5741
▁Tob	-5742
▁aud	-5743
▁dog	-5744
▁obs	-5745
ading	-5746
aints	-5747
emark	-5748
label	-5749
ogram	-5750
right	-5751
▁Live	-5752
▁call	-5753
▁huge	-5754
▁left	-5755
▁rely	-5756
▁soon	-5757
France	-5758
amburg	-5759
ension	-5760
estial	-5761
flower	-5762
▁Metro	-5763
▁bison	-5764
▁money	-5765
▁onion	-5766
actions	-5767
distrib	-5768
▁bodies	-5769
▁dishes	-5770
▁formal	-5771
▁limits	-5772
▁marked	-5773
▁stocks	-5774
artments	-5775
ophistic	-5776
▁Chilled	-5777
▁Trading	-5778
▁marking	-5779
▁noodles	-5780
▁respond	-5781
▁written	-5782
▁cultural	-5783
▁familiar	-5784
▁Vegetable	-5785
▁forecasts	-5786
▁subsidies	-5787
▁Australian	-5788
▁Quarantine	-5789
▁indication	-5790
▁professional	-5791
▁traceability	-5792
▁comprehensive	-5793
▁identification	-5794
▁internationally	-5795
51	-5796
EF	-5797
IM	-5798
IP	-5799
Sh	-5800
cu	-5801
va	-5802
ÓN	-5803
-02	-5804
.25	-5805
14)	-5806
700	-5807
AND	-5808
TER	-5809
rit	-5810
▁8,	-5811
▁pi	-5812
ENTS	-5813
agaz	-5814
idad	-5815
lier	-5816
umin	-5817
▁$13	-5818
▁(90	-5819
▁CIF	-5820
▁Its	-5821
▁LAB	-5822
▁REG	-5823
▁Rom	-5824
▁Sus	-5825
▁bac	-5826
▁cou	-5827
▁spe	-5828
Europ	-5829
Today	-5830
iques	-5831
izers	-5832
rared	-5833
▁Emir	-5834
▁Team	-5835
▁bill	-5836
▁idea	-5837
▁shar	-5838
▁tuna	-5839
▁virt	-5840
Intosh	-5841
celona	-5842
letter	-5843
veleng	-5844
▁fully	-5845
▁funds	-5846
▁seven	-5847
▁swine	-5848
▁words	-5849
country	-5850
▁Method	-5851
lication	-5852
▁England	-5853
▁Finland	-5854
▁finding	-5855
▁invoice	-5856
▁tourist	-5857
▁Branding	-5858
▁Brussels	-5859
▁OVERVIEW	-5860
▁agrifood	-5861
▁aromatic	-5862
▁diseases	-5863
▁dominant	-5864
▁packages	-5865
▁privatiz	-5866
▁retailer	-5867
▁waveleng	-5868
▁Dominican	-5869
▁Equipment	-5870
▁encourage	-5871
▁licensing	-5872
Euromonitor	-5873
▁atmosphere	-5874
▁consisting	-5875
▁conversion	-5876
▁exhibition	-5877
▁geographic	-5878
▁merchandise	-5879
▁astronomical	-5880
▁domestically	-5881
▁presentation	-5882
▁Manufacturers	-5883
▁establishment	-5884
▁observatories	-5885
dn	-5886
▁▪	-5887
103	-5888
ASI	-5889
KEY	-5890
aan	-5891
lia	-5892
rew	-5893
zon	-5894
▁07	-5895
▁57	-5896
▁Po	-5897
%)."	-5898
iven	-5899
▁Non	-5900
▁Sub	-5901
▁ask	-5902
▁fle	-5903
▁roe	-5904
agnos	-5905
anges	-5906
endly	-5907
ijing	-5908
stats	-5909
▁Mich	-5910
▁Paul	-5911
▁Unit	-5912
▁Vict	-5913
▁snow	-5914
▁soil	-5915
▁team	-5916
icious	-5917
ollusc	-5918
▁2005"	-5919
▁Event	-5920
▁autom	-5921
▁defin	-5922
▁moder	-5923
▁noted	-5924
▁party	-5925
exports	-5926
liament	-5927
▁Border	-5928
▁Prince	-5929
▁Streng	-5930
▁Sussex	-5931
▁claims	-5932
▁double	-5933
▁garlic	-5934
▁stated	-5935
▁useful	-5936
▁wealth	-5937
▁Croatia	-5938
▁Current	-5939
▁conserv	-5940
▁density	-5941
▁instant	-5942
▁license	-5943
▁permits	-5944
▁preserv	-5945
osanitary	-5946
▁Paraguay	-5947
▁Scandina	-5948
▁breeding	-5949
▁facility	-5950
▁geograph	-5951
▁question	-5952
▁sanitary	-5953
▁ventures	-5954
▁celestial	-5955
▁conscious	-5956
▁exceeding	-5957
▁operation	-5958
▁pollution	-5959
▁sensitive	-5960
▁sophistic	-5961
▁Restaurant	-5962
▁Vietnamese	-5963
armaceutical	-5964
▁Secretariat	-5965
▁stakeholders	-5966
▁understanding	-5967
▁pharmaceuticals	-5968
PO	-5969
gu	-5970
hi	-5971
vn	-5972
-55	-5973
/07	-5974
300	-5975
CIP	-5976
ICO	-5977
abb	-5978
exp	-5979
ged	-5980
ner	-5981
▁41	-5982
▁54	-5983
▁9,	-5984
▁ey	-5985
acid	-5986
lers	-5987
usal	-5988
with	-5989
▁3.1	-5990
▁944	-5991
▁box	-5992
▁mut	-5993
ación	-5994
amily	-5995
etail	-5996
ipped	-5997
iscal	-5998
lines	-5999
▁2015	-6000
▁Beer	-6001
▁Play	-6002
▁acid	-6003
▁boil	-6004
▁cran	-6005
▁fail	-6006
▁malt	-6007
▁rays	-6008
▁saus	-6009
ellies	-6010
hentic	-6011
▁1,000	-6012
▁Under	-6013
▁built	-6014
▁immig	-6015
▁simply	-6016
oriented	-6017
▁Increas	-6018
▁history	-6019
▁release	-6020
▁workers	-6021
▁emphasis	-6022
▁shippers	-6023
▁Organizer	-6024
▁Transport	-6025
▁consistent	-6026
▁monitoring	-6027
▁techniques	-6028
▁considerably	-6029
▁Confectionery	-6030
91	-6031
IR	-6032
UST	-6033
ewh	-6034
gob	-6035
▁Ho	-6036
▁Ku	-6037
▁NO	-6038
▁TR	-6039
▁ec	-6040
atio	-6041
cope	-6042
erre	-6043
orge	-6044
reek	-6045
▁120	-6046
▁986	-6047
▁Att	-6048
▁ded	-6049
▁emb	-6050
▁fax	-6051
▁lob	-6052
Major	-6053
TIONS	-6054
acion	-6055
anied	-6056
ilson	-6057
tives	-6058
where	-6059
▁1991	-6060
▁AGRI	-6061
▁insp	-6062
▁nine	-6063
▁word	-6064
ulties	-6065
▁2000.	-6066
▁Bread	-6067
▁Innov	-6068
▁Label	-6069
▁Sugar	-6070
▁Their	-6071
▁occup	-6072
▁petro	-6073
▁pound	-6074
▁presc	-6075
Increas	-6076
agnetic	-6077
atabase	-6078
▁Austin	-6079
▁Change	-6080
▁Survey	-6081
▁mirror	-6082
▁rights	-6083
▁somewh	-6084
▁spring	-6085
▁yellow	-6086
▁Address	-6087
▁Poultry	-6088
▁Summary	-6089
▁brokers	-6090
▁changed	-6091
▁conduct	-6092
▁extract	-6093
▁fillets	-6094
▁gourmet	-6095
▁subacid	-6096
elligence	-6097
▁District	-6098
▁Emirates	-6099
▁campaign	-6100
▁creation	-6101
▁practice	-6102
▁Barcelona	-6103
▁comprises	-6104
▁mushrooms	-6105
▁acceptance	-6106
▁permission	-6107
▁scientists	-6108
____________	-6109
▁accompanied	-6110
▁successfully	-6111
▁Approximately	-6112
▁Mediterranean	-6113
▁=	-6114
-06	-6115
12)	-6116
:00	-6117
ais	-6118
cal	-6119
did	-6120
ett	-6121
rai	-6122
ère	-6123
▁$9	-6124
▁1)	-6125
▁CA	-6126
▁Id	-6127
▁If	-6128
▁Ju	-6129
▁Sl	-6130
..."	-6131
Once	-6132
http	-6133
part	-6134
suff	-6135
▁0.0	-6136
▁1.3	-6137
▁Air	-6138
▁BSE	-6139
▁Sem	-6140
▁tra	-6141
TICIP	-6142
akers	-6143
giene	-6144
ingly	-6145
metre	-6146
oring	-6147
owers	-6148
plete	-6149
▁List	-6150
▁Time	-6151
▁Wild	-6152
▁code	-6153
▁pict	-6154
▁seek	-6155
▁went	-6156
esides	-6157
gantic	-6158
▁(504)	-6159
▁Frank	-6160
▁James	-6161
▁Techn	-6162
▁arriv	-6163
▁dynam	-6164
▁expos	-6165
▁going	-6166
▁remov	-6167
▁tools	-6168
istance	-6169
seafood	-6170
stances	-6171
▁Credit	-6172
▁Prices	-6173
▁launch	-6174
business	-6175
entially	-6176
products	-6177
▁Chamber	-6178
▁Lobster	-6179
▁Whether	-6180
▁colours	-6181
▁Dominion	-6182
▁Expendit	-6183
▁Measures	-6184
▁Telescop	-6185
▁catering	-6186
▁contrast	-6187
▁finished	-6188
▁labelled	-6189
▁operates	-6190
▁powdered	-6191
▁priority	-6192
▁strongly	-6193
▁suitable	-6194
▁Varieties	-6195
▁condition	-6196
▁framework	-6197
▁questions	-6198
▁residents	-6199
ytosanitary	-6200
▁continuing	-6201
▁favourable	-6202
▁frequently	-6203
▁maintained	-6204
▁proportion	-6205
▁Aquaculture	-6206
▁crustaceans	-6207
▁recognition	-6208
▁arrangements	-6209
▁conventional	-6210
2/	-6211
Or	-6212
RL	-6213
So	-6214
ao	-6215
.75	-6216
And	-6217
Map	-6218
TIC	-6219
___	-6220
ald	-6221
oke	-6222
php	-6223
ura	-6224
▁(+	-6225
▁68	-6226
▁Cr	-6227
back	-6228
izza	-6229
leum	-6230
puts	-6231
▁CAF	-6232
▁Don	-6233
▁Egg	-6234
▁Hal	-6235
▁IND	-6236
▁MEX	-6237
▁NOM	-6238
▁Pte	-6239
▁Sel	-6240
▁aid	-6241
▁dim	-6242
▁sch	-6243
Organ	-6244
atche	-6245
estry	-6246
found	-6247
itrus	-6248
luded	-6249
▁York	-6250
▁copy	-6251
▁dram	-6252
▁draw	-6253
▁semi	-6254
▁ways	-6255
Brazil	-6256
ELLING	-6257
allops	-6258
ecause	-6259
ximity	-6260
▁(514)	-6261
▁2007"	-6262
▁Adobe	-6263
▁Chief	-6264
▁Forum	-6265
▁Islam	-6266
▁Partn	-6267
▁Snack	-6268
▁Super	-6269
▁cause	-6270
▁eight	-6271
▁model	-6272
▁stuff	-6273
olluscs	-6274
▁Alaska	-6275
▁Baltic	-6276
▁Income	-6277
▁Korean	-6278
▁cotton	-6279
▁easily	-6280
▁harmon	-6281
▁manner	-6282
▁physic	-6283
▁winter	-6284
Document	-6285
atchewan	-6286
▁Turkish	-6287
▁applies	-6288
▁appreci	-6289
▁bottled	-6290
▁cheaper	-6291
▁consume	-6292
▁eastern	-6293
▁endorse	-6294
▁fastest	-6295
▁herring	-6296
▁possess	-6297
▁Although	-6298
▁Shipping	-6299
▁commonly	-6300
▁incorpor	-6301
roximately	-6302
▁Alimentos	-6303
▁Authority	-6304
▁dependent	-6305
▁described	-6306
▁prospects	-6307
▁workforce	-6308
▁comparison	-6309
▁membership	-6310
▁sufficient	-6311
▁effectively	-6312
▁examination	-6313
▁Supermarkets	-6314
▁alternatives	-6315
',	-6316
8/	-6317
Re	-6318
SU	-6319
ée	-6320
-15	-6321
506	-6322
LIC	-6323
WTO	-6324
ega	-6325
min	-6326
weg	-6327
▁**	-6328
▁61	-6329
▁86	-6330
▁EN	-6331
▁Hu	-6332
▁PQ	-6333
CFIA	-6334
Cont	-6335
ixed	-6336
made	-6337
site	-6338
ulse	-6339
▁Esp	-6340
▁How	-6341
▁Pen	-6342
▁Pet	-6343
▁Sim	-6344
▁Ver	-6345
Total	-6346
ermen	-6347
itors	-6348
titut	-6349
world	-6350
▁2008	-6351
▁Ltda	-6352
▁Rich	-6353
▁Will	-6354
▁host	-6355
▁surp	-6356
▁vast	-6357
arters	-6358
ifying	-6359
▁Dubai	-6360
▁Goods	-6361
▁Sheet	-6362
▁White	-6363
▁adequ	-6364
▁afflu	-6365
▁bound	-6366
▁coord	-6367
▁molec	-6368
▁ranks	-6369
▁risks	-6370
▁speed	-6371
▁whose	-6372
ciences	-6373
itories	-6374
organic	-6375
▁Edward	-6376
▁Online	-6377
▁contam	-6378
▁covers	-6379
▁fiscal	-6380
▁satell	-6381
▁teaspo	-6382
▁transp	-6383
▁visits	-6384
Mégantic	-6385
▁Beijing	-6386
▁arrange	-6387
▁granted	-6388
▁satisfy	-6389
▁serious	-6390
▁shelves	-6391
▁surplus	-6392
foundland	-6393
▁Austrian	-6394
▁Nacional	-6395
▁Victoria	-6396
▁function	-6397
▁oilseeds	-6398
▁revealed	-6399
▁Producers	-6400
▁Telescope	-6401
▁chemicals	-6402
▁generated	-6403
▁introduce	-6404
▁logistics	-6405
▁proximity	-6406
▁Conference	-6407
▁convenient	-6408
▁supporting	-6409
▁collaboration	-6410
9)	-6411
UF	-6412
fi	-6413
pa	-6414
ps	-6415
▁‘	-6416
-17	-6417
800	-6418
MAR	-6419
Rec	-6420
aka	-6421
aks	-6422
eff	-6423
ker	-6424
ony	-6425
owl	-6426
use	-6427
▁9%	-6428
▁Us	-6429
Meat	-6430
TIVE	-6431
furt	-6432
ipeg	-6433
ogen	-6434
time	-6435
uter	-6436
▁(0)	-6437
▁Buy	-6438
▁Dar	-6439
▁Ham	-6440
▁Iss	-6441
▁Mig	-6442
▁Sir	-6443
▁You	-6444
▁nuc	-6445
▁ple	-6446
▁pol	-6447
▁reb	-6448
▁vir	-6449
erals	-6450
robat	-6451
urkey	-6452
▁1992	-6453
▁Date	-6454
▁Prim	-6455
▁SIAL	-6456
▁Type	-6457
▁Winn	-6458
▁citi	-6459
▁cred	-6460
▁doub	-6461
▁item	-6462
▁pure	-6463
essels	-6464
ilever	-6465
▁David	-6466
▁While	-6467
▁absor	-6468
▁extra	-6469
▁straw	-6470
Because	-6471
develop	-6472
▁Branch	-6473
▁CONTAC	-6474
▁Travel	-6475
▁charge	-6476
▁notice	-6477
▁patent	-6478
▁peanut	-6479
▁waters	-6480
atically	-6481
ituation	-6482
tificial	-6483
▁instead	-6484
▁profile	-6485
▁Particip	-6486
▁achieved	-6487
▁allowing	-6488
▁indirect	-6489
▁internal	-6490
▁kilogram	-6491
▁physical	-6492
▁property	-6493
▁targeted	-6494
▁LABELLING	-6495
▁comprised	-6496
▁Scientific	-6497
▁chocolates	-6498
▁initiative	-6499
▁Supermarket	-6500
▁alternative	-6501
▁combination	-6502
▁distributed	-6503
▁Saskatchewan	-6504
Am	-6505
DN	-6506
FS	-6507
OB	-6508
SI	-6509
ST	-6510
fs	-6511
ha	-6512
-60	-6513
Its	-6514
ado	-6515
doc	-6516
ien	-6517
ike	-6518
mes	-6519
▁47	-6520
▁48	-6521
▁96	-6522
▁Ur	-6523
abil	-6524
alam	-6525
ampl	-6526
expo	-6527
inct	-6528
loys	-6529
news	-6530
oral	-6531
ourn	-6532
pric	-6533
reen	-6534
wait	-6535
▁14,	-6536
▁Fac	-6537
▁Gal	-6538
▁Han	-6539
▁PES	-6540
▁Use	-6541
▁Via	-6542
▁unc	-6543
ECTOR	-6544
astic	-6545
aught	-6546
parts	-6547
tious	-6548
▁1970	-6549
▁Corn	-6550
▁Crop	-6551
▁answ	-6552
▁foot	-6553
mented	-6554
refour	-6555
undred	-6556
usalem	-6557
▁(2004	-6558
▁1998,	-6559
▁Comer	-6560
▁Enter	-6561
▁Honey	-6562
▁Medic	-6563
▁renew	-6564
▁upper	-6565
Display	-6566
ropical	-6567
▁Associ	-6568
▁Wholes	-6569
▁facing	-6570
▁fields	-6571
▁histor	-6572
▁minist	-6573
▁ribbed	-6574
▁search	-6575
▁smoked	-6576
▁totals	-6577
Business	-6578
eanwhile	-6579
▁Players	-6580
▁becomes	-6581
▁experts	-6582
▁initial	-6583
Therefore	-6584
▁Turnover	-6585
▁critical	-6586
▁director	-6587
▁outlined	-6588
▁somewhat	-6589
▁tourists	-6590
▁displayed	-6591
▁locations	-6592
▁petroleum	-6593
▁principal	-6594
▁distribute	-6595
▁anticipated	-6596
▁departments	-6597
▁counterparts	-6598
▁geographical	-6599
▁Certification	-6600
▁independently	-6601
▁sophisticated	-6602
DisplayDocument	-6603
AY	-6604
CH	-6605
bc	-6606
do	-6607
tc	-6608
yc	-6609
-03	-6610
-14	-6611
-19	-6612
.20	-6613
ada	-6614
afé	-6615
ags	-6616
itc	-6617
ste	-6618
▁"9	-6619
▁62	-6620
▁Lu	-6621
▁mo	-6622
TIES	-6623
agen	-6624
anas	-6625
duct	-6626
ffic	-6627
iced	-6628
ored	-6629
till	-6630
word	-6631
▁(10	-6632
▁030	-6633
▁45%	-6634
▁Nov	-6635
▁See	-6636
▁USD	-6637
▁VAT	-6638
▁dam	-6639
▁don	-6640
.11.0	-6641
known	-6642
▁100%	-6643
▁1978	-6644
▁Kyiv	-6645
▁Nort	-6646
▁Prof	-6647
▁Quan	-6648
▁Rice	-6649
▁disp	-6650
▁ones	-6651
▁plus	-6652
▁slic	-6653
Method	-6654
lusion	-6655
▁Filip	-6656
▁Labor	-6657
▁Saint	-6658
▁Staff	-6659
▁aimed	-6660
▁sched	-6661
▁talks	-6662
ressive	-6663
▁1999."	-6664
▁EXPORT	-6665
▁Potato	-6666
▁action	-6667
▁predom	-6668
arations	-6669
inations	-6670
▁Acrobat	-6671
▁Genetic	-6672
▁Harvest	-6673
▁Lebanon	-6674
▁Monitor	-6675
▁adopted	-6676
▁believe	-6677
▁careful	-6678
▁employs	-6679
▁formula	-6680
▁officer	-6681
▁society	-6682
▁vessels	-6683
strategis	-6684
▁Appendix	-6685
▁CONTACTS	-6686
▁Interest	-6687
▁PARTICIP	-6688
▁Packaged	-6689
▁Winnipeg	-6690
▁comments	-6691
▁distinct	-6692
▁graphics	-6693
▁instance	-6694
▁seasonal	-6695
▁surround	-6696
▁Jerusalem	-6697
▁affecting	-6698
▁preserved	-6699
▁radiation	-6700
▁condiments	-6701
▁difference	-6702
▁respective	-6703
▁substances	-6704
▁integration	-6705
▁neighbouring	-6706
▁participating	-6707
9%	-6708
la	-6709
sk	-6710
▁)	-6711
EDC	-6712
car	-6713
dep	-6714
elt	-6715
map	-6716
▁58	-6717
▁:"	-6718
▁By	-6719
▁Os	-6720
▁ul	-6721
MENT	-6722
cass	-6723
ders	-6724
ears	-6725
eder	-6726
ideo	-6727
inds	-6728
olit	-6729
stat	-6730
vert	-6731
▁15,	-6732
▁160	-6733
▁519	-6734
▁Any	-6735
▁Bas	-6736
▁INS	-6737
▁Rad	-6738
▁ren	-6739
▁wel	-6740
USTOM	-6741
armac	-6742
ensed	-6743
ensus	-6744
istor	-6745
works	-6746
▁Both	-6747
▁Char	-6748
▁Cong	-6749
▁Minh	-6750
▁Peru	-6751
▁acqu	-6752
▁agro	-6753
▁boom	-6754
▁fuel	-6755
▁send	-6756
import	-6757
▁Small	-6758
▁analy	-6759
▁cargo	-6760
▁check	-6761
▁cider	-6762
▁evalu	-6763
▁heavy	-6764
▁helps	-6765
▁moved	-6766
▁phone	-6767
▁pulse	-6768
entives	-6769
vincial	-6770
▁CANADA	-6771
▁Demand	-6772
▁MEXICO	-6773
▁forces	-6774
▁online	-6775
▁predic	-6776
▁proven	-6777
▁transl	-6778
standing	-6779
▁Hamburg	-6780
▁License	-6781
▁catches	-6782
▁coupled	-6783
▁derived	-6784
▁enforce	-6785
▁engaged	-6786
▁enhance	-6787
▁growers	-6788
▁hundred	-6789
▁mustard	-6790
▁ongoing	-6791
▁younger	-6792
lications	-6793
▁Consider	-6794
▁Standard	-6795
▁citizens	-6796
▁generate	-6797
▁meetings	-6798
▁recovery	-6799
▁showcase	-6800
▁Benchmark	-6801
▁Economist	-6802
▁Situation	-6803
▁recommend	-6804
▁Vegetables	-6805
▁profession	-6806
▁structural	-6807
▁Astronomers	-6808
▁contracting	-6809
International	-6810
▁Newfoundland	-6811
▁difficulties	-6812
▁communication	-6813
▁privatization	-6814
61	-6815
OF	-6816
fr	-6817
▁—	-6818
-32	-6819
-84	-6820
/13	-6821
But	-6822
Dep	-6823
ava	-6824
avi	-6825
dig	-6826
▁"4	-6827
▁74	-6828
▁82	-6829
▁AR	-6830
▁te	-6831
aise	-6832
bury	-6833
cing	-6834
ctic	-6835
hand	-6836
iest	-6837
ming	-6838
uese	-6839
vian	-6840
▁$20	-6841
▁1.8	-6842
▁11,	-6843
▁14%	-6844
▁600	-6845
▁Leg	-6846
▁McC	-6847
▁Rob	-6848
▁Way	-6849
Based	-6850
World	-6851
idney	-6852
iring	-6853
times	-6854
ultra	-6855
▁1989	-6856
▁Life	-6857
▁Note	-6858
▁Scot	-6859
▁Sign	-6860
▁Site	-6861
▁Stor	-6862
▁cool	-6863
▁fost	-6864
▁furn	-6865
▁lost	-6866
▁phen	-6867
▁shop	-6868
Source	-6869
ectors	-6870
ustral	-6871
▁Cover	-6872
▁Initi	-6873
▁Mount	-6874
▁Place	-6875
▁ahead	-6876
▁brown	-6877
▁fifth	-6878
▁input	-6879
▁match	-6880
▁never	-6881
▁waves	-6882
Besides	-6883
▁Family	-6884
▁IMPORT	-6885
▁Reader	-6886
▁Square	-6887
▁carbon	-6888
▁choice	-6889
▁galaxy	-6890
▁latter	-6891
▁lentil	-6892
▁partly	-6893
▁placed	-6894
ferences	-6895
▁African	-6896
▁Colonia	-6897
▁Forward	-6898
▁aspects	-6899
▁charges	-6900
▁coastal	-6901
▁describ	-6902
▁diagnos	-6903
▁dynamic	-6904
▁genetic	-6905
▁ranging	-6906
▁reflect	-6907
▁vitamin	-6908
▁Licensee	-6909
▁Unilever	-6910
▁estimate	-6911
▁evidence	-6912
▁exposure	-6913
▁features	-6914
▁infrared	-6915
▁molluscs	-6916
▁reliable	-6917
▁shortage	-6918
▁According	-6919
▁Bilateral	-6920
▁committed	-6921
▁exhibitor	-6922
▁measuring	-6923
▁processor	-6924
▁submitted	-6925
▁InfoExport	-6926
▁Parliament	-6927
▁artificial	-6928
▁electrical	-6929
▁electronic	-6930
▁integrated	-6931
▁Institution	-6932
▁diversified	-6933
▁fertilizers	-6934
▁supplements	-6935
▁descriptions	-6936
▁characterized	-6937
▁representation	-6938
1.	-6939
?"	-6940
EG	-6941
Sw	-6942
ão	-6943
▁©	-6944
-13	-6945
900	-6946
ALU	-6947
CAN	-6948
ERV	-6949
ael	-6950
eks	-6951
ham	-6952
hyd	-6953
not	-6954
oid	-6955
▁2.	-6956
▁3.	-6957
▁CN	-6958
▁gm	-6959
▁lb	-6960
/13/	-6961
Conn	-6962
adal	-6963
adem	-6964
erts	-6965
here	-6966
ious	-6967
mond	-6968
pres	-6969
tian	-6970
▁190	-6971
▁75%	-6972
▁Ang	-6973
▁Bah	-6974
▁Tea	-6975
▁dig	-6976
▁lev	-6977
▁mom	-6978
▁wet	-6979
agers	-6980
atoon	-6981
aving	-6982
brand	-6983
estig	-6984
house	-6985
iform	-6986
ortic	-6987
osing	-6988
owder	-6989
▁Bras	-6990
▁Sant	-6991
▁When	-6992
▁dark	-6993
▁doct	-6994
▁else	-6995
▁laid	-6996
▁onto	-6997
▁sett	-6998
▁soya	-6999
▁user	-7000
,000."	-7001
action	-7002
erties	-7003
income	-7004
rained	-7005
▁613-7	-7006
▁Cream	-7007
▁Farms	-7008
▁Found	-7009
▁Rules	-7010
▁Sites	-7011
▁Syrup	-7012
▁micro	-7013
▁phase	-7014
▁relig	-7015
▁salad	-7016
▁seems	-7017
▁tests	-7018
▁(2004)	-7019
▁course	-7020
▁island	-7021
▁letter	-7022
▁option	-7023
▁orange	-7024
▁outbre	-7025
▁places	-7026
▁served	-7027
enerally	-7028
▁Conduct	-7029
▁Francis	-7030
▁Islands	-7031
▁Mission	-7032
▁Network	-7033
▁acquire	-7034
▁driving	-7035
▁element	-7036
▁falling	-7037
▁objects	-7038
▁succeed	-7039
Meanwhile	-7040
▁2000/13/	-7041
▁Forecast	-7042
▁Millions	-7043
▁Policies	-7044
▁affluent	-7045
▁investig	-7046
▁phenomen	-7047
▁strength	-7048
▁Northwest	-7049
▁Packaging	-7050
▁Ukrainian	-7051
▁attracted	-7052
▁explained	-7053
▁fishermen	-7054
▁selection	-7055
▁solutions	-7056
▁stability	-7057
▁Portuguese	-7058
▁contribute	-7059
▁evaluation	-7060
▁influenced	-7061
▁Competition	-7062
▁Directorate	-7063
▁exclusively	-7064
▁interesting	-7065
▁experiencing	-7066
▁refrigerated	-7067
▁Pharmaceutical	-7068
64	-7069
7)	-7070
Be	-7071
En	-7072
II	-7073
NA	-7074
fa	-7075
hu	-7076
ña	-7077
"".	-7078
ECD	-7079
bal	-7080
cer	-7081
fin	-7082
gro	-7083
hic	-7084
set	-7085
▁51	-7086
▁OR	-7087
▁SE	-7088
▁Tr	-7089
▁UN	-7090
.000	-7091
arta	-7092
ifax	-7093
rise	-7094
réal	-7095
▁(11	-7096
▁1.2	-7097
▁12,	-7098
▁450	-7099
▁APP	-7100
▁Acc	-7101
▁Bul	-7102
▁Cas	-7103
▁Eth	-7104
▁Har	-7105
▁Jan	-7106
▁mis	-7107
▁nom	-7108
ajara	-7109
armal	-7110
eekly	-7111
encia	-7112
rador	-7113
rence	-7114
rinks	-7115
▁Grup	-7116
▁Perm	-7117
▁Virt	-7118
▁aver	-7119
▁bear	-7120
▁bowl	-7121
▁jump	-7122
▁rain	-7123
▁situ	-7124
▁warm	-7125
Figure	-7126
ington	-7127
ournal	-7128
rairie	-7129
▁(506)	-7130
▁CCASI	-7131
▁Grand	-7132
▁Indic	-7133
▁Macau	-7134
▁begin	-7135
▁night	-7136
▁prawn	-7137
▁risen	-7138
▁rooms	-7139
▁scope	-7140
▁solar	-7141
Process	-7142
mission	-7143
▁Berlin	-7144
▁CUSTOM	-7145
▁Cheese	-7146
▁Engine	-7147
▁Golden	-7148
▁Kosher	-7149
▁Provin	-7150
▁actual	-7151
▁inputs	-7152
▁lading	-7153
▁losses	-7154
▁relies	-7155
▁reserv	-7156
▁salted	-7157
▁spices	-7158
cription	-7159
▁Another	-7160
▁Halifax	-7161
▁Outlook	-7162
▁Shelled	-7163
▁arising	-7164
▁formats	-7165
▁typical	-7166
▁wishing	-7167
adalajara	-7168
valuation	-7169
▁Labrador	-7170
▁McIntosh	-7171
▁Modified	-7172
▁Montréal	-7173
▁Southern	-7174
▁Strength	-7175
▁adequate	-7176
▁approxim	-7177
▁composed	-7178
▁contents	-7179
▁crossing	-7180
▁ensuring	-7181
▁licences	-7182
▁networks	-7183
▁Carrefour	-7184
▁highlight	-7185
▁regulated	-7186
▁reporting	-7187
▁retailing	-7188
▁Foundation	-7189
▁discovered	-7190
▁efficiency	-7191
▁impressive	-7192
▁pesticides	-7193
▁subsidiary	-7194
▁transition	-7195
exportsource	-7196
▁individuals	-7197
▁statistical	-7198
▁applications	-7199
▁Astrophysical	-7200
▁professionals	-7201
▁substantially	-7202
HY	-7203
jp	-7204
rc	-7205
sg	-7206
-1)	-7207
-88	-7208
.33	-7209
IDE	-7210
iry	-7211
lay	-7212
uer	-7213
uid	-7214
▁AF	-7215
▁GU	-7216
ADOR	-7217
EPAR	-7218
Thus	-7219
ault	-7220
avig	-7221
eces	-7222
gain	-7223
ingu	-7224
ohyd	-7225
olet	-7226
omas	-7227
rant	-7228
trad	-7229
urum	-7230
▁2.8	-7231
▁4.1	-7232
▁Cam	-7233
▁Emp	-7234
▁Exc	-7235
▁PFA	-7236
▁ear	-7237
▁orb	-7238
-1103	-7239
PPORT	-7240
Where	-7241
aches	-7242
fresh	-7243
ittel	-7244
ogurt	-7245
shtml	-7246
store	-7247
▁1.92	-7248
▁Camp	-7249
▁Work	-7250
▁bene	-7251
Connor	-7252
OCIACI	-7253
alling	-7254
eaders	-7255
etitor	-7256
everal	-7257
fortun	-7258
iances	-7259
overty	-7260
tariff	-7261
▁(902)	-7262
▁Advis	-7263
▁advis	-7264
▁dedic	-7265
▁gains	-7266
▁glass	-7267
▁mixed	-7268
▁oblig	-7269
▁plays	-7270
▁ultra	-7271
▁yield	-7272
Organic	-7273
agazine	-7274
ampling	-7275
related	-7276
ussalam	-7277
▁Edible	-7278
▁Issues	-7279
▁PREPAR	-7280
▁bought	-7281
▁exists	-7282
▁ranges	-7283
▁secure	-7284
▁submit	-7285
Economic	-7286
industry	-7287
ucrative	-7288
ustralia	-7289
▁Limited	-7290
▁attempt	-7291
▁candies	-7292
▁dietary	-7293
▁involve	-7294
▁poverty	-7295
▁replace	-7296
▁showing	-7297
developed	-7298
unctional	-7299
▁943-1103	-7300
▁ASOCIACI	-7301
▁Approval	-7302
▁Quantity	-7303
▁Yangling	-7304
▁coverage	-7305
▁extended	-7306
▁galaxies	-7307
▁licenses	-7308
▁occurred	-7309
▁operated	-7310
▁presents	-7311
▁reserved	-7312
▁Etiquette	-7313
▁partially	-7314
▁procedure	-7315
▁promising	-7316
▁shellfish	-7317
▁Containing	-7318
▁Darussalam	-7319
▁components	-7320
▁properties	-7321
▁accordingly	-7322
▁publication	-7323
▁consistently	-7324
▁demonstrated	-7325
▁Representative	-7326
8)	-7327
CP	-7328
IZ	-7329
No	-7330
sa	-7331
-8)	-7332
111	-7333
AIT	-7334
OUR	-7335
Our	-7336
aug	-7337
ger	-7338
yal	-7339
▁2)	-7340
▁3)	-7341
▁85	-7342
▁95	-7343
▁Lo	-7344
▁Ma	-7345
▁mg	-7346
Even	-7347
GRAP	-7348
asia	-7349
atem	-7350
east	-7351
home	-7352
imet	-7353
ivia	-7354
ouns	-7355
udes	-7356
▁$15	-7357
▁18,	-7358
▁20,	-7359
▁3.3	-7360
▁35%	-7361
▁604	-7362
▁Bon	-7363
▁Map	-7364
▁gms	-7365
▁spo	-7366
DFAIT	-7367
Given	-7368
ITIES	-7369
aanxi	-7370
ecomm	-7371
ester	-7372
eting	-7373
inger	-7374
vador	-7375
▁(380	-7376
▁Blue	-7377
▁Cand	-7378
▁Cook	-7379
▁Herz	-7380
▁Hogs	-7381
▁Kans	-7382
▁Oils	-7383
▁Only	-7384
▁Pure	-7385
▁cosm	-7386
▁debt	-7387
▁iron	-7388
▁road	-7389
▁seem	-7390
▁sent	-7391
▁wish	-7392
ateway	-7393
repren	-7394
ustria	-7395
wegian	-7396
▁1997,	-7397
▁Marks	-7398
▁dates	-7399
▁ocean	-7400
▁plate	-7401
▁ratio	-7402
▁recip	-7403
▁sells	-7404
▁sizes	-7405
▁sound	-7406
▁super	-7407
▁think	-7408
▁track	-7409
▁ultim	-7410
Pacific	-7411
aliment	-7412
unction	-7413
▁Bovine	-7414
▁Brasil	-7415
▁Commod	-7416
▁Glance	-7417
▁People	-7418
▁agreed	-7419
▁baking	-7420
▁corpor	-7421
▁delays	-7422
▁handle	-7423
▁manage	-7424
▁priced	-7425
▁serves	-7426
▁varies	-7427
▁yields	-7428
Products	-7429
venience	-7430
▁Freight	-7431
▁Grocery	-7432
▁Strateg	-7433
▁bananas	-7434
▁focuses	-7435
▁hygiene	-7436
▁minimal	-7437
▁serving	-7438
▁setting	-7439
▁whereas	-7440
gainfiles	-7441
ibilities	-7442
▁actively	-7443
▁entirely	-7444
▁extracts	-7445
▁featured	-7446
▁minerals	-7447
▁payments	-7448
▁released	-7449
▁starting	-7450
processing	-7451
▁Bestfoods	-7452
▁Saskatoon	-7453
▁benchmark	-7454
▁confirmed	-7455
▁demanding	-7456
▁harvested	-7457
▁officials	-7458
▁perceived	-7459
▁satellite	-7460
▁trademark	-7461
▁virtually	-7462
▁warehouse	-7463
▁differenti	-7464
▁principles	-7465
▁Guadalajara	-7466
▁considering	-7467
▁consignment	-7468
▁discussions	-7469
▁hospitality	-7470
▁participate	-7471
▁predominant	-7472
▁Distributors	-7473
▁implementing	-7474
▁classification	-7475
▁nutraceuticals	-7476
▁specifications	-7477
74	-7478
no	-7479
Not	-7480
hab	-7481
how	-7482
ios	-7483
udd	-7484
ugg	-7485
▁78	-7486
▁88	-7487
▁AL	-7488
▁Ca	-7489
▁ml	-7490
▁my	-7491
ICES	-7492
ague	-7493
aine	-7494
aler	-7495
andw	-7496
atin	-7497
earn	-7498
ibre	-7499
icar	-7500
itle	-7501
mann	-7502
rose	-7503
▁$14	-7504
▁1.0	-7505
▁16,	-7506
▁180	-7507
▁2.5	-7508
▁220	-7509
▁23,	-7510
▁Aqu	-7511
▁Coc	-7512
▁Fru	-7513
▁Tan	-7514
▁bir	-7515
▁hon	-7516
▁sus	-7517
▁van	-7518
▁yrs	-7519
Fresh	-7520
anent	-7521
ateur	-7522
elsen	-7523
imize	-7524
range	-7525
ratic	-7526
stein	-7527
▁"200	-7528
▁Cere	-7529
▁Cold	-7530
▁Expl	-7531
▁Fund	-7532
▁Mill	-7533
▁Tour	-7534
▁diam	-7535
▁jams	-7536
▁kind	-7537
▁vacc	-7538
German	-7539
amaica	-7540
commod	-7541
cuador	-7542
forced	-7543
mittel	-7544
tified	-7545
▁(31-7	-7546
▁1999.	-7547
▁2,000	-7548
▁Beans	-7549
▁Great	-7550
▁abund	-7551
▁asked	-7552
▁chick	-7553
▁drawn	-7554
▁equal	-7555
▁virus	-7556
▁waste	-7557
Denmark	-7558
Foreign	-7559
Readers	-7560
atemala	-7561
onnaise	-7562
raction	-7563
rinidad	-7564
service	-7565
▁Canned	-7566
▁Nestle	-7567
▁Nestlé	-7568
▁Valley	-7569
▁choose	-7570
▁citrus	-7571
▁desire	-7572
▁figure	-7573
▁gather	-7574
▁giving	-7575
▁interp	-7576
▁packer	-7577
▁player	-7578
▁stands	-7579
▁staple	-7580
▁sugges	-7581
▁vessel	-7582
▁Chicken	-7583
▁Duessel	-7584
▁Shaanxi	-7585
▁Storage	-7586
▁aggress	-7587
▁berries	-7588
▁carcass	-7589
▁conform	-7590
▁dealers	-7591
▁factory	-7592
▁impacts	-7593
▁jellies	-7594
▁persons	-7595
▁shelled	-7596
▁vinegar	-7597
ecommunic	-7598
processed	-7599
▁expenses	-7600
▁password	-7601
▁supports	-7602
▁variable	-7603
reditation	-7604
▁Delicious	-7605
▁Promotion	-7606
▁accompany	-7607
▁lucrative	-7608
▁prominent	-7609
fortunately	-7610
▁Innovation	-7611
▁fertilizer	-7612
▁prohibited	-7613
▁Duesseldorf	-7614
▁Established	-7615
▁blueberries	-7616
▁wavelengths	-7617
▁authorization	-7618
▁consideration	-7619
▁institutional	-7620
▁diversification	-7621
35	-7622
Co	-7623
Gu	-7624
PC	-7625
ez	-7626
▁<	-7627
-12	-7628
-40	-7629
.),	-7630
GAN	-7631
IAN	-7632
IES	-7633
RIC	-7634
RIV	-7635
ora	-7636
uit	-7637
urd	-7638
uro	-7639
▁"*	-7640
▁71	-7641
▁Kn	-7642
▁ce	-7643
Cent	-7644
haps	-7645
uled	-7646
uris	-7647
▁(1)	-7648
▁(18	-7649
▁11%	-7650
▁29,	-7651
▁4.2	-7652
▁Dis	-7653
▁Hel	-7654
▁Loc	-7655
▁Suc	-7656
▁eye	-7657
▁men	-7658
8212)	-7659
arine	-7660
eline	-7661
estiv	-7662
genic	-7663
urred	-7664
▁Agro	-7665
▁chic	-7666
▁flax	-7667
▁glob	-7668
▁logo	-7669
▁pace	-7670
▁prec	-7671
▁tips	-7672
alogue	-7673
alysts	-7674
ectual	-7675
health	-7676
inical	-7677
ometer	-7678
quence	-7679
stores	-7680
titude	-7681
▁Costs	-7682
▁Gross	-7683
▁Hanoi	-7684
▁Image	-7685
▁Vitam	-7686
▁accel	-7687
▁baked	-7688
▁faced	-7689
▁heart	-7690
▁meets	-7691
▁minor	-7692
▁optim	-7693
▁print	-7694
▁quota	-7695
▁semen	-7696
▁sharp	-7697
▁users	-7698
Science	-7699
gentine	-7700
urisdic	-7701
▁1998."	-7702
▁Kuwait	-7703
▁Winter	-7704
▁dining	-7705
▁faster	-7706
▁forced	-7707
▁infant	-7708
▁microw	-7709
▁moment	-7710
▁packed	-7711
▁seller	-7712
▁simple	-7713
▁stabil	-7714
▁stages	-7715
▁trying	-7716
ollowing	-7717
ulations	-7718
▁Average	-7719
▁Ecuador	-7720
▁Virtual	-7721
▁William	-7722
▁amongst	-7723
▁century	-7724
▁certify	-7725
▁cookies	-7726
▁doubled	-7727
▁getting	-7728
▁margins	-7729
▁passeng	-7730
▁picture	-7731
▁planned	-7732
▁ranking	-7733
▁texture	-7734
▁version	-7735
Argentina	-7736
Consumers	-7737
ellectual	-7738
▁Salvador	-7739
▁Slovakia	-7740
▁attached	-7741
▁believed	-7742
▁destined	-7743
▁exceeded	-7744
▁greatest	-7745
▁observed	-7746
▁probably	-7747
▁referred	-7748
▁regulate	-7749
▁separate	-7750
▁trillion	-7751
▁Alcoholic	-7752
▁CUSTOMERS	-7753
▁Chocolate	-7754
▁Countries	-7755
▁Norwegian	-7756
▁delivered	-7757
▁entrepren	-7758
▁lifestyle	-7759
▁protected	-7760
▁regularly	-7761
▁thousands	-7762
▁comparable	-7763
▁forwarders	-7764
▁previously	-7765
▁Engineering	-7766
▁observations	-7767
▁transactions	-7768
▁universities	-7769
▁administrative	-7770
32	-7771
34	-7772
NS	-7773
ii	-7774
oz	-7775
-05	-7776
-59	-7777
-80	-7778
190	-7779
AIN	-7780
Fin	-7781
IBL	-7782
Two	-7783
aii	-7784
hop	-7785
off	-7786
raf	-7787
▁84	-7788
▁Go	-7789
▁My	-7790
Ital	-7791
Tech	-7792
agua	-7793
band	-7794
cure	-7795
eurs	-7796
fect	-7797
iami	-7798
iled	-7799
isco	-7800
mont	-7801
onut	-7802
osen	-7803
rees	-7804
reme	-7805
rugg	-7806
side	-7807
▁$30	-7808
▁225	-7809
▁28,	-7810
▁30,	-7811
▁Due	-7812
▁Etc	-7813
▁Mil	-7814
▁PAC	-7815
▁Pes	-7816
▁den	-7817
▁hit	-7818
▁hyd	-7819
▁lux	-7820
▁vol	-7821
▁war	-7822
-2000	-7823
PORTS	-7824
awaii	-7825
bohyd	-7826
class	-7827
early	-7828
onald	-7829
▁$1.1	-7830
▁0713	-7831
▁Balk	-7832
▁Each	-7833
▁Hand	-7834
▁Line	-7835
▁Rate	-7836
▁Star	-7837
▁bran	-7838
▁file	-7839
▁groc	-7840
▁load	-7841
▁stay	-7842
ADORES	-7843
Health	-7844
RIVATE	-7845
elfare	-7846
priced	-7847
public	-7848
▁Bison	-7849
▁Grupo	-7850
▁Maine	-7851
▁Prosp	-7852
▁Radio	-7853
▁Share	-7854
▁Treat	-7855
▁cheap	-7856
▁drive	-7857
▁fewer	-7858
▁named	-7859
▁occas	-7860
▁roots	-7861
▁simpl	-7862
▁spoon	-7863
▁vehic	-7864
Distrib	-7865
Spanish	-7866
rations	-7867
theless	-7868
▁10,000	-7869
▁Andean	-7870
▁Drinks	-7871
▁Spring	-7872
▁Wilson	-7873
▁bright	-7874
▁caught	-7875
▁conver	-7876
▁gained	-7877
▁joined	-7878
▁parent	-7879
▁select	-7880
▁showed	-7881
▁strugg	-7882
▁threat	-7883
ervision	-7884
position	-7885
▁(2004),	-7886
▁Sockeye	-7887
▁chewing	-7888
▁decades	-7889
▁periods	-7890
▁pharmac	-7891
▁planets	-7892
ackground	-7893
▁Barriers	-7894
▁airports	-7895
▁comprise	-7896
▁computer	-7897
▁jurisdic	-7898
▁lobsters	-7899
▁residues	-7900
▁sampling	-7901
▁scallops	-7902
▁seminars	-7903
▁stronger	-7904
▁tomatoes	-7905
▁Comercial	-7906
▁Estimated	-7907
▁Frankfurt	-7908
▁allocated	-7909
▁carefully	-7910
▁medicines	-7911
▁qualified	-7912
▁technique	-7913
▁territory	-7914
▁Indicators	-7915
▁Veterinary	-7916
▁attributes	-7917
▁completely	-7918
▁incentives	-7919
▁irrigation	-7920
▁photograph	-7921
▁veterinary	-7922
▁communities	-7923
▁constitutes	-7924
▁demonstrate	-7925
▁maintaining	-7926
Approximately	-7927
▁modernization	-7928
▁strengthening	-7929
EI	-7930
MS	-7931
RO	-7932
br	-7933
ga	-7934
%20	-7935
-01	-7936
/10	-7937
146	-7938
AGE	-7939
FTA	-7940
GDP	-7941
Net	-7942
Per	-7943
TCM	-7944
dam	-7945
enh	-7946
hou	-7947
ief	-7948
lom	-7949
nut	-7950
rip	-7951
▁04	-7952
▁76	-7953
▁EC	-7954
▁ID	-7955
▁NA	-7956
▁SM	-7957
▁cm	-7958
▁fu	-7959
▁ma	-7960
-199	-7961
TROL	-7962
hood	-7963
pack	-7964
rots	-7965
tech	-7966
utor	-7967
▁(13	-7968
▁1/2	-7969
▁26%	-7970
▁4.0	-7971
▁4.4	-7972
▁Big	-7973
▁Cup	-7974
▁Dun	-7975
▁Ext	-7976
▁Mel	-7977
▁Neg	-7978
▁Pal	-7979
▁pea	-7980
▁upd	-7981
IONAL	-7982
alyst	-7983
chins	-7984
depth	-7985
ength	-7986
iling	-7987
ridge	-7988
ville	-7989
▁$100	-7990
▁Bott	-7991
▁Decl	-7992
▁Disc	-7993
▁Flor	-7994
▁Leaf	-7995
▁Room	-7996
▁Step	-7997
▁aims	-7998
▁opin	-7999
▁palm	-8000
▁sure	-8001
Frozen	-8002
GRAPHY	-8003
Minist	-8004
SECTOR	-8005
United	-8006
ailing	-8007
bsites	-8008
coming	-8009
ething	-8010
orders	-8011
origin	-8012
rivers	-8013
stream	-8014
▁(204)	-8015
▁1998.	-8016
▁Elect	-8017
▁Fancy	-8018
▁Impro	-8019
▁Miami	-8020
▁Sweet	-8021
▁exact	-8022
▁fleet	-8023
▁grows	-8024
▁offal	-8025
▁raise	-8026
▁soups	-8027
▁steel	-8028
▁steps	-8029
▁trust	-8030
▁vital	-8031
▁whisk	-8032
Country	-8033
Philipp	-8034
UNITIES	-8035
cession	-8036
pective	-8037
▁Albert	-8038
▁Deputy	-8039
▁Kansai	-8040
▁Others	-8041
▁formed	-8042
▁levied	-8043
▁passed	-8044
▁refers	-8045
▁tomato	-8046
▁Chilean	-8047
▁Estonia	-8048
▁Germans	-8049
▁Medical	-8050
▁airport	-8051
▁arrival	-8052
▁article	-8053
▁dealing	-8054
▁decided	-8055
▁leaders	-8056
▁mussels	-8057
▁regards	-8058
▁summary	-8059
Singapore	-8060
ensmittel	-8061
▁Trinidad	-8062
▁accommod	-8063
▁apparent	-8064
▁database	-8065
▁landings	-8066
▁monetary	-8067
▁sections	-8068
▁teaspoon	-8069
ifications	-8070
▁Guatemala	-8071
▁discussed	-8072
▁nutrients	-8073
▁president	-8074
▁shortages	-8075
▁something	-8076
▁acceptable	-8077
▁beneficial	-8078
▁classified	-8079
▁experiment	-8080
▁indicators	-8081
▁moderately	-8082
Agricultural	-8083
▁Scandinavia	-8084
▁electricity	-8085
▁encouraging	-8086
▁penetration	-8087
▁suggestions	-8088
▁surrounding	-8089
▁Intelligence	-8090
▁fluctuations	-8091
▁preferential	-8092
▁telecommunic	-8093
▁technological	-8094
EO	-8095
cr	-8096
gn	-8097
(1)	-8098
-25	-8099
.""	-8100
/06	-8101
ANT	-8102
ORM	-8103
Sup	-8104
TIN	-8105
ani	-8106
cfm	-8107
eel	-8108
lit	-8109
ody	-8110
oys	-8111
▁08	-8112
▁69	-8113
▁81	-8114
▁NZ	-8115
▁Ne	-8116
▁Rd	-8117
-33)	-8118
Last	-8119
care	-8120
ella	-8121
enty	-8122
farm	-8123
fers	-8124
ging	-8125
heat	-8126
prin	-8127
show	-8128
teen	-8129
tier	-8130
▁"10	-8131
▁(""	-8132
▁(%)	-8133
▁22%	-8134
▁280	-8135
▁3.4	-8136
▁4.5	-8137
▁514	-8138
▁563	-8139
▁85%	-8140
▁FOB	-8141
▁Met	-8142
▁Nep	-8143
▁Nig	-8144
▁Ref	-8145
▁nes	-8146
▁tex	-8147
▁ven	-8148
-2002	-8149
Chile	-8150
IBLIO	-8151
eners	-8152
jiang	-8153
shore	-8154
stead	-8155
▁3.5%	-8156
▁Bern	-8157
▁Camb	-8158
▁Chap	-8159
▁Cond	-8160
▁Such	-8161
▁deem	-8162
▁ease	-8163
▁hour	-8164
▁pigs	-8165
▁plat	-8166
▁pred	-8167
▁summ	-8168
▁true	-8169
Within	-8170
ayment	-8171
events	-8172
lights	-8173
online	-8174
orough	-8175
region	-8176
▁1-800	-8177
▁Delta	-8178
▁Doing	-8179
▁GUIDE	-8180
▁Large	-8181
▁Osaka	-8182
▁TOTAL	-8183
▁Works	-8184
▁adapt	-8185
▁adopt	-8186
▁goals	-8187
▁lists	-8188
▁restr	-8189
General	-8190
Vietnam	-8191
espread	-8192
itation	-8193
stellar	-8194
▁Bakery	-8195
▁Christ	-8196
▁During	-8197
▁Freder	-8198
▁Stores	-8199
▁Tobago	-8200
▁appeal	-8201
▁chosen	-8202
▁closer	-8203
▁corner	-8204
▁mining	-8205
▁namely	-8206
▁remark	-8207
▁severe	-8208
▁shared	-8209
▁worked	-8210
▁yearly	-8211
Accessed	-8212
specific	-8213
▁Bolivia	-8214
▁Despite	-8215
▁Indians	-8216
▁Jamaica	-8217
▁Lentils	-8218
▁Michael	-8219
▁Readers	-8220
▁Romania	-8221
▁chicory	-8222
▁choices	-8223
▁confirm	-8224
▁depends	-8225
▁feature	-8226
▁helping	-8227
▁imposed	-8228
▁monthly	-8229
▁thereof	-8230
sequently	-8231
▁Americas	-8232
▁Official	-8233
▁Specific	-8234
▁bringing	-8235
▁carbohyd	-8236
▁carrying	-8237
▁culinary	-8238
▁employed	-8239
▁missions	-8240
▁replaced	-8241
▁stations	-8242
romagnetic	-8243
▁613-759-7	-8244
▁Astronomy	-8245
▁Nutrition	-8246
▁competent	-8247
▁contracts	-8248
▁diversity	-8249
▁kilograms	-8250
▁positions	-8251
IBLIOGRAPHY	-8252
▁Provincial	-8253
▁constitute	-8254
▁durability	-8255
▁engineered	-8256
▁negotiated	-8257
▁phenomenon	-8258
▁prescribed	-8259
▁widespread	-8260
canadaeuropa	-8261
▁Foodservice	-8262
▁identifying	-8263
Unfortunately	-8264
▁Astronomical	-8265
▁contribution	-8266
▁interstellar	-8267
▁phytosanitary	-8268
▁Considerations	-8269
37	-8270
CB	-8271
MB	-8272
PR	-8273
Pl	-8274
ei	-8275
si	-8276
sm	-8277
-07	-8278
APA	-8279
EAN	-8280
OST	-8281
RON	-8282
Sec	-8283
era	-8284
gin	-8285
ldi	-8286
los	-8287
ode	-8288
sim	-8289
▁(%	-8290
▁Di	-8291
▁IC	-8292
▁QC	-8293
▁SH	-8294
▁Ta	-8295
Days	-8296
Grow	-8297
anol	-8298
cane	-8299
enos	-8300
erms	-8301
gary	-8302
kers	-8303
main	-8304
oted	-8305
otic	-8306
rito	-8307
rout	-8308
ulti	-8309
used	-8310
zing	-8311
▁$17	-8312
▁(30	-8313
▁011	-8314
▁1.7	-8315
▁110	-8316
▁13,	-8317
▁19%	-8318
▁2.3	-8319
▁24,	-8320
▁25,	-8321
▁27,	-8322
▁28%	-8323
▁800	-8324
▁95%	-8325
▁FHA	-8326
▁Imp	-8327
▁Low	-8328
▁MSC	-8329
▁deb	-8330
-2004	-8331
adora	-8332
iplom	-8333
itung	-8334
liers	-8335
▁$1.2	-8336
▁000’	-8337
▁SERV	-8338
▁cash	-8339
▁fulf	-8340
▁kept	-8341
▁menu	-8342
▁push	-8343
▁thin	-8344
▁tree	-8345
▁zone	-8346
.11.02	-8347
europe	-8348
lusive	-8349
olitan	-8350
rating	-8351
ternal	-8352
▁1-888	-8353
▁About	-8354
▁Added	-8355
▁Index	-8356
▁Light	-8357
▁award	-8358
▁birth	-8359
▁cards	-8360
▁dimin	-8361
▁marks	-8362
▁navig	-8363
▁weeks	-8364
chilled	-8365
estival	-8366
natural	-8367
▁Latvia	-8368
▁Review	-8369
▁Treaty	-8370
▁acquis	-8371
▁assign	-8372
▁enjoys	-8373
▁extend	-8374
▁fillet	-8375
▁grapes	-8376
▁legisl	-8377
▁mutual	-8378
▁offset	-8379
▁outlet	-8380
▁recipe	-8381
▁spoons	-8382
Packaged	-8383
▁Tariffs	-8384
▁assumes	-8385
▁branded	-8386
▁emitted	-8387
▁explain	-8388
▁handled	-8389
▁letters	-8390
▁returns	-8391
▁revenue	-8392
▁traffic	-8393
Depending	-8394
organisms	-8395
▁Managing	-8396
▁PREPARED	-8397
▁Purchase	-8398
▁Sciences	-8399
▁acquired	-8400
▁applying	-8401
▁audience	-8402
▁diameter	-8403
▁educated	-8404
▁outbreak	-8405
▁portions	-8406
▁relation	-8407
▁suffered	-8408
▁websites	-8409
Statistics	-8410
▁Argentine	-8411
▁Francisco	-8412
▁authentic	-8413
▁competing	-8414
▁dedicated	-8415
▁physicist	-8416
▁receiving	-8417
▁suggested	-8418
▁sunflower	-8419
▁Additional	-8420
▁background	-8421
▁competitor	-8422
▁conducting	-8423
▁continuous	-8424
▁forecasted	-8425
▁generation	-8426
▁mayonnaise	-8427
▁variations	-8428
publications	-8429
▁Partnership	-8430
▁challenging	-8431
▁demographic	-8432
▁enforcement	-8433
▁engineering	-8434
armaceuticals	-8435
▁Intermediate	-8436
▁conservation	-8437
▁incorporated	-8438
▁notification	-8439
▁Commissioners	-8440
▁Manufacturing	-8441
▁consolidation	-8442
$6	-8443
De	-8444
UT	-8445
Us	-8446
ws	-8447
-16	-8448
.)"	-8449
505	-8450
910	-8451
:30	-8452
Dec	-8453
Dem	-8454
Par	-8455
VAT	-8456
cio	-8457
ero	-8458
fat	-8459
ift	-8460
las	-8461
lor	-8462
osé	-8463
upp	-8464
▁5.	-8465
▁77	-8466
▁Fr	-8467
▁Ir	-8468
▁MB	-8469
▁SP	-8470
▁SW	-8471
-177	-8472
AGAR	-8473
IFIC	-8474
Main	-8475
TURE	-8476
ails	-8477
aked	-8478
azak	-8479
from	-8480
iboc	-8481
meat	-8482
mega	-8483
ooth	-8484
peas	-8485
prep	-8486
zers	-8487
▁2.2	-8488
▁2.6	-8489
▁26,	-8490
▁33%	-8491
▁5.1	-8492
▁65%	-8493
▁93/	-8494
▁Dog	-8495
▁FAO	-8496
▁Fle	-8497
▁Heb	-8498
▁Let	-8499
▁MAN	-8500
▁Rem	-8501
▁Vir	-8502
▁Yuk	-8503
▁bit	-8504
▁gap	-8505
▁mel	-8506
-2005	-8507
Among	-8508
heres	-8509
onnel	-8510
ronic	-8511
▁2.5%	-8512
▁Club	-8513
▁Espa	-8514
▁Find	-8515
▁Jean	-8516
▁Tips	-8517
▁flex	-8518
▁goes	-8519
▁mind	-8520
▁neut	-8521
▁oven	-8522
▁sets	-8523
▁symb	-8524
atures	-8525
cooked	-8526
istant	-8527
▁2002*	-8528
▁2007.	-8529
▁Aires	-8530
▁Class	-8531
▁Facts	-8532
▁Mills	-8533
▁Nicar	-8534
▁Rober	-8535
▁Semin	-8536
▁Swine	-8537
▁begun	-8538
▁ideas	-8539
▁inaug	-8540
▁index	-8541
▁maize	-8542
▁withd	-8543
Mexican	-8544
Through	-8545
ediment	-8546
pliance	-8547
▁Arctic	-8548
▁Brands	-8549
▁Fruits	-8550
▁George	-8551
▁Strong	-8552
▁Thomas	-8553
▁Update	-8554
▁arable	-8555
▁circum	-8556
▁flavor	-8557
▁normal	-8558
▁prawns	-8559
▁raised	-8560
▁really	-8561
▁remove	-8562
▁thanks	-8563
▁viewed	-8564
▁yogurt	-8565
▁(31-70)	-8566
▁Analyst	-8567
▁Calgary	-8568
▁Islamic	-8569
▁Soybean	-8570
▁appoint	-8571
▁context	-8572
▁earlier	-8573
▁enjoyed	-8574
▁evident	-8575
▁signing	-8576
▁thought	-8577
▁Complete	-8578
▁Controls	-8579
▁External	-8580
▁Importer	-8581
▁actually	-8582
▁clinical	-8583
▁drinking	-8584
▁external	-8585
▁formulae	-8586
▁invested	-8587
▁measured	-8588
▁pastries	-8589
▁platform	-8590
▁spectros	-8591
▁terminal	-8592
▁Available	-8593
▁Forecasts	-8594
▁Importing	-8595
▁Secretary	-8596
▁Territory	-8597
▁direction	-8598
▁discovery	-8599
▁governing	-8600
▁gradually	-8601
▁maintains	-8602
▁practical	-8603
▁sometimes	-8604
▁ASOCIACIÓN	-8605
▁affordable	-8606
▁calculated	-8607
▁dependence	-8608
▁designated	-8609
▁constraints	-8610
▁designation	-8611
▁inspections	-8612
▁prepackaged	-8613
▁ExportSource	-8614
▁subsidiaries	-8615
▁Institutional	-8616
39	-8617
69	-8618
UB	-8619
Up	-8620
])	-8621
kw	-8622
mo	-8623
tr	-8624
zy	-8625
án	-8626
-27	-8627
-37	-8628
-52	-8629
/12	-8630
10,	-8631
DIX	-8632
END	-8633
aro	-8634
den	-8635
nsf	-8636
olk	-8637
orr	-8638
uba	-8639
urb	-8640
uté	-8641
▁03	-8642
▁1⁄	-8643
▁99	-8644
▁IF	-8645
▁Vi	-8646
ANCE	-8647
FORM	-8648
High	-8649
THER	-8650
alue	-8651
epan	-8652
esse	-8653
fall	-8654
hong	-8655
inos	-8656
ipei	-8657
meal	-8658
menu	-8659
mpos	-8660
self	-8661
stac	-8662
tuce	-8663
week	-8664
zero	-8665
▁115	-8666
▁130	-8667
▁23%	-8668
▁31,	-8669
▁350	-8670
▁Ban	-8671
▁KEY	-8672
▁PDF	-8673
▁VEB	-8674
▁Van	-8675
▁dil	-8676
▁fem	-8677
▁fer	-8678
▁gen	-8679
▁mor	-8680
-2342	-8681
/2003	-8682
ENDIX	-8683
Local	-8684
Never	-8685
apple	-8686
arrow	-8687
conic	-8688
empor	-8689
ernet	-8690
eslin	-8691
gests	-8692
odium	-8693
ounce	-8694
pping	-8695
▁$1.4	-8696
▁1955	-8697
▁Bulk	-8698
▁Chem	-8699
▁Coop	-8700
▁Copy	-8701
▁Educ	-8702
▁Rece	-8703
▁dish	-8704
▁flow	-8705
▁magn	-8706
▁nect	-8707
▁purs	-8708
▁sche	-8709
▁sole	-8710
▁spok	-8711
▁stri	-8712
▁trem	-8713
Direct	-8714
Observ	-8715
avoury	-8716
kosher	-8717
riched	-8718
unicip	-8719
▁Apple	-8720
▁Berry	-8721
▁Chain	-8722
▁Delhi	-8723
▁Links	-8724
▁Luzon	-8725
▁Shows	-8726
▁Since	-8727
▁berry	-8728
▁camer	-8729
▁cells	-8730
▁deleg	-8731
▁fairs	-8732
▁favor	-8733
▁herbs	-8734
▁ideal	-8735
▁kinds	-8736
▁novel	-8737
▁nucle	-8738
▁sense	-8739
▁shape	-8740
Further	-8741
arbucks	-8742
inating	-8743
million	-8744
mposium	-8745
ression	-8746
▁Buenos	-8747
▁Cattle	-8748
▁Supply	-8749
▁celery	-8750
▁deemed	-8751
▁disapp	-8752
▁easier	-8753
▁illust	-8754
▁luxury	-8755
▁margin	-8756
▁marine	-8757
▁oblate	-8758
▁obstac	-8759
▁occurs	-8760
▁receip	-8761
▁turkey	-8762
European	-8763
Industry	-8764
▁(011-84	-8765
▁Centres	-8766
▁Gourmet	-8767
▁bottles	-8768
▁capture	-8769
▁degrees	-8770
▁lettuce	-8771
▁listing	-8772
▁mandate	-8773
▁plastic	-8774
▁putting	-8775
▁sausage	-8776
▁seasons	-8777
▁writing	-8778
Australia	-8779
countries	-8780
▁Biscuits	-8781
▁CANADIAN	-8782
▁Forestry	-8783
▁compound	-8784
▁desserts	-8785
▁division	-8786
▁flavours	-8787
▁friendly	-8788
▁operator	-8789
▁powerful	-8790
▁promotes	-8791
▁proposal	-8792
▁reserves	-8793
▁saucepan	-8794
▁suggests	-8795
▁thorough	-8796
▁Documents	-8797
▁Household	-8798
▁Preserved	-8799
▁alliances	-8800
▁collected	-8801
▁involving	-8802
▁margarine	-8803
▁molecular	-8804
▁obtaining	-8805
▁originate	-8806
▁penetrate	-8807
▁predicted	-8808
▁preferred	-8809
▁provision	-8810
▁reflected	-8811
▁satisfied	-8812
▁scheduled	-8813
▁strengths	-8814
▁totalling	-8815
▁Evaluation	-8816
▁Functional	-8817
▁Interested	-8818
▁foundation	-8819
▁harvesting	-8820
▁influences	-8821
▁neighbours	-8822
▁preference	-8823
▁Competitive	-8824
▁cultivation	-8825
▁determining	-8826
▁particulars	-8827
Observatories	-8828
▁Preparations	-8829
▁contributing	-8830
▁dramatically	-8831
▁slaughtering	-8832
▁Participation	-8833
▁concentration	-8834
▁environmentally	-8835
GE	-8836
Sa	-8837
hr	-8838
-63	-8839
-64	-8840
19)	-8841
2-4	-8842
726	-8843
ENE	-8844
emn	-8845
ira	-8846
irl	-8847
key	-8848
lap	-8849
men	-8850
oto	-8851
pan	-8852
tir	-8853
win	-8854
▁01	-8855
▁4.	-8856
▁Bh	-8857
▁CP	-8858
.2.1	-8859
Fran	-8860
NESS	-8861
Such	-8862
Trad	-8863
ache	-8864
aker	-8865
ango	-8866
asse	-8867
ayas	-8868
fold	-8869
greg	-8870
isch	-8871
lege	-8872
orie	-8873
ouis	-8874
plan	-8875
rest	-8876
riae	-8877
rial	-8878
wine	-8879
▁(14	-8880
▁(2)	-8881
▁(84	-8882
▁0.3	-8883
▁151	-8884
▁235	-8885
▁237	-8886
▁3.5	-8887
▁42%	-8888
▁CDN	-8889
▁CIA	-8890
▁FAX	-8891
▁Gam	-8892
▁III	-8893
▁Las	-8894
▁Mid	-8895
▁Nam	-8896
▁Nue	-8897
▁Pat	-8898
▁Rio	-8899
▁cow	-8900
▁haz	-8901
▁mal	-8902
▁mig	-8903
Italy	-8904
Sales	-8905
aredo	-8906
ellor	-8907
ental	-8908
inade	-8909
older	-8910
omics	-8911
rades	-8912
tures	-8913
white	-8914
▁$1.6	-8915
▁$1.7	-8916
▁Brit	-8917
▁CNCA	-8918
▁Chic	-8919
▁GAIN	-8920
▁Gran	-8921
▁Gren	-8922
▁Matt	-8923
▁Prop	-8924
▁Your	-8925
▁asse	-8926
▁brew	-8927
▁fire	-8928
▁hake	-8929
▁hogs	-8930
▁issu	-8931
▁mail	-8932
▁path	-8933
▁susp	-8934
▁wind	-8935
AGARPA	-8936
Retail	-8937
TROLab	-8938
Though	-8939
advant	-8940
anding	-8941
iscuit	-8942
quency	-8943
ulsory	-8944
urated	-8945
ustoms	-8946
▁2009,	-8947
▁Crops	-8948
▁Daily	-8949
▁Drink	-8950
▁Jalan	-8951
▁ORGAN	-8952
▁Paulo	-8953
▁Queen	-8954
▁Yukon	-8955
▁durum	-8956
▁exemp	-8957
▁owner	-8958
▁pleas	-8959
▁prove	-8960
▁stagn	-8961
▁texti	-8962
special	-8963
titudes	-8964
▁(380-4	-8965
▁Martin	-8966
▁McCain	-8967
▁Spread	-8968
▁academ	-8969
▁assort	-8970
▁bachel	-8971
▁biolog	-8972
▁enable	-8973
▁filled	-8974
▁length	-8975
▁trials	-8976
▁update	-8977
Venezuel	-8978
factbook	-8979
liminary	-8980
olitical	-8981
▁2005)."	-8982
▁Balance	-8983
▁Balkans	-8984
▁Exhibit	-8985
▁Sources	-8986
▁Success	-8987
▁amended	-8988
▁banking	-8989
▁finance	-8990
▁nominal	-8991
▁payable	-8992
▁rebound	-8993
▁skilled	-8994
▁treated	-8995
▁tremend	-8996
_________	-8997
preserved	-8998
▁ASTROLab	-8999
▁Distrito	-9000
▁construc	-9001
▁doctoral	-9002
▁findings	-9003
▁machines	-9004
▁solution	-9005
▁vehicles	-9006
▁Malaysian	-9007
▁elsewhere	-9008
▁extension	-9009
▁groceries	-9010
▁immediate	-9011
▁ownership	-9012
▁permanent	-9013
▁sustained	-9014
▁telephone	-9015
sufficiency	-9016
▁Assistance	-9017
▁Astronomes	-9018
▁Newsletter	-9019
▁institutes	-9020
▁reasonable	-9021
▁university	-9022
▁wholesaler	-9023
▁Competitors	-9024
▁Declaration	-9025
▁Expenditure	-9026
▁cranberries	-9027
▁possibility	-9028
▁Associations	-9029
▁PREPAREDNESS	-9030
▁predominantly	-9031
▁preservatives	-9032
▁electromagnetic	-9033
,"	-9034
CR	-9035
GI	-9036
MI	-9037
OA	-9038
PM	-9039
Se	-9040
ki	-9041
mc	-9042
Nor	-9043
OSI	-9044
Sim	-9045
aza	-9046
exc	-9047
han	-9048
hot	-9049
igo	-9050
ime	-9051
iso	-9052
lan	-9053
non	-9054
sen	-9055
umb	-9056
unn	-9057
▁Ba	-9058
▁MS	-9059
▁Of	-9060
▁Pr	-9061
▁Te	-9062
▁VI	-9063
▁dw	-9064
-30)	-9065
ANTS	-9066
UFAC	-9067
What	-9068
aman	-9069
anao	-9070
aron	-9071
arse	-9072
atar	-9073
bert	-9074
burg	-9075
etch	-9076
oche	-9077
odia	-9078
ulph	-9079
vain	-9080
▁$16	-9081
▁(12	-9082
▁0.6	-9083
▁194	-9084
▁21%	-9085
▁426	-9086
▁992	-9087
▁Ace	-9088
▁Ale	-9089
▁Cur	-9090
▁Guy	-9091
▁ISM	-9092
▁Kit	-9093
▁Log	-9094
▁Ori	-9095
▁Vin	-9096
▁arg	-9097
▁ast	-9098
▁bal	-9099
▁upg	-9100
North	-9101
allel	-9102
efore	-9103
ephan	-9104
erate	-9105
ether	-9106
istol	-9107
ludes	-9108
olved	-9109
rogen	-9110
uerto	-9111
years	-9112
▁Brid	-9113
▁COUN	-9114
▁Café	-9115
▁Grap	-9116
▁Head	-9117
▁Home	-9118
▁Malt	-9119
▁NOMs	-9120
▁Oman	-9121
▁Prac	-9122
▁SPEC	-9123
▁Sand	-9124
▁Soup	-9125
▁bond	-9126
▁coal	-9127
▁dual	-9128
▁edge	-9129
▁hall	-9130
▁mild	-9131
▁pine	-9132
▁sess	-9133
▁stim	-9134
▁ther	-9135
▁zero	-9136
embass	-9137
entive	-9138
global	-9139
inates	-9140
istent	-9141
mental	-9142
ulates	-9143
wealth	-9144
▁Categ	-9145
▁Deuts	-9146
▁Greek	-9147
▁INDUS	-9148
▁Peter	-9149
▁Round	-9150
▁Seeds	-9151
▁Three	-9152
▁acids	-9153
▁birds	-9154
▁codes	-9155
▁displ	-9156
▁eaten	-9157
▁exerc	-9158
▁faces	-9159
▁holid	-9160
▁loyal	-9161
▁newly	-9162
▁paste	-9163
▁promp	-9164
▁shore	-9165
▁style	-9166
▁tends	-9167
▁title	-9168
▁tract	-9169
▁truck	-9170
▁union	-9171
▁wider	-9172
Another	-9173
Natural	-9174
UFACTUR	-9175
andwich	-9176
onomous	-9177
ossible	-9178
▁1997."	-9179
▁Dunlap	-9180
▁Nature	-9181
▁Social	-9182
▁exotic	-9183
▁expert	-9184
▁freely	-9185
▁houses	-9186
▁inside	-9187
▁intens	-9188
▁object	-9189
▁pounds	-9190
▁routes	-9191
▁sliced	-9192
▁thirds	-9193
quarters	-9194
▁Indones	-9195
▁Prairie	-9196
▁Profess	-9197
▁charged	-9198
▁coconut	-9199
▁friends	-9200
▁physics	-9201
▁planted	-9202
▁readily	-9203
▁urchins	-9204
Generally	-9205
essential	-9206
iplomatic	-9207
ographics	-9208
struments	-9209
▁759-7506	-9210
▁Alliance	-9211
▁Filipino	-9212
▁Nutraceu	-9213
▁Position	-9214
▁adoption	-9215
▁bakeries	-9216
▁equipped	-9217
▁mountain	-9218
▁reflects	-9219
▁returned	-9220
▁sourcing	-9221
▁tropical	-9222
provincial	-9223
▁Directory	-9224
▁Nicaragua	-9225
▁Northeast	-9226
▁Retailers	-9227
▁Technolog	-9228
▁condensed	-9229
▁consuming	-9230
▁dressings	-9231
▁existence	-9232
▁flavoured	-9233
▁franchise	-9234
▁initiated	-9235
▁personnel	-9236
▁populated	-9237
▁statement	-9238
▁sugarcane	-9239
▁transform	-9240
▁attracting	-9241
▁confection	-9242
▁cultivated	-9243
▁eliminated	-9244
▁exhibiting	-9245
▁presenting	-9246
Nevertheless	-9247
▁Application	-9248
▁Description	-9249
▁introducing	-9250
▁perspective	-9251
▁populations	-9252
▁contributions	-9253
▁corresponding	-9254
$5	-9255
/4	-9256
5/	-9257
La	-9258
Os	-9259
VA	-9260
dk	-9261
ja	-9262
oo	-9263
tw	-9264
zi	-9265
és	-9266
-08	-9267
-8,	-9268
/02	-9269
1.2	-9270
1.3	-9271
119	-9272
130	-9273
4-1	-9274
50)	-9275
ADE	-9276
ATS	-9277
Car	-9278
IST	-9279
KAG	-9280
QSI	-9281
Sal	-9282
agu	-9283
ami	-9284
cbs	-9285
def	-9286
gal	-9287
hal	-9288
mas	-9289
▁05	-9290
▁06	-9291
▁92	-9292
▁AB	-9293
▁BR	-9294
▁Hi	-9295
▁Hy	-9296
▁LA	-9297
▁Ms	-9298
▁PL	-9299
▁vs	-9300
/198	-9301
FAIT	-9302
MARY	-9303
Mail	-9304
QSIQ	-9305
TRUC	-9306
West	-9307
ahar	-9308
amas	-9309
cost	-9310
data	-9311
erel	-9312
grow	-9313
iana	-9314
ibly	-9315
inea	-9316
ryst	-9317
tise	-9318
uted	-9319
▁$25	-9320
▁$40	-9321
▁0.2	-9322
▁0.7	-9323
▁1."	-9324
▁19,	-9325
▁2.0	-9326
▁3.2	-9327
▁55%	-9328
▁598	-9329
▁6.2	-9330
▁76/	-9331
▁80/	-9332
▁Bet	-9333
▁Bos	-9334
▁Ger	-9335
▁Hud	-9336
▁Jew	-9337
▁LEG	-9338
▁Ren	-9339
▁Sov	-9340
▁Ste	-9341
▁Tom	-9342
▁Two	-9343
▁aqu	-9344
▁ats	-9345
▁bad	-9346
▁pes	-9347
▁rue	-9348
▁uns	-9349
-1773	-9350
Inter	-9351
RICUL	-9352
cepts	-9353
digit	-9354
erver	-9355
ewise	-9356
jects	-9357
ordon	-9358
oston	-9359
print	-9360
▁$1.5	-9361
▁(65)	-9362
▁1000	-9363
▁89/3	-9364
▁Chen	-9365
▁Eggs	-9366
▁Fort	-9367
▁Frid	-9368
▁Girl	-9369
▁Hold	-9370
▁Marc	-9371
▁Snow	-9372
▁Stra	-9373
▁busy	-9374
▁dead	-9375
▁flat	-9376
▁horm	-9377
▁kitc	-9378
▁lies	-9379
▁roll	-9380
KAGING	-9381
arized	-9382
eading	-9383
gested	-9384
itting	-9385
sector	-9386
simile	-9387
stance	-9388
violet	-9389
▁1995,	-9390
▁2002"	-9391
▁After	-9392
▁Break	-9393
▁Calle	-9394
▁Clear	-9395
▁DFAIT	-9396
▁Makes	-9397
▁aside	-9398
▁banks	-9399
▁chefs	-9400
▁clubs	-9401
▁dough	-9402
▁explo	-9403
▁fibre	-9404
▁lives	-9405
▁prime	-9406
▁sheep	-9407
▁spons	-9408
▁stood	-9409
▁theme	-9410
enhagen	-9411
ulating	-9412
uminous	-9413
▁2010."	-9414
▁Almost	-9415
▁Guyana	-9416
▁Hebrew	-9417
▁Plants	-9418
▁Robert	-9419
▁Soviet	-9420
▁belong	-9421
▁busier	-9422
▁closed	-9423
▁costly	-9424
▁damage	-9425
▁famous	-9426
▁focuss	-9427
▁forest	-9428
▁interm	-9429
▁laying	-9430
▁leaves	-9431
▁lesson	-9432
▁linked	-9433
▁onions	-9434
▁orders	-9435
▁posted	-9436
▁themes	-9437
Specific	-9438
curement	-9439
hydrated	-9440
reements	-9441
ucturing	-9442
▁Bristol	-9443
▁Consult	-9444
▁Improve	-9445
▁capable	-9446
▁carrots	-9447
▁concise	-9448
▁expense	-9449
▁flavors	-9450
▁housing	-9451
▁invited	-9452
▁massive	-9453
▁opinion	-9454
▁opposed	-9455
▁seminar	-9456
▁sourced	-9457
▁surpris	-9458
FORMATION	-9459
armalades	-9460
▁(380-44)	-9461
▁995-1773	-9462
▁APPENDIX	-9463
▁Exchange	-9464
▁Material	-9465
▁anything	-9466
▁bachelor	-9467
▁branches	-9468
▁enhanced	-9469
▁genetics	-9470
▁proteins	-9471
▁totaling	-9472
▁wellness	-9473
Government	-9474
▁Evolution	-9475
▁PACKAGING	-9476
▁Scientist	-9477
▁Slaughter	-9478
▁Strategis	-9479
▁Structure	-9480
▁fortified	-9481
▁mountains	-9482
▁accessible	-9483
▁appreciate	-9484
▁assessment	-9485
▁biological	-9486
▁compulsory	-9487
▁instrument	-9488
▁originally	-9489
▁productive	-9490
▁structures	-9491
▁sweeteners	-9492
▁Convenience	-9493
▁contributes	-9494
▁declaration	-9495
▁legislative	-9496
▁realization	-9497
▁BIBLIOGRAPHY	-9498
▁PARTICIPANTS	-9499
▁photographic	-9500
▁contamination	-9501
▁communications	-9502
▁sustainability	-9503
$4	-9504
36	-9505
78	-9506
CS	-9507
GA	-9508
Ge	-9509
HC	-9510
OW	-9511
UK	-9512
ba	-9513
bl	-9514
gl	-9515
mm	-9516
"")	-9517
-38	-9518
-65	-9519
-66	-9520
2.9	-9521
Dom	-9522
FIC	-9523
Ins	-9524
Lab	-9525
alo	-9526
atn	-9527
auc	-9528
cha	-9529
fit	-9530
run	-9531
zed	-9532
▁AM	-9533
▁AT	-9534
▁ES	-9535
▁HR	-9536
▁QU	-9537
-22,	-9538
ACCP	-9539
OSUR	-9540
Only	-9541
Russ	-9542
anda	-9543
comb	-9544
elag	-9545
enda	-9546
ethe	-9547
etic	-9548
geos	-9549
heet	-9550
iler	-9551
kins	-9552
odka	-9553
ourt	-9554
ship	-9555
star	-9556
vity	-9557
▁$1,	-9558
▁$12	-9559
▁0.4	-9560
▁140	-9561
▁175	-9562
▁210	-9563
▁22,	-9564
▁27%	-9565
▁29%	-9566
▁700	-9567
▁CCD	-9568
▁Def	-9569
▁His	-9570
▁Ken	-9571
▁MAR	-9572
▁Mag	-9573
▁Max	-9574
▁Mix	-9575
▁Pig	-9576
▁SAF	-9577
▁Sat	-9578
▁Ser	-9579
▁Zip	-9580
▁fit	-9581
▁job	-9582
▁mot	-9583
▁won	-9584
Dairy	-9585
MMARY	-9586
anger	-9587
anmar	-9588
drink	-9589
esity	-9590
fruit	-9591
immed	-9592
irits	-9593
osion	-9594
table	-9595
ulses	-9596
umpur	-9597
▁1988	-9598
▁Aldi	-9599
▁Amer	-9600
▁CHAR	-9601
▁Conc	-9602
▁Doll	-9603
▁Fast	-9604
▁Jose	-9605
▁Page	-9606
▁Pear	-9607
▁Vigo	-9608
▁aged	-9609
▁bean	-9610
▁chol	-9611
▁conj	-9612
▁cruc	-9613
▁matt	-9614
▁miss	-9615
▁orch	-9616
▁rock	-9617
▁shap	-9618
▁stic	-9619
▁stir	-9620
▁synt	-9621
▁task	-9622
ATIONS	-9623
Americ	-9624
Demand	-9625
Growth	-9626
askett	-9627
eldorf	-9628
usband	-9629
▁1994,	-9630
▁2010.	-9631
▁Among	-9632
▁Camel	-9633
▁Chant	-9634
▁Entry	-9635
▁Grain	-9636
▁Juice	-9637
▁Level	-9638
▁Louis	-9639
▁Milky	-9640
▁Nuevo	-9641
▁Pizza	-9642
▁Salad	-9643
▁agree	-9644
▁blend	-9645
▁cakes	-9646
▁clust	-9647
▁diced	-9648
▁draft	-9649
▁horse	-9650
▁learn	-9651
▁liter	-9652
▁meant	-9653
▁packs	-9654
▁sides	-9655
OSITION	-9656
ardines	-9657
arkling	-9658
biotech	-9659
etizers	-9660
ishable	-9661
ocratic	-9662
ogether	-9663
riendly	-9664
science	-9665
ushroom	-9666
▁Boston	-9667
▁Buyers	-9668
▁Canola	-9669
▁Cereal	-9670
▁Choice	-9671
▁Marine	-9672
▁Master	-9673
▁Powder	-9674
▁Recent	-9675
▁Shrimp	-9676
▁Smoked	-9677
▁Snacks	-9678
▁Taipei	-9679
▁Weekly	-9680
▁coarse	-9681
▁finely	-9682
▁inland	-9683
▁landed	-9684
▁microb	-9685
▁pieces	-9686
▁things	-9687
▁upward	-9688
▁varied	-9689
Minister	-9690
Recently	-9691
ablished	-9692
ediately	-9693
original	-9694
▁(58212)	-9695
▁COUNTRY	-9696
▁Fillets	-9697
▁borders	-9698
▁discrep	-9699
▁distinc	-9700
▁gateway	-9701
▁notably	-9702
▁promise	-9703
▁receipt	-9704
▁savoury	-9705
▁targets	-9706
▁weights	-9707
iological	-9708
▁Estimate	-9709
▁MERCOSUR	-9710
▁Oilseeds	-9711
▁choosing	-9712
▁concepts	-9713
▁detected	-9714
▁enforced	-9715
▁excluded	-9716
▁regarded	-9717
▁slowdown	-9718
▁Symposium	-9719
▁Wholesale	-9720
▁addresses	-9721
▁committee	-9722
▁diversify	-9723
▁performed	-9724
▁principle	-9725
▁recession	-9726
▁uncertain	-9727
Application	-9728
▁Agreements	-9729
▁Enterprise	-9730
▁MANUFACTUR	-9731
▁biologique	-9732
▁difficulty	-9733
▁excellence	-9734
▁nutritious	-9735
▁profitable	-9736
▁resolution	-9737
▁specialist	-9738
▁substitute	-9739
▁transgenic	-9740
▁tremendous	-9741
▁undertaken	-9742
▁Territories	-9743
▁acquisition	-9744
▁hypermarket	-9745
▁innovations	-9746
▁interactive	-9747
▁obligations	-9748
▁slaughtered	-9749
▁transferred	-9750
▁economically	-9751
▁expectations	-9752
▁laboratories	-9753
▁temperatures	-9754
▁entrepreneurs	-9755
▁presentations	-9756
▁liberalization	-9757
3.	-9758
79	-9759
El	-9760
IV	-9761
TD	-9762
cn	-9763
qc	-9764
vy	-9765
-04	-9766
-24	-9767
-26	-9768
-99	-9769
.58	-9770
121	-9771
ACE	-9772
ANY	-9773
Bio	-9774
EST	-9775
ILE	-9776
Leb	-9777
NSO	-9778
Non	-9779
Que	-9780
aca	-9781
fed	-9782
ima	-9783
imb	-9784
inf	-9785
iox	-9786
mac	-9787
oin	-9788
tra	-9789
ups	-9790
▁(€	-9791
▁ME	-9792
▁NB	-9793
▁Ok	-9794
ALUE	-9795
ENER	-9796
Each	-9797
aire	-9798
elve	-9799
fies	-9800
ilot	-9801
know	-9802
olly	-9803
ownt	-9804
sley	-9805
uala	-9806
▁(33	-9807
▁2.4	-9808
▁24%	-9809
▁3.9	-9810
▁Ant	-9811
▁Bur	-9812
▁CEO	-9813
▁Cut	-9814
▁Cyp	-9815
▁Day	-9816
▁Hav	-9817
▁Lid	-9818
▁Maj	-9819
▁Nut	-9820
▁Ped	-9821
▁STA	-9822
▁rum	-9823
▁sav	-9824
NAFTA	-9825
berta	-9826
ceans	-9827
comes	-9828
entry	-9829
essen	-9830
inner	-9831
owing	-9832
rinos	-9833
state	-9834
ticul	-9835
unich	-9836
which	-9837
▁(81)	-9838
▁1976	-9839
▁2009	-9840
▁Bond	-9841
▁Cort	-9842
▁Cosm	-9843
▁FROM	-9844
▁José	-9845
▁León	-9846
▁OECD	-9847
▁Vice	-9848
▁acts	-9849
▁bags	-9850
▁card	-9851
▁chec	-9852
▁core	-9853
▁hope	-9854
▁hunt	-9855
▁surv	-9856
▁town	-9857
MARKET	-9858
Norway	-9859
igible	-9860
ilière	-9861
lantic	-9862
regist	-9863
umbers	-9864
▁(519)	-9865
▁1990,	-9866
▁228-6	-9867
▁3,000	-9868
▁4,000	-9869
▁5,000	-9870
▁Candy	-9871
▁Flour	-9872
▁Gener	-9873
▁Knorr	-9874
▁Kraft	-9875
▁OTHER	-9876
▁Smith	-9877
▁Surin	-9878
▁VALUE	-9879
▁Video	-9880
▁array	-9881
▁bacon	-9882
▁calls	-9883
▁cited	-9884
▁downt	-9885
▁floor	-9886
▁hopes	-9887
▁spite	-9888
▁trail	-9889
▁twice	-9890
Million	-9891
ackerel	-9892
biotics	-9893
etitive	-9894
indanao	-9895
ingredi	-9896
rinking	-9897
▁Butter	-9898
▁Grains	-9899
▁Guinea	-9900
▁Identi	-9901
▁Jewish	-9902
▁Labour	-9903
▁Laredo	-9904
▁Miguel	-9905
▁Postal	-9906
▁Proper	-9907
▁Second	-9908
▁Yellow	-9909
▁answer	-9910
▁arrive	-9911
▁assume	-9912
▁begins	-9913
▁cancer	-9914
▁cheque	-9915
▁landsc	-9916
▁lesser	-9917
▁liters	-9918
▁narrow	-9919
▁recomb	-9920
▁salads	-9921
▁solely	-9922
▁stream	-9923
▁sugars	-9924
▁unable	-9925
▁viable	-9926
Imported	-9927
Regional	-9928
etheless	-9929
izations	-9930
mbassies	-9931
▁Belgian	-9932
▁Camelot	-9933
▁Chicago	-9934
▁College	-9935
▁Concent	-9936
▁Contain	-9937
▁Florida	-9938
▁Growers	-9939
▁Iranian	-9940
▁Mineral	-9941
▁Station	-9942
▁actions	-9943
▁centers	-9944
▁crucial	-9945
▁devoted	-9946
▁expects	-9947
▁failure	-9948
▁feeding	-9949
▁intends	-9950
▁manager	-9951
▁matters	-9952
▁notable	-9953
▁observe	-9954
▁organis	-9955
▁parsley	-9956
▁perhaps	-9957
▁placing	-9958
▁prosper	-9959
▁reality	-9960
▁reliant	-9961
▁removed	-9962
▁sharing	-9963
▁transit	-9964
ashington	-9965
conscious	-9966
economist	-9967
▁225-2342	-9968
▁Activity	-9969
▁Cambodia	-9970
▁Egyptian	-9971
▁Potatoes	-9972
▁covering	-9973
▁distingu	-9974
▁flaxseed	-9975
▁maximize	-9976
▁multiple	-9977
▁parallel	-9978
▁premises	-9979
▁receives	-9980
▁sausages	-9981
▁sequence	-9982
▁servings	-9983
▁shifting	-9984
Production	-9985
▁Facsimile	-9986
▁Framework	-9987
▁Inflation	-9988
▁Specialty	-9989
▁Starbucks	-9990
▁construct	-9991
▁cranberry	-9992
▁exclusive	-9993
▁functions	-9994
▁interpret	-9995
▁inventory	-9996
▁investing	-9997
▁languages	-9998
▁preparing	-9999
▁requiring	-10000
▁strongest	-10001
▁targeting	-10002
orticulture	-10003
▁aggressive	-10004
▁collection	-10005
▁comprising	-10006
▁consulting	-10007
▁directions	-10008
▁directives	-10009
▁franchises	-10010
▁guarantees	-10011
▁immigrants	-10012
▁indicating	-10013
▁nationwide	-10014
▁reflecting	-10015
▁remarkable	-10016
▁strawberry	-10017
▁transparen	-10018
▁COMPOSITION	-10019
▁concentrate	-10020
▁conjunction	-10021
▁consecutive	-10022
▁educational	-10023
▁immediately	-10024
▁indications	-10025
▁involvement	-10026
▁observation	-10027
▁supervision	-10028
▁warehousing	-10029
Opportunities	-10030
▁concentrates	-10031
▁continuously	-10032
▁participated	-10033
▁approximation	-10034
▁differentiate	-10035
▁restructuring	-10036
▁industrialized	-10037
**	-10038
3%	-10039
58	-10040
7.	-10041
LA	-10042
OG	-10043
OU	-10044
Sc	-10045
Sm	-10046
bi	-10047
fK	-10048
hl	-10049
ml	-10050
my	-10051
"""	-10052
-44	-10053
.).	-10054
125	-10055
ARD	-10056
ASA	-10057
ATO	-10058
Bel	-10059
ECU	-10060
Fax	-10061
MIN	-10062
Med	-10063
Str	-10064
ccc	-10065
eur	-10066
iji	-10067
ius	-10068
jin	-10069
lac	-10070
nes	-10071
nia	-10072
ogh	-10073
oya	-10074
rye	-10075
tte	-10076
tti	-10077
uda	-10078
web	-10079
▁-0	-10080
▁09	-10081
▁4)	-10082
▁AD	-10083
▁Az	-10084
▁BE	-10085
▁BU	-10086
▁CI	-10087
▁Cô	-10088
▁Er	-10089
▁IB	-10090
▁IV	-10091
▁Op	-10092
▁PE	-10093
▁iv	-10094
Cost	-10095
Like	-10096
Merc	-10097
Much	-10098
News	-10099
Pres	-10100
That	-10101
aces	-10102
anal	-10103
aval	-10104
cium	-10105
egro	-10106
hard	-10107
ifer	-10108
itch	-10109
laim	-10110
omer	-10111
ools	-10112
quin	-10113
rary	-10114
ston	-10115
well	-10116
▁$50	-10117
▁0.5	-10118
▁020	-10119
▁070	-10120
▁2.7	-10121
▁2.9	-10122
▁230	-10123
▁3.6	-10124
▁4.8	-10125
▁5.2	-10126
▁6.1	-10127
▁622	-10128
▁636	-10129
▁673	-10130
▁96/	-10131
▁Age	-10132
▁DES	-10133
▁Gem	-10134
▁ISO	-10135
▁Mak	-10136
▁Mer	-10137
▁Mos	-10138
▁NSO	-10139
▁OCE	-10140
▁Rac	-10141
▁Sab	-10142
▁São	-10143
▁Tec	-10144
▁cas	-10145
▁cig	-10146
▁err	-10147
▁har	-10148
▁las	-10149
UBLIC	-10150
agnon	-10151
atter	-10152
iesel	-10153
itage	-10154
itely	-10155
level	-10156
ticed	-10157
ubble	-10158
▁1)."	-10159
▁1100	-10160
▁4.5%	-10161
▁AFMA	-10162
▁Cuts	-10163
▁Hall	-10164
▁Hill	-10165
▁Insp	-10166
▁Mass	-10167
▁Mong	-10168
▁Phys	-10169
▁Risk	-10170
▁That	-10171
▁Wood	-10172
▁diox	-10173
▁fran	-10174
▁garn	-10175
▁happ	-10176
▁isol	-10177
▁oats	-10178
▁save	-10179
▁tart	-10180
▁wave	-10181
Sweets	-10182
idents	-10183
insula	-10184
making	-10185
people	-10186
stuffs	-10187
▁Award	-10188
▁Check	-10189
▁Georg	-10190
▁Joint	-10191
▁Kuala	-10192
▁Pulse	-10193
▁Ready	-10194
▁Rican	-10195
▁Store	-10196
▁aging	-10197
▁alter	-10198
▁annum	-10199
▁chees	-10200
▁crush	-10201
▁execu	-10202
▁fight	-10203
▁fixed	-10204
▁mouth	-10205
▁newsp	-10206
▁pursu	-10207
▁roads	-10208
▁ships	-10209
▁thick	-10210
▁trees	-10211
▁trout	-10212
▁venue	-10213
▁wants	-10214
ECUTIVE	-10215
Special	-10216
embassy	-10217
ervices	-10218
estable	-10219
esterol	-10220
ilitary	-10221
ollabor	-10222
profile	-10223
rightly	-10224
strasse	-10225
western	-10226
▁Agents	-10227
▁Apples	-10228
▁Foodex	-10229
▁Harmon	-10230
▁Lumpur	-10231
▁Newton	-10232
▁Puerto	-10233
▁Select	-10234
▁adding	-10235
▁affili	-10236
▁detect	-10237
▁dozens	-10238
▁exempt	-10239
▁grades	-10240
▁grants	-10241
▁influx	-10242
▁master	-10243
▁occupy	-10244
▁plates	-10245
▁played	-10246
▁slowed	-10247
▁smooth	-10248
▁spirit	-10249
▁stored	-10250
▁summar	-10251
▁sweets	-10252
▁volunt	-10253
American	-10254
acedonia	-10255
formance	-10256
ractions	-10257
▁Alcohol	-10258
▁Britain	-10259
▁Charles	-10260
▁Density	-10261
▁Growing	-10262
▁Journal	-10263
▁Payment	-10264
▁Project	-10265
▁Restric	-10266
▁Richard	-10267
▁SUMMARY	-10268
▁Transit	-10269
▁Vinegar	-10270
▁Visayas	-10271
▁amateur	-10272
▁collect	-10273
▁desired	-10274
▁extreme	-10275
▁finally	-10276
▁grounds	-10277
▁perfect	-10278
▁refined	-10279
▁roasted	-10280
▁running	-10281
▁surpass	-10282
▁traders	-10283
Indonesia	-10284
Processed	-10285
Venezuela	-10286
etiquette	-10287
tilateral	-10288
▁Factbook	-10289
▁Herzberg	-10290
▁Lawrence	-10291
▁PRODUCTS	-10292
▁analysts	-10293
▁announce	-10294
▁averaged	-10295
▁declared	-10296
▁exercise	-10297
▁involves	-10298
▁limiting	-10299
▁magazine	-10300
▁smallest	-10301
Additional	-10302
Population	-10303
sufficient	-10304
▁Education	-10305
▁Prospects	-10306
▁addressed	-10307
▁advertise	-10308
▁certainly	-10309
▁consisted	-10310
▁distances	-10311
▁dominates	-10312
▁eliminate	-10313
▁intensive	-10314
▁microwave	-10315
▁negotiate	-10316
▁pesticide	-10317
▁presently	-10318
▁professor	-10319
▁substance	-10320
agriculture	-10321
▁Copenhagen	-10322
▁Indonesian	-10323
▁certifying	-10324
▁conference	-10325
▁diplomatic	-10326
▁executives	-10327
▁groundfish	-10328
▁newsletter	-10329
▁pharmacies	-10330
▁Genetically	-10331
▁Traditional	-10332
▁measurement	-10333
▁negotiating	-10334
▁potentially	-10335
▁spectroscop	-10336
▁territories	-10337
▁Astrophysics	-10338
▁Commonwealth	-10339
▁Expenditures	-10340
▁destinations	-10341
▁distributing	-10342
▁circumstances	-10343
▁collaborative	-10344
▁Infrastructure	-10345
▁Transportation	-10346
▁microorganisms	-10347
'.	-10348
4.	-10349
9/	-10350
Dr	-10351
ny	-10352
oC	-10353
ür	-10354
▁Є	-10355
-62	-10356
-90	-10357
635	-10358
CAF	-10359
EDI	-10360
Now	-10361
Pol	-10362
USA	-10363
del	-10364
rey	-10365
roy	-10366
ruz	-10367
sem	-10368
she	-10369
▁97	-10370
▁98	-10371
▁AU	-10372
▁Km	-10373
▁Mo	-10374
▁Ob	-10375
▁ic	-10376
▁ox	-10377
Asia	-10378
CIDA	-10379
ENCE	-10380
Fach	-10381
TING	-10382
agan	-10383
agro	-10384
arsh	-10385
asta	-10386
case	-10387
cher	-10388
elly	-10389
esty	-10390
fair	-10391
feed	-10392
ford	-10393
hana	-10394
hews	-10395
igan	-10396
lude	-10397
olve	-10398
omic	-10399
ourg	-10400
roll	-10401
type	-10402
umes	-10403
▁$23	-10404
▁$70	-10405
▁(17	-10406
▁(3)	-10407
▁0.1	-10408
▁17,	-10409
▁39%	-10410
▁Adv	-10411
▁Boy	-10412
▁Cri	-10413
▁GCC	-10414
▁Gen	-10415
▁Los	-10416
▁Lot	-10417
▁Nev	-10418
▁Oly	-10419
▁Pos	-10420
▁SME	-10421
▁Sud	-10422
▁Sug	-10423
▁Why	-10424
▁gel	-10425
▁hum	-10426
▁lie	-10427
▁mer	-10428
-8820	-10429
South	-10430
emned	-10431
epend	-10432
errey	-10433
glish	-10434
habit	-10435
hetic	-10436
kwint	-10437
large	-10438
latin	-10439
letin	-10440
oured	-10441
quota	-10442
uxemb	-10443
venth	-10444
▁13-1	-10445
▁2800	-10446
▁Aqua	-10447
▁Even	-10448
▁Laos	-10449
▁Lidl	-10450
▁Rail	-10451
▁Soft	-10452
▁Tonn	-10453
▁cake	-10454
▁cane	-10455
▁coup	-10456
▁diab	-10457
▁exem	-10458
▁feel	-10459
▁film	-10460
▁frag	-10461
▁harm	-10462
▁lamb	-10463
▁lean	-10464
▁maps	-10465
▁none	-10466
▁rare	-10467
▁rein	-10468
▁skin	-10469
▁stip	-10470
▁suit	-10471
▁wast	-10472
▁whom	-10473
Quebec	-10474
Tariff	-10475
argill	-10476
aviour	-10477
eremon	-10478
etchup	-10479
getown	-10480
ilarly	-10481
inants	-10482
ingent	-10483
mitted	-10484
opular	-10485
person	-10486
weekly	-10487
▁1996,	-10488
▁Angel	-10489
▁Based	-10490
▁Black	-10491
▁Chann	-10492
▁Couns	-10493
▁Creek	-10494
▁Drive	-10495
▁Every	-10496
▁Haiti	-10497
▁INTER	-10498
▁Inuit	-10499
▁OCEAN	-10500
▁Offal	-10501
▁Party	-10502
▁Qatar	-10503
▁Sauce	-10504
▁Spani	-10505
▁Today	-10506
▁Where	-10507
▁bioph	-10508
▁crack	-10509
▁deals	-10510
▁forum	-10511
▁funda	-10512
▁layer	-10513
▁looks	-10514
▁orbit	-10515
▁squid	-10516
▁usage	-10517
ACIONAL	-10518
Aliment	-10519
Private	-10520
changes	-10521
evision	-10522
itorial	-10523
redited	-10524
▁Advant	-10525
▁Centro	-10526
▁Cyprus	-10527
▁Hudson	-10528
▁Martel	-10529
▁Monten	-10530
▁Munich	-10531
▁PUBLIC	-10532
▁Salted	-10533
▁Useful	-10534
▁branch	-10535
▁client	-10536
▁copies	-10537
▁golden	-10538
▁meslin	-10539
▁models	-10540
▁orient	-10541
▁scheme	-10542
▁street	-10543
▁tempor	-10544
▁trucks	-10545
▁vision	-10546
▁weekly	-10547
▁whisky	-10548
Increase	-10549
arration	-10550
national	-10551
unicipal	-10552
▁100,000	-10553
▁AGRICUL	-10554
▁Finance	-10555
▁Further	-10556
▁Nielsen	-10557
▁Percent	-10558
▁Seminar	-10559
▁Several	-10560
▁causing	-10561
▁combine	-10562
▁comment	-10563
▁distant	-10564
▁drought	-10565
▁explore	-10566
▁inhabit	-10567
▁joining	-10568
▁meaning	-10569
▁nucleus	-10570
▁predict	-10571
▁printed	-10572
▁proceed	-10573
▁raising	-10574
▁recipes	-10575
▁shifted	-10576
▁turning	-10577
▁welfare	-10578
▁943-8820	-10579
▁Congress	-10580
▁Mexicana	-10581
▁Mindanao	-10582
▁Property	-10583
▁SERVICES	-10584
▁abundant	-10585
▁balanced	-10586
▁dressing	-10587
▁incurred	-10588
▁informed	-10589
▁officers	-10590
▁pleasant	-10591
▁promoted	-10592
▁quarters	-10593
▁reliance	-10594
▁strictly	-10595
▁withdraw	-10596
especially	-10597
▁Financial	-10598
▁Increased	-10599
▁Spaniards	-10600
▁Technical	-10601
▁corporate	-10602
▁dependant	-10603
▁installed	-10604
▁irrigated	-10605
▁passenger	-10606
▁requested	-10607
▁sprightly	-10608
Competitors	-10609
ypermarkets	-10610
▁Autonomous	-10611
▁Background	-10612
▁attempting	-10613
▁conclusion	-10614
▁connection	-10615
▁eventually	-10616
▁flavouring	-10617
▁indirectly	-10618
▁marmalades	-10619
▁positioned	-10620
▁reflection	-10621
▁statements	-10622
Lebensmittel	-10623
▁Countryside	-10624
▁INFORMATION	-10625
▁Importation	-10626
▁Instruments	-10627
▁consistency	-10628
▁cooperative	-10629
▁establishes	-10630
▁operational	-10631
▁probability	-10632
▁transparent	-10633
▁Organisation	-10634
▁consultation	-10635
▁strengthened	-10636
▁subsequently	-10637
▁transparency	-10638
kwintessential	-10639
▁MANUFACTURING	-10640
▁accreditation	-10641
▁profitability	-10642
▁considerations	-10643
▁multinationals	-10644
./	-10645
BA	-10646
CN	-10647
Cr	-10648
EE	-10649
Kg	-10650
Mc	-10651
gy	-10652
hk	-10653
nz	-10654
vd	-10655
$10	-10656
(2)	-10657
(3)	-10658
-56	-10659
-70	-10660
.15	-10661
.42	-10662
.83	-10663
1.6	-10664
11,	-10665
21/	-10666
72,	-10667
80)	-10668
96/	-10669
ACI	-10670
BSE	-10671
CAR	-10672
CON	-10673
Col	-10674
EMD	-10675
GES	-10676
HER	-10677
ISO	-10678
OMO	-10679
RID	-10680
TRO	-10681
edu	-10682
har	-10683
kok	-10684
lav	-10685
olf	-10686
oma	-10687
orc	-10688
pur	-10689
rot	-10690
rut	-10691
ube	-10692
yer	-10693
▁+3	-10694
▁6.	-10695
▁87	-10696
▁DF	-10697
▁Ke	-10698
▁Ly	-10699
▁Ri	-10700
▁Ru	-10701
▁Ul	-10702
▁ga	-10703
▁ol	-10704
-24,	-10705
2-2)	-10706
Prov	-10707
UVER	-10708
afet	-10709
aghe	-10710
agri	-10711
anka	-10712
ante	-10713
ched	-10714
elle	-10715
esco	-10716
eves	-10717
iers	-10718
inis	-10719
isph	-10720
lict	-10721
link	-10722
olio	-10723
omed	-10724
page	-10725
rick	-10726
such	-10727
tail	-10728
uble	-10729
ucia	-10730
zhou	-10731
▁1,0	-10732
▁113	-10733
▁2-3	-10734
▁2.1	-10735
▁232	-10736
▁236	-10737
▁3.0	-10738
▁3.7	-10739
▁31%	-10740
▁34%	-10741
▁4.3	-10742
▁44%	-10743
▁47%	-10744
▁48%	-10745
▁9.3	-10746
▁9.9	-10747
▁900	-10748
▁ARM	-10749
▁CHF	-10750
▁Dam	-10751
▁Dou	-10752
▁Far	-10753
▁Fat	-10754
▁KGM	-10755
▁Mic	-10756
▁Vol	-10757
▁War	-10758
▁bag	-10759
▁bul	-10760
▁cyc	-10761
▁fix	-10762
▁got	-10763
▁gra	-10764
▁hal	-10765
▁mac	-10766
▁nut	-10767
▁pin	-10768
▁rig	-10769
▁rot	-10770
▁rye	-10771
▁syn	-10772
▁tin	-10773
▁wit	-10774
.7%),	-10775
ACIÓN	-10776
Guide	-10777
arden	-10778
aroni	-10779
aties	-10780
bania	-10781
chang	-10782
garia	-10783
ician	-10784
ifies	-10785
lined	-10786
olute	-10787
orous	-10788
othes	-10789
quate	-10790
verse	-10791
▁$1.3	-10792
▁$250	-10793
▁0.5%	-10794
▁1.5%	-10795
▁1960	-10796
▁1986	-10797
▁Chef	-10798
▁Four	-10799
▁Less	-10800
▁Mond	-10801
▁Much	-10802
▁NSDP	-10803
▁Peas	-10804
▁Phil	-10805
▁Rabb	-10806
▁ages	-10807
▁buff	-10808
▁duly	-10809
▁dust	-10810
▁felt	-10811
▁gram	-10812
▁gums	-10813
▁join	-10814
▁merg	-10815
▁poly	-10816
▁root	-10817
▁runs	-10818
▁wage	-10819
-02/07	-10820
akarta	-10821
assava	-10822
cephal	-10823
esting	-10824
inding	-10825
isible	-10826
jected	-10827
oghurt	-10828
onquin	-10829
thirds	-10830
vinced	-10831
▁(450)	-10832
▁(780)	-10833
▁1991,	-10834
▁1993,	-10835
▁Chair	-10836
▁Court	-10837
▁Drugs	-10838
▁Exper	-10839
▁Guang	-10840
▁Irish	-10841
▁Legis	-10842
▁Serve	-10843
▁TRADE	-10844
▁beets	-10845
▁books	-10846
▁celeb	-10847
▁chlor	-10848
▁dated	-10849
▁fries	-10850
▁grape	-10851
▁intra	-10852
▁outst	-10853
▁pests	-10854
▁pilot	-10855
▁pizza	-10856
▁sauté	-10857
▁signs	-10858
▁trial	-10859
▁usual	-10860
Austria	-10861
Economy	-10862
aghetti	-10863
atching	-10864
atessen	-10865
flowers	-10866
isphere	-10867
lusions	-10868
ultures	-10869
▁(613)7	-10870
▁Barley	-10871
▁Friday	-10872
▁Govern	-10873
▁Hawaii	-10874
▁Histor	-10875
▁Mariti	-10876
▁OPPORT	-10877
▁Pulses	-10878
▁Recomm	-10879
▁Sweets	-10880
▁Urchin	-10881
▁Virgin	-10882
▁acknow	-10883
▁adults	-10884
▁ageing	-10885
▁atmosp	-10886
▁banned	-10887
▁boasts	-10888
▁coated	-10889
▁drying	-10890
▁funded	-10891
▁height	-10892
▁honour	-10893
▁invert	-10894
▁invite	-10895
▁lenses	-10896
▁liable	-10897
▁median	-10898
▁paying	-10899
▁propag	-10900
▁regime	-10901
▁replac	-10902
▁reveal	-10903
Domestic	-10904
manufact	-10905
packaged	-10906
prepared	-10907
▁Animals	-10908
▁COMPANY	-10909
▁Chapter	-10910
▁EXPORTS	-10911
▁Jalisco	-10912
▁Mailing	-10913
▁Majesty	-10914
▁Offices	-10915
▁Overall	-10916
▁Princip	-10917
▁Systems	-10918
▁Tobacco	-10919
▁Vitamin	-10920
▁broiler	-10921
▁ensures	-10922
▁exactly	-10923
▁founded	-10924
▁infants	-10925
▁leaving	-10926
▁profits	-10927
▁spectra	-10928
ropolitan	-10929
ticularly	-10930
▁Communic	-10931
▁Decision	-10932
▁INDUSTRY	-10933
▁Location	-10934
▁NACIONAL	-10935
▁Plaskett	-10936
▁Scottish	-10937
▁Selected	-10938
▁Training	-10939
▁accurate	-10940
▁attended	-10941
▁commerce	-10942
▁demanded	-10943
▁dramatic	-10944
▁emission	-10945
▁enriched	-10946
▁freezing	-10947
▁identity	-10948
▁independ	-10949
▁licensed	-10950
▁lighting	-10951
▁military	-10952
▁restrict	-10953
▁stuffing	-10954
▁thriving	-10955
▁weakness	-10956
ertificate	-10957
industrial	-10958
tification	-10959
▁Algonquin	-10960
▁Establish	-10961
▁Greenland	-10962
▁Monterrey	-10963
▁Practices	-10964
▁Professor	-10965
▁Taiwanese	-10966
▁accessing	-10967
▁achieving	-10968
▁associate	-10969
▁behaviour	-10970
▁catalogue	-10971
▁convinced	-10972
▁decreases	-10973
▁disadvant	-10974
▁emergence	-10975
▁excluding	-10976
▁initially	-10977
▁landscape	-10978
▁meanwhile	-10979
▁naturally	-10980
▁obstacles	-10981
▁offerings	-10982
▁recognize	-10983
▁signature	-10984
▁tradition	-10985
▁Bridgetown	-10986
▁Compliance	-10987
▁Counsellor	-10988
▁Exposition	-10989
▁Montenegro	-10990
▁appearance	-10991
▁enterprise	-10992
▁freshwater	-10993
▁historical	-10994
▁leadership	-10995
▁prosperity	-10996
▁situations	-10997
Additionally	-10998
▁Commodities	-10999
▁Hospitality	-11000
▁Restaurants	-11001
▁arrangement	-11002
▁cholesterol	-11003
▁constructed	-11004
▁prospective	-11005
▁recombinant	-11006
▁replacement	-11007
▁translation	-11008
▁Scandinavian	-11009
▁Technologies	-11010
▁Unemployment	-11011
▁historically	-11012
▁publications	-11013
▁specializing	-11014
▁OPPORTUNITIES	-11015
▁marketability	-11016
▁nutraceutical	-11017
▁refrigeration	-11018
$8	-11019
.-	-11020
BU	-11021
FC	-11022
PE	-11023
SP	-11024
UU	-11025
fu	-11026
lb	-11027
ño	-11028
'."	-11029
-18	-11030
-22	-11031
-36	-11032
-46	-11033
-53	-11034
-77	-11035
1-8	-11036
1.1	-11037
2.2	-11038
333	-11039
40,	-11040
590	-11041
CAP	-11042
Cap	-11043
EAL	-11044
Exp	-11045
Pot	-11046
RIP	-11047
She	-11048
TAR	-11049
Use	-11050
alk	-11051
arf	-11052
col	-11053
ela	-11054
ewe	-11055
ias	-11056
inh	-11057
jik	-11058
ken	-11059
lle	-11060
rag	-11061
sea	-11062
▁4-	-11063
▁7.	-11064
▁9.	-11065
▁BI	-11066
▁DK	-11067
▁Da	-11068
▁JP	-11069
▁Jo	-11070
▁MA	-11071
▁Od	-11072
▁Qc	-11073
▁da	-11074
▁na	-11075
▁oy	-11076
11-1	-11077
ANCO	-11078
East	-11079
Hong	-11080
IBOC	-11081
Prom	-11082
ardo	-11083
arma	-11084
aseo	-11085
aspx	-11086
atit	-11087
aved	-11088
away	-11089
dney	-11090
enna	-11091
enza	-11092
hill	-11093
hire	-11094
idal	-11095
inas	-11096
ione	-11097
life	-11098
ouds	-11099
ribe	-11100
risp	-11101
rons	-11102
tees	-11103
tica	-11104
veys	-11105
zone	-11106
▁$43	-11107
▁%."	-11108
▁36%	-11109
▁5.4	-11110
▁510	-11111
▁725	-11112
▁741	-11113
▁750	-11114
▁9.5	-11115
▁9.7	-11116
▁ASS	-11117
▁Agr	-11118
▁CEN	-11119
▁Gar	-11120
▁Get	-11121
▁GfK	-11122
▁Hen	-11123
▁INC	-11124
▁Lod	-11125
▁McD	-11126
▁Pea	-11127
▁QAB	-11128
▁Ram	-11129
▁Sri	-11130
▁TEL	-11131
▁Ten	-11132
▁ang	-11133
▁cro	-11134
▁hub	-11135
▁jud	-11136
▁mil	-11137
▁neb	-11138
▁rub	-11139
ADRID	-11140
ASEAN	-11141
Asoci	-11142
Halal	-11143
Using	-11144
Value	-11145
acted	-11146
andom	-11147
aples	-11148
asted	-11149
azakh	-11150
eller	-11151
fried	-11152
ifest	-11153
ister	-11154
lying	-11155
oning	-11156
sales	-11157
serve	-11158
stone	-11159
▁"030	-11160
▁$2.6	-11161
▁(33)	-11162
▁15-1	-11163
▁1971	-11164
▁APEC	-11165
▁Bill	-11166
▁Book	-11167
▁Circ	-11168
▁Conn	-11169
▁Dept	-11170
▁Diet	-11171
▁Fats	-11172
▁Font	-11173
▁Item	-11174
▁Must	-11175
▁NATO	-11176
▁Norm	-11177
▁Orch	-11178
▁PROC	-11179
▁Pers	-11180
▁Phot	-11181
▁Rank	-11182
▁Sale	-11183
▁biod	-11184
▁carp	-11185
▁cows	-11186
▁dras	-11187
▁elev	-11188
▁enzy	-11189
▁euro	-11190
▁herd	-11191
▁liqu	-11192
▁mess	-11193
▁mini	-11194
▁stop	-11195
Europe	-11196
Invest	-11197
Please	-11198
Russia	-11199
TIONAL	-11200
Ukrain	-11201
abolic	-11202
elcome	-11203
errest	-11204
inseed	-11205
ormous	-11206
orning	-11207
ritish	-11208
rolled	-11209
tituto	-11210
ucking	-11211
uction	-11212
▁1997.	-11213
▁AQSIQ	-11214
▁Areas	-11215
▁Españ	-11216
▁Hague	-11217
▁Hutch	-11218
▁Lanka	-11219
▁PESCA	-11220
▁Paseo	-11221
▁Prior	-11222
▁Seven	-11223
▁Shell	-11224
▁Whole	-11225
▁anten	-11226
▁blood	-11227
▁chips	-11228
▁crude	-11229
▁doubt	-11230
▁front	-11231
▁giant	-11232
▁incub	-11233
▁ineff	-11234
▁irrad	-11235
▁loans	-11236
▁malls	-11237
▁moves	-11238
▁param	-11239
▁pelag	-11240
▁polar	-11241
▁relax	-11242
▁surge	-11243
▁toler	-11244
▁wages	-11245
Israeli	-11246
america	-11247
ceeding	-11248
ception	-11249
iration	-11250
racting	-11251
sterdam	-11252
▁Assess	-11253
▁Census	-11254
▁Divers	-11255
▁Ethnic	-11256
▁Gemini	-11257
▁Gordon	-11258
▁Hotels	-11259
▁Points	-11260
▁REGION	-11261
▁Reeves	-11262
▁Robins	-11263
▁Serbia	-11264
▁Sydney	-11265
▁aggreg	-11266
▁awards	-11267
▁cosmic	-11268
▁debate	-11269
▁fitted	-11270
▁foster	-11271
▁kidney	-11272
▁minced	-11273
▁modest	-11274
▁optics	-11275
▁photos	-11276
▁plains	-11277
▁preval	-11278
▁relied	-11279
▁skills	-11280
▁symbol	-11281
▁theory	-11282
LICATION	-11283
adequate	-11284
economia	-11285
economic	-11286
ellation	-11287
ongiform	-11288
usbandry	-11289
▁(52-33)	-11290
▁Amerind	-11291
▁Bottled	-11292
▁Capital	-11293
▁Cargill	-11294
▁Complex	-11295
▁Culture	-11296
▁Flavour	-11297
▁Generic	-11298
▁However	-11299
▁Revenue	-11300
▁SUPPORT	-11301
▁Spreads	-11302
▁Through	-11303
▁Tourism	-11304
▁adapted	-11305
▁barrier	-11306
▁carries	-11307
▁cleared	-11308
▁command	-11309
▁express	-11310
▁extends	-11311
▁grading	-11312
▁intense	-11313
▁islands	-11314
▁nothing	-11315
▁obesity	-11316
▁patents	-11317
▁publish	-11318
▁records	-11319
▁removal	-11320
▁sending	-11321
▁shipper	-11322
▁thereby	-11323
Exporters	-11324
azakhstan	-11325
mentation	-11326
standards	-11327
ufficient	-11328
▁Breeding	-11329
▁Bulgaria	-11330
▁Category	-11331
▁Contents	-11332
▁Receiver	-11333
▁SPECIFIC	-11334
▁Scotland	-11335
▁Singapor	-11336
▁Strategy	-11337
▁Suriname	-11338
▁Tunisian	-11339
▁academic	-11340
▁arranged	-11341
▁compiled	-11342
▁cuisines	-11343
▁describe	-11344
▁displays	-11345
▁downturn	-11346
▁enormous	-11347
▁fastfood	-11348
▁feedback	-11349
▁flexible	-11350
▁interfer	-11351
▁moderate	-11352
▁observer	-11353
▁occasion	-11354
▁offshore	-11355
▁organics	-11356
▁profiles	-11357
▁rainfall	-11358
▁reproduc	-11359
▁resident	-11360
▁sandwich	-11361
▁superior	-11362
▁ultimate	-11363
Ministerio	-11364
Regulation	-11365
aceability	-11366
errestrial	-11367
▁ARMADORES	-11368
▁Frequency	-11369
▁Hungarian	-11370
▁Materials	-11371
▁Tradeline	-11372
▁Universal	-11373
▁detection	-11374
▁dominance	-11375
▁enhancing	-11376
▁extending	-11377
▁intermedi	-11378
▁invisible	-11379
▁movements	-11380
▁pineapple	-11381
▁possesses	-11382
▁publicity	-11383
▁reception	-11384
▁recovered	-11385
▁remainder	-11386
▁shrinking	-11387
▁sweetened	-11388
▁synthetic	-11389
▁voluntary	-11390
▁Electronic	-11391
▁Specialist	-11392
▁accredited	-11393
▁complement	-11394
▁constantly	-11395
▁definition	-11396
▁dehydrated	-11397
▁prosperous	-11398
▁reductions	-11399
▁television	-11400
▁ultimately	-11401
▁Cooperative	-11402
▁Nutritional	-11403
▁Promotional	-11404
▁diagnostics	-11405
▁discrepancy	-11406
▁essentially	-11407
▁financially	-11408
▁inhabitants	-11409
▁interviewed	-11410
▁ultraviolet	-11411
▁undertaking	-11412
▁Laboratories	-11413
▁Manufacturer	-11414
▁administered	-11415
▁conservative	-11416
▁consignments	-11417
▁implications	-11418
▁intellectual	-11419
▁jurisdiction	-11420
▁urbanization	-11421
▁verification	-11422
▁Nutraceuticals	-11423
/6	-11424
68	-11425
FR	-11426
HT	-11427
Le	-11428
Me	-11429
SG	-11430
aq	-11431
di	-11432
du	-11433
fc	-11434
ky	-11435
ls	-11436
té	-11437
ín	-11438
▁−	-11439
$1,	-11440
-2,	-11441
-45	-11442
-91	-11443
.40	-11444
11)	-11445
199	-11446
2.5	-11447
4-7	-11448
90,	-11449
Aug	-11450
CCC	-11451
Che	-11452
FDI	-11453
ICA	-11454
INE	-11455
ITC	-11456
Ltd	-11457
NEX	-11458
Off	-11459
PPP	-11460
REM	-11461
Res	-11462
Sol	-11463
TMM	-11464
TMR	-11465
USD	-11466
afe	-11467
auf	-11468
aya	-11469
aze	-11470
buy	-11471
eln	-11472
ema	-11473
ena	-11474
fel	-11475
iop	-11476
kin	-11477
omb	-11478
onz	-11479
pot	-11480
rio	-11481
riz	-11482
sal	-11483
sch	-11484
ume	-11485
üss	-11486
▁"◦	-11487
▁%,	-11488
▁8.	-11489
▁EV	-11490
▁Fu	-11491
▁GR	-11492
▁Ka	-11493
▁Kh	-11494
▁Ko	-11495
▁Pa	-11496
▁av	-11497
▁cf	-11498
▁ep	-11499
48-8	-11500
APAQ	-11501
Belg	-11502
EDER	-11503
Egyp	-11504
RIBU	-11505
Rich	-11506
TAIL	-11507
TICS	-11508
Upon	-11509
acea	-11510
apeu	-11511
asic	-11512
born	-11513
ells	-11514
etes	-11515
gate	-11516
heim	-11517
high	-11518
igal	-11519
ista	-11520
leag	-11521
lean	-11522
odox	-11523
olia	-11524
olis	-11525
perm	-11526
risk	-11527
rous	-11528
soft	-11529
umig	-11530
▁$18	-11531
▁(40	-11532
▁(86	-11533
▁...	-11534
▁0.9	-11535
▁170	-11536
▁227	-11537
▁240	-11538
▁37%	-11539
▁420	-11540
▁562	-11541
▁6.3	-11542
▁Cdn	-11543
▁Cho	-11544
▁DEL	-11545
▁DNA	-11546
▁Den	-11547
▁Dif	-11548
▁Hou	-11549
▁Jim	-11550
▁NEW	-11551
▁Nag	-11552
▁SEC	-11553
▁Seg	-11554
▁Sil	-11555
▁amb	-11556
▁fry	-11557
▁lbs	-11558
▁pal	-11559
▁uni	-11560
▁unt	-11561
-2003	-11562
4-11)	-11563
Aside	-11564
Costa	-11565
First	-11566
India	-11567
March	-11568
OFILE	-11569
Prior	-11570
Sound	-11571
Three	-11572
Tunis	-11573
andro	-11574
apers	-11575
apped	-11576
baked	-11577
canad	-11578
compl	-11579
durum	-11580
elect	-11581
ender	-11582
enior	-11583
folio	-11584
forma	-11585
guide	-11586
iches	-11587
iding	-11588
mical	-11589
opath	-11590
ordan	-11591
price	-11592
uelph	-11593
uests	-11594
uling	-11595
undes	-11596
ushed	-11597
usion	-11598
veget	-11599
vents	-11600
▁(10%	-11601
▁(100	-11602
▁0.9%	-11603
▁1974	-11604
▁1987	-11605
▁6-8,	-11606
▁Bean	-11607
▁Canc	-11608
▁Comb	-11609
▁Hard	-11610
▁Long	-11611
▁Luis	-11612
▁Oper	-11613
▁Palm	-11614
▁Real	-11615
▁Soya	-11616
▁bone	-11617
▁cher	-11618
▁dial	-11619
▁ille	-11620
▁imag	-11621
▁peso	-11622
▁rasp	-11623
▁told	-11624
▁turb	-11625
▁warn	-11626
August	-11627
Histor	-11628
ambers	-11629
aneous	-11630
ashion	-11631
common	-11632
eanuts	-11633
esters	-11634
invest	-11635
monton	-11636
planet	-11637
search	-11638
titled	-11639
▁1992,	-11640
▁2003"	-11641
▁2006)	-11642
▁2010,	-11643
▁604-6	-11644
▁Cakes	-11645
▁Count	-11646
▁GENER	-11647
▁Jiang	-11648
▁Nepal	-11649
▁Plaza	-11650
▁REGUL	-11651
▁Times	-11652
▁Using	-11653
▁atoms	-11654
▁board	-11655
▁cfiam	-11656
▁clams	-11657
▁conse	-11658
▁death	-11659
▁delic	-11660
▁falls	-11661
▁grade	-11662
▁hired	-11663
▁liver	-11664
▁mango	-11665
▁mixes	-11666
▁motiv	-11667
▁norms	-11668
▁penal	-11669
▁piece	-11670
▁posts	-11671
▁river	-11672
▁sixth	-11673
▁tight	-11674
▁weigh	-11675
English	-11676
Leading	-11677
Profile	-11678
Several	-11679
amadrid	-11680
eremony	-11681
factory	-11682
istence	-11683
product	-11684
tenance	-11685
tituted	-11686
▁636-33	-11687
▁Altern	-11688
▁Applic	-11689
▁Arabic	-11690
▁Energy	-11691
▁Ground	-11692
▁Havana	-11693
▁Higher	-11694
▁Howard	-11695
▁Johann	-11696
▁Labels	-11697
▁Mother	-11698
▁Search	-11699
▁Single	-11700
▁Summer	-11701
▁adhere	-11702
▁center	-11703
▁cigare	-11704
▁cooper	-11705
▁couple	-11706
▁entity	-11707
▁explan	-11708
▁hardly	-11709
▁looked	-11710
▁mature	-11711
▁oldest	-11712
▁organs	-11713
▁pickle	-11714
▁poster	-11715
▁preced	-11716
▁presti	-11717
▁proved	-11718
▁random	-11719
▁retire	-11720
▁school	-11721
▁seeing	-11722
▁sodium	-11723
▁spoken	-11724
▁starch	-11725
▁suffer	-11726
▁timely	-11727
ANCOUVER	-11728
Atlantic	-11729
ranberry	-11730
▁(49-30)	-11731
▁(54-11)	-11732
▁(972-4)	-11733
▁Alaskan	-11734
▁Attache	-11735
▁Brokers	-11736
▁Cookies	-11737
▁Factors	-11738
▁Filière	-11739
▁Fishing	-11740
▁INSTRUC	-11741
▁Jakarta	-11742
▁Meeting	-11743
▁Members	-11744
▁Muslims	-11745
▁PRIVATE	-11746
▁Produce	-11747
▁absence	-11748
▁answers	-11749
▁bearing	-11750
▁calcium	-11751
▁carrier	-11752
▁cheeses	-11753
▁classes	-11754
▁compens	-11755
▁destroy	-11756
▁edition	-11757
▁elected	-11758
▁emerged	-11759
▁enables	-11760
▁examine	-11761
▁exceeds	-11762
▁exposed	-11763
▁fuelled	-11764
▁jointly	-11765
▁keeping	-11766
▁mirrors	-11767
▁nuclear	-11768
▁outlook	-11769
▁reduces	-11770
▁schools	-11771
▁underst	-11772
▁updated	-11773
▁vaccine	-11774
▁witness	-11775
Companies	-11776
entimetre	-11777
uxembourg	-11778
üsseldorf	-11779
▁Currency	-11780
▁Database	-11781
▁Edmonton	-11782
▁Festival	-11783
▁Partners	-11784
▁Transfer	-11785
▁anywhere	-11786
▁cultures	-11787
▁downward	-11788
▁exciting	-11789
▁forestry	-11790
▁guidance	-11791
▁managers	-11792
▁marinade	-11793
▁planting	-11794
▁prompted	-11795
▁properly	-11796
▁refriger	-11797
▁shallots	-11798
▁situated	-11799
▁speaking	-11800
▁surveyed	-11801
Philippine	-11802
▁Christmas	-11803
▁Commodity	-11804
▁Currently	-11805
▁Economics	-11806
▁Following	-11807
▁Inspector	-11808
▁Macedonia	-11809
▁Narration	-11810
▁Political	-11811
▁Suggested	-11812
▁astrophys	-11813
▁averaging	-11814
▁chickpeas	-11815
▁colouring	-11816
▁concluded	-11817
▁connected	-11818
▁describes	-11819
▁evolution	-11820
▁incentive	-11821
▁inspected	-11822
▁intention	-11823
▁migration	-11824
▁municipal	-11825
▁notarized	-11826
▁programme	-11827
hentication	-11828
ingredients	-11829
▁(011-84-4)	-11830
▁(613)759-7	-11831
▁Aboriginal	-11832
▁Democratic	-11833
▁Harmonized	-11834
▁Initiative	-11835
▁Lithuanian	-11836
▁Researcher	-11837
▁Roundtable	-11838
▁cfiamaster	-11839
▁everything	-11840
▁exportable	-11841
▁forwarding	-11842
▁highlights	-11843
▁impossible	-11844
▁priorities	-11845
▁resistance	-11846
▁wavelength	-11847
distributors	-11848
▁AGRICULTURE	-11849
▁Alimentaria	-11850
▁Legislation	-11851
▁Significant	-11852
▁Wholesalers	-11853
▁continually	-11854
▁facilitates	-11855
▁preliminary	-11856
▁transported	-11857
▁utilization	-11858
▁INSTRUCTIONS	-11859
▁Restrictions	-11860
▁accompanying	-11861
▁intelligence	-11862
▁Observatories	-11863
▁PARTICIPATION	-11864
▁confectionary	-11865
▁organisations	-11866
▁supplementary	-11867
▁Administrative	-11868
▁transformation	-11869
/"	-11870
5.	-11871
Bl	-11872
CL	-11873
DS	-11874
UM	-11875
].	-11876
bn	-11877
fe	-11878
iu	-11879
wa	-11880
yy	-11881
$13	-11882
-49	-11883
-9,	-11884
.01	-11885
.48	-11886
.80	-11887
00)	-11888
1.5	-11889
250	-11890
4.7	-11891
410	-11892
690	-11893
9.9	-11894
ALL	-11895
Est	-11896
FAO	-11897
FDA	-11898
Her	-11899
ICE	-11900
IGN	-11901
Inf	-11902
LAC	-11903
MER	-11904
Mal	-11905
Syl	-11906
aym	-11907
but	-11908
eda	-11909
ito	-11910
low	-11911
mec	-11912
oco	-11913
ois	-11914
oly	-11915
raq	-11916
tre	-11917
▁#0	-11918
▁Ap	-11919
▁NW	-11920
▁Si	-11921
▁bn	-11922
▁nd	-11923
-246	-11924
/197	-11925
Bang	-11926
Cuba	-11927
ENEZ	-11928
Home	-11929
June	-11930
Lean	-11931
OTEC	-11932
OUTH	-11933
Supp	-11934
acas	-11935
arie	-11936
bian	-11937
cfea	-11938
chen	-11939
conf	-11940
cook	-11941
crop	-11942
educ	-11943
erme	-11944
etts	-11945
govt	-11946
hema	-11947
irty	-11948
itim	-11949
jiko	-11950
merc	-11951
ogue	-11952
oriz	-11953
osme	-11954
ront	-11955
that	-11956
ttes	-11957
ucky	-11958
ulas	-11959
uros	-11960
ygen	-11961
▁$63	-11962
▁+49	-11963
▁10.	-11964
▁101	-11965
▁172	-11966
▁21,	-11967
▁234	-11968
▁239	-11969
▁32%	-11970
▁35,	-11971
▁424	-11972
▁430	-11973
▁5.3	-11974
▁561	-11975
▁73/	-11976
▁8.2	-11977
▁9.4	-11978
▁BRL	-11979
▁Cab	-11980
▁FTA	-11981
▁IDD	-11982
▁Inv	-11983
▁Nat	-11984
▁Own	-11985
▁Pas	-11986
▁Pub	-11987
▁Raw	-11988
▁WEB	-11989
▁cin	-11990
▁cub	-11991
▁ham	-11992
▁sil	-11993
▁ter	-11994
/2004	-11995
23-32	-11996
8,000	-11997
Dutch	-11998
Estim	-11999
Exhib	-12000
Fruit	-12001
Prosp	-12002
Their	-12003
Veget	-12004
dered	-12005
eared	-12006
ectic	-12007
eless	-12008
ented	-12009
erias	-12010
erman	-12011
eters	-12012
ffees	-12013
first	-12014
ilton	-12015
ipron	-12016
japan	-12017
orter	-12018
orthy	-12019
osite	-12020
regon	-12021
third	-12022
urger	-12023
uters	-12024
uting	-12025
vests	-12026
voire	-12027
▁+380	-12028
▁1950	-12029
▁1973	-12030
▁1983	-12031
▁4.6%	-12032
▁5.5%	-12033
▁5000	-12034
▁AGRE	-12035
▁Alex	-12036
▁Dest	-12037
▁Full	-12038
▁Gold	-12039
▁Iraq	-12040
▁Kent	-12041
▁Know	-12042
▁MARK	-12043
▁Miss	-12044
▁Mosc	-12045
▁Next	-12046
▁Nuts	-12047
▁Pest	-12048
▁Plus	-12049
▁Spec	-12050
▁Stir	-12051
▁Vent	-12052
▁Zone	-12053
▁acre	-12054
▁aids	-12055
▁canc	-12056
▁dens	-12057
▁dogs	-12058
▁evid	-12059
▁gone	-12060
▁hole	-12061
▁lose	-12062
▁peel	-12063
▁pose	-12064
▁puri	-12065
▁rule	-12066
▁soci	-12067
▁ting	-12068
▁veal	-12069
▁vill	-12070
▁wait	-12071
/20050	-12072
Unlike	-12073
ansour	-12074
arents	-12075
direct	-12076
except	-12077
iscell	-12078
jandro	-12079
letion	-12080
oterms	-12081
packed	-12082
rading	-12083
roatia	-12084
uidora	-12085
▁(2006	-12086
▁(800)	-12087
▁2,500	-12088
▁944-6	-12089
▁Durum	-12090
▁Eight	-12091
▁Human	-12092
▁Integ	-12093
▁Kitts	-12094
▁Laval	-12095
▁Meats	-12096
▁Niger	-12097
▁Press	-12098
▁Prime	-12099
▁Print	-12100
▁Right	-12101
▁Santa	-12102
▁Sound	-12103
▁Wales	-12104
▁Wareh	-12105
▁Young	-12106
▁aster	-12107
▁atlas	-12108
▁beers	-12109
▁chief	-12110
▁couns	-12111
▁delay	-12112
▁doors	-12113
▁earth	-12114
▁email	-12115
▁flows	-12116
▁homes	-12117
▁leave	-12118
▁lique	-12119
▁lunch	-12120
▁metal	-12121
▁pages	-12122
▁panel	-12123
▁peace	-12124
▁sheet	-12125
▁stret	-12126
▁thing	-12127
Average	-12128
ISTRIBU	-12129
PRIVATE	-12130
Richard	-12131
allions	-12132
compass	-12133
rainage	-12134
undable	-12135
▁Compar	-12136
▁Danube	-12137
▁Except	-12138
▁Franch	-12139
▁INTERN	-12140
▁Nation	-12141
▁advers	-12142
▁attain	-12143
▁chance	-12144
▁comets	-12145
▁counts	-12146
▁estate	-12147
▁farmer	-12148
▁guests	-12149
▁holder	-12150
▁integr	-12151
▁oxygen	-12152
▁poised	-12153
▁pursue	-12154
▁rivers	-12155
▁slices	-12156
▁slower	-12157
▁sought	-12158
▁sports	-12159
▁tested	-12160
▁twelve	-12161
▁wholly	-12162
Mercosur	-12163
November	-12164
ederally	-12165
edimento	-12166
ificance	-12167
titative	-12168
weetened	-12169
▁200,000	-12170
▁ASSOCIA	-12171
▁Albania	-12172
▁Bangkok	-12173
▁Biotech	-12174
▁Certain	-12175
▁Colombo	-12176
▁Myanmar	-12177
▁PROFILE	-12178
▁Regions	-12179
▁Spirits	-12180
▁Stephan	-12181
▁biscuit	-12182
▁cassava	-12183
▁creates	-12184
▁cutting	-12185
▁dioxide	-12186
▁encount	-12187
▁enlarge	-12188
▁flowers	-12189
▁highway	-12190
▁himself	-12191
▁journal	-12192
▁loyalty	-12193
▁optical	-12194
▁peanuts	-12195
▁purchas	-12196
▁sensiti	-12197
▁session	-12198
▁staples	-12199
▁stopped	-12200
▁swilson	-12201
▁wanting	-12202
▁yoghurt	-12203
Following	-12204
Marketing	-12205
Similarly	-12206
▁Channels	-12207
▁Heritage	-12208
▁Matthews	-12209
▁Medicine	-12210
▁Michigan	-12211
▁Richmond	-12212
▁Sanitary	-12213
▁Security	-12214
▁absorbed	-12215
▁accessed	-12216
▁alliance	-12217
▁assigned	-12218
▁attempts	-12219
▁clusters	-12220
▁consumes	-12221
▁declines	-12222
▁develops	-12223
▁earnings	-12224
▁entities	-12225
▁entitled	-12226
▁evaluate	-12227
▁everyday	-12228
▁focussed	-12229
▁governed	-12230
▁highways	-12231
▁hormones	-12232
▁informal	-12233
▁integral	-12234
▁internet	-12235
▁likewise	-12236
▁magnetic	-12237
▁marginal	-12238
▁possibly	-12239
▁rational	-12240
▁sardines	-12241
▁seedling	-12242
▁severely	-12243
▁vaccines	-12244
Provincial	-12245
ectiveness	-12246
ordination	-12247
permission	-12248
processors	-12249
▁Amsterdam	-12250
▁Clearance	-12251
▁Direction	-12252
▁EXECUTIVE	-12253
▁Fractions	-12254
▁Frederick	-12255
▁Hutchings	-12256
▁IMPORTANT	-12257
▁Insurance	-12258
▁ProSweets	-12259
▁Productos	-12260
▁Reporting	-12261
▁Suppliers	-12262
▁amounting	-12263
▁attendees	-12264
▁attitudes	-12265
▁benefited	-12266
▁emergency	-12267
▁encompass	-12268
▁exchanges	-12269
▁formation	-12270
▁fostering	-12271
▁mechanism	-12272
▁portfolio	-12273
▁selecting	-12274
▁strategis	-12275
▁stringent	-12276
Consumption	-12277
certificate	-12278
established	-12279
▁Developing	-12280
▁Düsseldorf	-12281
▁Individual	-12282
▁Kazakhstan	-12283
▁Processors	-12284
▁capability	-12285
▁carbonated	-12286
▁controvers	-12287
▁expectancy	-12288
▁fluctuated	-12289
▁interviews	-12290
▁networking	-12291
▁officially	-12292
▁promotions	-12293
▁provenance	-12294
▁reportedly	-12295
Consequently	-12296
orticultural	-12297
▁Distributor	-12298
▁Independent	-12299
▁Initiatives	-12300
▁Performance	-12301
▁credibility	-12302
▁distinguish	-12303
▁formulation	-12304
▁fundamental	-12305
▁maintenance	-12306
▁specialists	-12307
▁substitutes	-12308
▁commercially	-12309
▁corporations	-12310
▁headquarters	-12311
▁independence	-12312
▁insufficient	-12313
▁satisfactory	-12314
▁significance	-12315
▁spectroscopy	-12316
▁Environmental	-12317
▁carbohydrates	-12318
▁Competitiveness	-12319
▁recommendations	-12320
$7	-12321
/-	-12322
1_	-12323
2-	-12324
3/	-12325
31	-12326
=1	-12327
Cl	-12328
DO	-12329
EV	-12330
FI	-12331
Ni	-12332
Qu	-12333
SB	-12334
cb	-12335
jo	-12336
ko	-12337
ln	-12338
sy	-12339
ui	-12340
ío	-12341
▁⇒	-12342
-11	-12343
-39	-12344
-43	-12345
.0*	-12346
.17	-12347
191	-12348
2.4	-12349
22,	-12350
5%)	-12351
524	-12352
713	-12353
92/	-12354
APP	-12355
Ass	-12356
BRL	-12357
Buy	-12358
COM	-12359
FER	-12360
ISS	-12361
Imp	-12362
Oct	-12363
PMG	-12364
Pan	-12365
Pre	-12366
See	-12367
VES	-12368
add	-12369
aga	-12370
ano	-12371
avy	-12372
cid	-12373
ebu	-12374
ecd	-12375
een	-12376
eto	-12377
geo	-12378
iev	-12379
izz	-12380
mun	-12381
obo	-12382
oda	-12383
ouv	-12384
rez	-12385
▁--	-12386
▁1-	-12387
▁5)	-12388
▁CY	-12389
▁Ci	-12390
▁Fo	-12391
▁Kr	-12392
▁OB	-12393
▁Om	-12394
▁Pi	-12395
▁Rh	-12396
▁TI	-12397
▁au	-12398
-13,	-12399
-190	-12400
-244	-12401
-326	-12402
-4-4	-12403
ACAS	-12404
Conf	-12405
LAND	-12406
MAIL	-12407
Mark	-12408
OGIS	-12409
QUES	-12410
Rest	-12411
Rice	-12412
STUF	-12413
abwe	-12414
apes	-12415
bing	-12416
both	-12417
docs	-12418
eguc	-12419
euro	-12420
fran	-12421
ften	-12422
hour	-12423
ibut	-12424
illy	-12425
irdf	-12426
izab	-12427
kiev	-12428
milk	-12429
mill	-12430
onio	-12431
owan	-12432
oxid	-12433
rino	-12434
rote	-12435
tify	-12436
titu	-12437
tium	-12438
urge	-12439
urst	-12440
▁$22	-12441
▁$55	-12442
▁(%/	-12443
▁(15	-12444
▁(41	-12445
▁109	-12446
▁195	-12447
▁4.6	-12448
▁495	-12449
▁52%	-12450
▁56%	-12451
▁670	-12452
▁7.3	-12453
▁7.9	-12454
▁723	-12455
▁9.6	-12456
▁925	-12457
▁983	-12458
▁ATS	-12459
▁EMP	-12460
▁FDA	-12461
▁Gab	-12462
▁IUU	-12463
▁Jul	-12464
▁NOR	-12465
▁RSU	-12466
▁Rim	-12467
▁Syn	-12468
▁Tre	-12469
▁adj	-12470
▁bon	-12471
▁cuc	-12472
▁dos	-12473
▁fed	-12474
▁flu	-12475
▁oat	-12476
▁oct	-12477
▁pop	-12478
▁rob	-12479
▁squ	-12480
▁tag	-12481
▁unp	-12482
▁vib	-12483
▁vin	-12484
▁win	-12485
,000,	-12486
-2001	-12487
Egypt	-12488
Gross	-12489
INESS	-12490
Initi	-12491
Saudi	-12492
about	-12493
after	-12494
allop	-12495
aysia	-12496
green	-12497
group	-12498
inach	-12499
lling	-12500
nolog	-12501
obile	-12502
oting	-12503
oyage	-12504
roads	-12505
rolog	-12506
tible	-12507
tigua	-12508
ucose	-12509
under	-12510
▁$1.9	-12511
▁$2.4	-12512
▁1.4%	-12513
▁1.4,	-12514
▁2.7%	-12515
▁3.6%	-12516
▁Arch	-12517
▁Beng	-12518
▁Bios	-12519
▁COMM	-12520
▁Coca	-12521
▁Côte	-12522
▁Does	-12523
▁Dong	-12524
▁Fill	-12525
▁Fine	-12526
▁Kauf	-12527
▁Last	-12528
▁Mach	-12529
▁Maur	-12530
▁Poor	-12531
▁Pour	-12532
▁Requ	-12533
▁SMEs	-12534
▁Viet	-12535
▁Whey	-12536
▁alle	-12537
▁bird	-12538
▁dang	-12539
▁died	-12540
▁eigh	-12541
▁eyes	-12542
▁owns	-12543
▁pour	-12544
▁rent	-12545
▁stew	-12546
▁vend	-12547
▁viol	-12548
▁yolk	-12549
▁zest	-12550
-811-1	-12551
Ivoire	-12552
Second	-12553
Turkey	-12554
Volume	-12555
Weekly	-12556
acking	-12557
alleng	-12558
azhong	-12559
consum	-12560
entral	-12561
erview	-12562
houses	-12563
igalpa	-12564
imetre	-12565
istory	-12566
makers	-12567
ointed	-12568
opathy	-12569
perial	-12570
reight	-12571
remium	-12572
retion	-12573
stable	-12574
tician	-12575
▁(306)	-12576
▁(905)	-12577
▁15-64	-12578
▁1987,	-12579
▁2001*	-12580
▁Bonus	-12581
▁Carol	-12582
▁Chick	-12583
▁FEDER	-12584
▁Fries	-12585
▁Grape	-12586
▁Multi	-12587
▁Nevis	-12588
▁Norte	-12589
▁Panel	-12590
▁Pedro	-12591
▁Plain	-12592
▁Sains	-12593
▁Salud	-12594
▁Seoul	-12595
▁Stock	-12596
▁Stuff	-12597
▁Teguc	-12598
▁Those	-12599
▁abide	-12600
▁brack	-12601
▁candy	-12602
▁cryst	-12603
▁cycle	-12604
▁depos	-12605
▁expon	-12606
▁facts	-12607
▁hides	-12608
▁https	-12609
▁jelly	-12610
▁numer	-12611
▁omega	-12612
▁opens	-12613
▁pears	-12614
▁pione	-12615
▁sanit	-12616
▁speak	-12617
▁split	-12618
▁sulph	-12619
▁tough	-12620
▁tried	-12621
Finally	-12622
Instead	-12623
Quality	-12624
Seafood	-12625
Sylvain	-12626
aciones	-12627
artures	-12628
chamber	-12629
ebrates	-12630
entions	-12631
grained	-12632
imbabwe	-12633
leagues	-12634
markets	-12635
oration	-12636
ruption	-12637
taining	-12638
uration	-12639
▁(32-2)	-12640
▁Bosnia	-12641
▁Copper	-12642
▁Father	-12643
▁Grande	-12644
▁Groups	-12645
▁Guelph	-12646
▁Herbal	-12647
▁Herzeg	-12648
▁Joseph	-12649
▁MADRID	-12650
▁Migros	-12651
▁Negoti	-12652
▁Poster	-12653
▁Robina	-12654
▁Vienna	-12655
▁Weight	-12656
▁Weston	-12657
▁aspect	-12658
▁assemb	-12659
▁basins	-12660
▁camera	-12661
▁career	-12662
▁census	-12663
▁driver	-12664
▁equity	-12665
▁excise	-12666
▁expiry	-12667
▁extens	-12668
▁fallen	-12669
▁french	-12670
▁herbal	-12671
▁incons	-12672
▁intent	-12673
▁noting	-12674
▁phosph	-12675
▁planet	-12676
▁purity	-12677
▁rubber	-12678
▁sealed	-12679
▁simmer	-12680
▁steaks	-12681
Interest	-12682
Manufact	-12683
Together	-12684
acterial	-12685
ertified	-12686
friendly	-12687
iniscent	-12688
orations	-12689
▁(972-8)	-12690
▁89/396/	-12691
▁Bahrain	-12692
▁Edition	-12693
▁Farmers	-12694
▁Farming	-12695
▁Georgia	-12696
▁Nigeria	-12697
▁PRODUCT	-12698
▁Pearson	-12699
▁SAGARPA	-12700
▁Various	-12701
▁Working	-12702
▁chemist	-12703
▁classic	-12704
▁drivers	-12705
▁embassy	-12706
▁illegal	-12707
▁mathema	-12708
▁oilseed	-12709
▁passing	-12710
▁renewed	-12711
▁seventh	-12712
▁shorter	-12713
▁skimmed	-12714
▁station	-12715
▁stories	-12716
▁studied	-12717
▁subsidy	-12718
▁surveys	-12719
▁visited	-12720
▁welcome	-12721
-811-1119	-12722
Importers	-12723
VANCOUVER	-12724
executive	-12725
inclusive	-12726
resources	-12727
ricultura	-12728
▁Accounts	-12729
▁Bulletin	-12730
▁Elements	-12731
▁FOODSTUF	-12732
▁Favoured	-12733
▁Fontaine	-12734
▁Genetics	-12735
▁Handbook	-12736
▁McDonald	-12737
▁Mushroom	-12738
▁Officers	-12739
▁Positive	-12740
▁Programs	-12741
▁Thousand	-12742
▁adopting	-12743
▁advances	-12744
▁assorted	-12745
▁cleaning	-12746
▁conflict	-12747
▁deterior	-12748
▁dialogue	-12749
▁examined	-12750
▁examples	-12751
▁hundreds	-12752
▁incoming	-12753
▁medicine	-12754
▁notified	-12755
▁organism	-12756
▁religion	-12757
▁retained	-12758
▁roasting	-12759
▁software	-12760
▁spectral	-12761
▁standing	-12762
▁struggle	-12763
▁upcoming	-12764
Bangladesh	-12765
centimetre	-12766
distribute	-12767
▁Advantage	-12768
▁Colombian	-12769
▁Cranberry	-12770
▁Logistics	-12771
▁Recommend	-12772
▁_________	-12773
▁abundance	-12774
▁amendment	-12775
▁condemned	-12776
▁directory	-12777
▁employing	-12778
▁entertain	-12779
▁favorable	-12780
▁federally	-12781
▁liability	-12782
▁ministers	-12783
▁molecules	-12784
▁neutrinos	-12785
▁parabolic	-12786
▁particles	-12787
▁religious	-12788
▁resistant	-12789
▁separated	-12790
▁stimulate	-12791
Philippines	-12792
distributor	-12793
euromonitor	-12794
▁Exhibitors	-12795
▁Forwarders	-12796
▁Harvesters	-12797
▁Increasing	-12798
▁Purchasing	-12799
▁Regulatory	-12800
▁Technician	-12801
▁Washington	-12802
▁addressing	-12803
▁boundaries	-12804
▁colleagues	-12805
▁conformity	-12806
▁diagnostic	-12807
▁discounter	-12808
▁discretion	-12809
▁inadequate	-12810
▁literature	-12811
▁nationally	-12812
▁negatively	-12813
▁optimistic	-12814
▁organizers	-12815
▁organizing	-12816
▁performing	-12817
▁perishable	-12818
▁researcher	-12819
▁specialize	-12820
▁surprising	-12821
▁translated	-12822
▁translates	-12823
▁warehouses	-12824
iscellaneous	-12825
particularly	-12826
registration	-12827
▁Comercializ	-12828
▁Tegucigalpa	-12829
▁antibiotics	-12830
▁approximate	-12831
▁connections	-12832
▁contributor	-12833
▁controlling	-12834
▁immigration	-12835
▁inaugurated	-12836
▁instability	-12837
▁neighboring	-12838
▁participant	-12839
▁reminiscent	-12840
▁specializes	-12841
▁Benchmarking	-12842
▁Traceability	-12843
▁carbohydrate	-12844
▁coordination	-12845
▁highlighting	-12846
▁multilateral	-12847
▁organisation	-12848
▁quantitative	-12849
▁transporting	-12850
▁Organizations	-12851
▁authenticated	-12852
▁effectiveness	-12853
▁jurisdictions	-12854
executiveplanet	-12855
▁1-888-811-1119	-12856
▁businesspeople	-12857
$)	-12858
.*	-12859
/.	-12860
/~	-12861
=5	-12862
AA	-12863
Af	-12864
Br	-12865
FN	-12866
IE	-12867
Ma	-12868
My	-12869
NP	-12870
Op	-12871
PG	-12872
Pe	-12873
SW	-12874
ih	-12875
mr	-12876
pc	-12877
▁>	-12878
▁|	-12879
$15	-12880
-09	-12881
-28	-12882
-89	-12883
.18	-12884
.27	-12885
.71	-12886
.92	-12887
20,	-12888
211	-12889
420	-12890
44,	-12891
593	-12892
653	-12893
77/	-12894
966	-12895
AST	-12896
CMC	-12897
Can	-12898
EUR	-12899
GEL	-12900
IPP	-12901
ORK	-12902
Red	-12903
TAS	-12904
USE	-12905
You	-12906
aba	-12907
abi	-12908
bar	-12909
bro	-12910
bul	-12911
egu	-12912
eva	-12913
hof	-12914
hon	-12915
iro	-12916
kat	-12917
kes	-12918
lee	-12919
nrc	-12920
ohn	-12921
qui	-12922
reb	-12923
sun	-12924
sup	-12925
tel	-12926
ums	-12927
utt	-12928
von	-12929
çai	-12930
▁"'	-12931
▁"7	-12932
▁BA	-12933
▁CB	-12934
▁DA	-12935
▁EL	-12936
▁JV	-12937
▁Pu	-12938
▁ST	-12939
▁Tw	-12940
▁Ze	-12941
▁ca	-12942
▁fa	-12943
▁€1	-12944
-10,	-12945
-23,	-12946
-31)	-12947
2006	-12948
ALUD	-12949
ATEG	-12950
ATER	-12951
Beer	-12952
Comb	-12953
Full	-12954
List	-12955
Rick	-12956
Sept	-12957
Step	-12958
Wine	-12959
acia	-12960
anto	-12961
atri	-12962
best	-12963
bour	-12964
corn	-12965
door	-12966
ello	-12967
emay	-12968
emor	-12969
ente	-12970
fach	-12971
helm	-12972
ibia	-12973
igen	-12974
ingo	-12975
isks	-12976
isse	-12977
moit	-12978
mort	-12979
ners	-12980
pati	-12981
thur	-12982
ught	-12983
uous	-12984
vals	-12985
wild	-12986
▁($1	-12987
▁(16	-12988
▁(21	-12989
▁(70	-12990
▁104	-12991
▁192	-12992
▁1⁄2	-12993
▁301	-12994
▁347	-12995
▁43%	-12996
▁435	-12997
▁5.7	-12998
▁5.9	-12999
▁550	-13000
▁572	-13001
▁66%	-13002
▁67%	-13003
▁7.1	-13004
▁727	-13005
▁8.6	-13006
▁871	-13007
▁885	-13008
▁9.1	-13009
▁905	-13010
▁Bhd	-13011
▁CAP	-13012
▁Dat	-13013
▁Eco	-13014
▁Eff	-13015
▁Ein	-13016
▁FIN	-13017
▁Gap	-13018
▁HRZ	-13019
▁Hon	-13020
▁Jac	-13021
▁Jon	-13022
▁Jus	-13023
▁Mad	-13024
▁NEX	-13025
▁Rey	-13026
▁Rod	-13027
▁STR	-13028
▁Sdn	-13029
▁Veg	-13030
▁Viv	-13031
▁bil	-13032
▁cup	-13033
▁hin	-13034
▁hom	-13035
▁ion	-13036
▁yes	-13037
-2500	-13038
5,000	-13039
AFOOD	-13040
Apart	-13041
Deuts	-13042
EALTH	-13043
OURCE	-13044
Until	-13045
acher	-13046
achus	-13047
afers	-13048
agara	-13049
aling	-13050
aping	-13051
arcía	-13052
atian	-13053
aviar	-13054
being	-13055
bever	-13056
board	-13057
bound	-13058
cient	-13059
dried	-13060
ersey	-13061
erted	-13062
halal	-13063
iants	-13064
iated	-13065
icton	-13066
iesta	-13067
iopia	-13068
iosks	-13069
isons	-13070
iture	-13071
mberg	-13072
ocent	-13073
ovina	-13074
parag	-13075
point	-13076
rasse	-13077
ronom	-13078
stant	-13079
title	-13080
udong	-13081
uggan	-13082
uropa	-13083
▁$1.8	-13084
▁$2.3	-13085
▁$3.2	-13086
▁$500	-13087
▁0-14	-13088
▁1.2%	-13089
▁1.68	-13090
▁10-1	-13091
▁1829	-13092
▁1977	-13093
▁2)."	-13094
▁2.8%	-13095
▁5-20	-13096
▁CIDA	-13097
▁CONT	-13098
▁Cape	-13099
▁Care	-13100
▁Cash	-13101
▁Gros	-13102
▁Jams	-13103
▁KPMG	-13104
▁Lead	-13105
▁Look	-13106
▁MOST	-13107
▁Mand	-13108
▁PAGE	-13109
▁PISO	-13110
▁Rewe	-13111
▁Rock	-13112
▁Ruiz	-13113
▁Rung	-13114
▁Shop	-13115
▁Stew	-13116
▁Very	-13117
▁adds	-13118
▁capt	-13119
▁cats	-13120
▁curd	-13121
▁game	-13122
▁goat	-13123
▁hamp	-13124
▁herb	-13125
▁lays	-13126
▁leaf	-13127
▁lens	-13128
▁pink	-13129
▁scen	-13130
▁toll	-13131
▁visa	-13132
-01/07	-13133
Before	-13134
French	-13135
Hawaii	-13136
Indeed	-13137
Lastly	-13138
Secret	-13139
Sweden	-13140
assium	-13141
asting	-13142
cisely	-13143
ertile	-13144
etails	-13145
ingles	-13146
isture	-13147
metres	-13148
middle	-13149
mortem	-13150
olving	-13151
ottawa	-13152
report	-13153
tality	-13154
ungary	-13155
ureauc	-13156
voyage	-13157
wholes	-13158
▁"0713	-13159
▁(2003	-13160
▁(2005	-13161
▁1,500	-13162
▁1994.	-13163
▁996-1	-13164
▁Abast	-13165
▁Bioph	-13166
▁Cocoa	-13167
▁Fried	-13168
▁HACCP	-13169
▁Ideal	-13170
▁Kenya	-13171
▁LEGIS	-13172
▁LOGIS	-13173
▁MARKE	-13174
▁Malta	-13175
▁Meals	-13176
▁Month	-13177
▁Olive	-13178
▁Paper	-13179
▁Refer	-13180
▁Risks	-13181
▁SOUTH	-13182
▁SPACE	-13183
▁Tesco	-13184
▁Valle	-13185
▁accum	-13186
▁bears	-13187
▁bills	-13188
▁broch	-13189
▁cafet	-13190
▁chili	-13191
▁destr	-13192
▁elder	-13193
▁embry	-13194
▁emuls	-13195
▁euros	-13196
▁finds	-13197
▁gauge	-13198
▁grams	-13199
▁hydro	-13200
▁latit	-13201
▁lobby	-13202
▁minim	-13203
▁motor	-13204
▁parad	-13205
▁pinch	-13206
▁plain	-13207
▁preca	-13208
▁react	-13209
▁seeks	-13210
▁steam	-13211
▁wrote	-13212
▁zones	-13213
Belgium	-13214
Product	-13215
Tunisia	-13216
Ukraine	-13217
Unknown	-13218
customs	-13219
default	-13220
earning	-13221
grounds	-13222
growing	-13223
izabeth	-13224
purpose	-13225
quiries	-13226
uilding	-13227
viation	-13228
▁(33-1)	-13229
▁2015."	-13230
▁40,000	-13231
▁7258-6	-13232
▁BUQUES	-13233
▁Baking	-13234
▁Canary	-13235
▁Danone	-13236
▁García	-13237
▁Guides	-13238
▁HEALTH	-13239
▁Jersey	-13240
▁Jordan	-13241
▁Livers	-13242
▁McLean	-13243
▁Medium	-13244
▁Modern	-13245
▁Nearly	-13246
▁Nepean	-13247
▁Oceans	-13248
▁Yangzi	-13249
▁banana	-13250
▁bigger	-13251
▁booths	-13252
▁causes	-13253
▁clouds	-13254
▁compos	-13255
▁copper	-13256
▁dispar	-13257
▁eighth	-13258
▁engage	-13259
▁evenly	-13260
▁grated	-13261
▁guides	-13262
▁impose	-13263
▁indeed	-13264
▁lifted	-13265
▁multip	-13266
▁nectar	-13267
▁owners	-13268
▁pastry	-13269
▁safegu	-13270
▁shifts	-13271
▁sowing	-13272
▁tinged	-13273
▁trades	-13274
▁underg	-13275
▁versus	-13276
McIntosh	-13277
Overview	-13278
ensitive	-13279
regional	-13280
▁500,000	-13281
▁Adviser	-13282
▁Bahamas	-13283
▁BioFach	-13284
▁CARACAS	-13285
▁Grenada	-13286
▁Highway	-13287
▁Niagara	-13288
▁Opening	-13289
▁Weights	-13290
▁Zeitung	-13291
▁acreage	-13292
▁adheres	-13293
▁aquatic	-13294
▁assists	-13295
▁binding	-13296
▁brewing	-13297
▁broader	-13298
▁comfort	-13299
▁compare	-13300
▁enzymes	-13301
▁equally	-13302
▁females	-13303
▁forming	-13304
▁furnish	-13305
▁issuing	-13306
▁kitchen	-13307
▁labeled	-13308
▁legitim	-13309
▁milling	-13310
▁nectars	-13311
▁pleased	-13312
▁precise	-13313
▁railway	-13314
▁sellers	-13315
▁stuffed	-13316
▁textile	-13317
▁uniform	-13318
▁varying	-13319
September	-13320
ellington	-13321
organized	-13322
umigation	-13323
▁Chairman	-13324
▁Collabor	-13325
▁Comments	-13326
▁DISTRIBU	-13327
▁Holdings	-13328
▁Huazhong	-13329
▁Imperial	-13330
▁Lebanese	-13331
▁Portland	-13332
▁Register	-13333
▁Superior	-13334
▁Valencia	-13335
▁Workshop	-13336
▁absolute	-13337
▁adaptive	-13338
▁assessed	-13339
▁attitude	-13340
▁believes	-13341
▁boundary	-13342
▁caterers	-13343
▁crackers	-13344
▁everyone	-13345
▁fishmeal	-13346
▁focusing	-13347
▁globally	-13348
▁holidays	-13349
▁investor	-13350
▁mackerel	-13351
▁mainland	-13352
▁ministry	-13353
▁outlines	-13354
▁overcome	-13355
▁pictures	-13356
▁preserve	-13357
▁provider	-13358
▁sciences	-13359
▁studying	-13360
▁therapeu	-13361
▁uncooked	-13362
▁underway	-13363
▁visiting	-13364
Asociación	-13365
enetically	-13366
estershire	-13367
government	-13368
▁Alejandro	-13369
▁Catalogue	-13370
▁Container	-13371
▁Filipinos	-13372
▁Massachus	-13373
▁Peninsula	-13374
▁Signature	-13375
▁approvals	-13376
▁assurance	-13377
▁attending	-13378
▁campaigns	-13379
▁directive	-13380
▁disappear	-13381
▁electrons	-13382
▁evaluated	-13383
▁evidenced	-13384
▁excessive	-13385
▁freshness	-13386
▁generates	-13387
▁inception	-13388
▁inclusion	-13389
▁northwest	-13390
▁organizer	-13391
▁parentage	-13392
▁precisely	-13393
▁proposals	-13394
▁qualities	-13395
▁regulates	-13396
▁respected	-13397
▁schedules	-13398
▁succeeded	-13399
▁teaspoons	-13400
▁tolerance	-13401
▁undertake	-13402
alimentaire	-13403
competitive	-13404
traditional	-13405
▁FOODSTUFFS	-13406
▁accurately	-13407
▁brightness	-13408
▁cigarettes	-13409
▁delivering	-13410
▁descending	-13411
▁expiration	-13412
▁harmonized	-13413
▁mechanisms	-13414
▁medallions	-13415
▁originates	-13416
▁passengers	-13417
▁prevention	-13418
▁responding	-13419
▁retirement	-13420
▁revolution	-13421
▁understood	-13422
cephalopathy	-13423
▁Agricultura	-13424
▁Enterprises	-13425
▁Fredericton	-13426
▁Herzegovina	-13427
▁Supplements	-13428
▁approaching	-13429
▁commitments	-13430
▁experiments	-13431
▁extensively	-13432
▁facilitated	-13433
▁generations	-13434
▁inefficient	-13435
▁limitations	-13436
▁outstanding	-13437
▁photographs	-13438
▁politically	-13439
▁positioning	-13440
▁subsistence	-13441
▁transformed	-13442
▁willingness	-13443
Interestingly	-13444
approximately	-13445
▁Capabilities	-13446
▁announcement	-13447
▁designations	-13448
▁standardized	-13449
▁modifications	-13450
▁neighbourhood	-13451
▁stabilization	-13452
▁Authentication	-13453
▁interpretation	-13454
▁Diversification	-13455
,0	-13456
,3	-13457
.(	-13458
38	-13459
DG	-13460
DZ	-13461
HO	-13462
HR	-13463
MT	-13464
gs	-13465
ji	-13466
kt	-13467
ku	-13468
pi	-13469
än	-13470
ès	-13471
$11	-13472
-35	-13473
-47	-13474
-96	-13475
.87	-13476
.89	-13477
.90	-13478
/11	-13479
/2/	-13480
/40	-13481
2."	-13482
204	-13483
213	-13484
450	-13485
5.2	-13486
8."	-13487
835	-13488
9.7	-13489
Acc	-13490
Bar	-13491
CDN	-13492
DSI	-13493
EBS	-13494
ECA	-13495
Ele	-13496
Man	-13497
Mar	-13498
Max	-13499
Mon	-13500
Mor	-13501
OLU	-13502
SIA	-13503
Sub	-13504
TOT	-13505
abs	-13506
aja	-13507
asc	-13508
bit	-13509
bus	-13510
eca	-13511
enz	-13512
iba	-13513
ibo	-13514
jar	-13515
mid	-13516
mpt	-13517
nce	-13518
oub	-13519
oud	-13520
oug	-13521
pub	-13522
rud	-13523
sic	-13524
sit	-13525
who	-13526
▁"8	-13527
▁7-	-13528
▁IA	-13529
▁IP	-13530
▁NY	-13531
▁Oh	-13532
▁PH	-13533
▁PT	-13534
▁Rs	-13535
▁UA	-13536
▁Ve	-13537
▁ap	-13538
▁ly	-13539
▁yr	-13540
▁€2	-13541
▁€3	-13542
-20,	-13543
-25,	-13544
ABLE	-13545
ADOS	-13546
Cola	-13547
EFUL	-13548
IGHT	-13549
INES	-13550
ITES	-13551
JLAC	-13552
Just	-13553
OECD	-13554
Prim	-13555
Sean	-13556
afés	-13557
alse	-13558
arts	-13559
auri	-13560
auty	-13561
awan	-13562
ball	-13563
dest	-13564
dfat	-13565
ding	-13566
emic	-13567
enth	-13568
epsi	-13569
erez	-13570
haus	-13571
hops	-13572
issa	-13573
lang	-13574
lant	-13575
loin	-13576
more	-13577
name	-13578
opus	-13579
osis	-13580
raaf	-13581
sale	-13582
tein	-13583
this	-13584
viet	-13585
▁$26	-13586
▁$36	-13587
▁(80	-13588
▁106	-13589
▁107	-13590
▁124	-13591
▁1⁄4	-13592
▁2."	-13593
▁207	-13594
▁221	-13595
▁270	-13596
▁325	-13597
▁46%	-13598
▁5.5	-13599
▁506	-13600
▁54%	-13601
▁731	-13602
▁759	-13603
▁780	-13604
▁8.3	-13605
▁86%	-13606
▁910	-13607
▁Beg	-13608
▁Bir	-13609
▁Cad	-13610
▁Cre	-13611
▁Deg	-13612
▁ECI	-13613
▁Ens	-13614
▁FIS	-13615
▁Fem	-13616
▁Fer	-13617
▁Gad	-13618
▁Les	-13619
▁Lib	-13620
▁MIN	-13621
▁MOD	-13622
▁Mat	-13623
▁Pri	-13624
▁Rog	-13625
▁Sky	-13626
▁Son	-13627
▁Sul	-13628
▁Tor	-13629
▁Tri	-13630
▁Tun	-13631
▁URC	-13632
▁VII	-13633
▁VTC	-13634
▁Wag	-13635
▁Wed	-13636
▁Xin	-13637
▁bol	-13638
▁ecl	-13639
▁hyb	-13640
▁jam	-13641
▁jus	-13642
▁nit	-13643
▁sca	-13644
▁sum	-13645
▁tap	-13646
▁vul	-13647
/2007	-13648
EMENT	-13649
ENTAL	-13650
Every	-13651
GREDI	-13652
Often	-13653
TORES	-13654
Trans	-13655
VIRON	-13656
Wheat	-13657
actic	-13658
agric	-13659
alais	-13660
ander	-13661
ateau	-13662
china	-13663
crops	-13664
dated	-13665
echin	-13666
edish	-13667
estim	-13668
etite	-13669
fuels	-13670
grain	-13671
ingen	-13672
inued	-13673
messe	-13674
mexic	-13675
mouth	-13676
omoto	-13677
osoph	-13678
rives	-13679
ruise	-13680
stock	-13681
tiago	-13682
▁$2.5	-13683
▁$4.3	-13684
▁0306	-13685
▁1.1%	-13686
▁1.8%	-13687
▁8.5%	-13688
▁Acid	-13689
▁Beir	-13690
▁Crab	-13691
▁Dise	-13692
▁FORM	-13693
▁Hind	-13694
▁Larg	-13695
▁Laws	-13696
▁Leon	-13697
▁Maps	-13698
▁Mars	-13699
▁Meal	-13700
▁NAME	-13701
▁Niño	-13702
▁Nure	-13703
▁Qing	-13704
▁Roll	-13705
▁Shel	-13706
▁Sund	-13707
▁Wolf	-13708
▁Worc	-13709
▁Yvon	-13710
▁arch	-13711
▁band	-13712
▁cabb	-13713
▁emer	-13714
▁exec	-13715
▁fear	-13716
▁fier	-13717
▁fung	-13718
▁gave	-13719
▁invo	-13720
▁lots	-13721
▁park	-13722
▁rick	-13723
▁spot	-13724
▁tail	-13725
▁trip	-13726
Global	-13727
OPPORT	-13728
Poland	-13729
Prices	-13730
TITIVE	-13731
Trends	-13732
aching	-13733
acters	-13734
actose	-13735
adines	-13736
anagan	-13737
called	-13738
echten	-13739
inners	-13740
ippers	-13741
isting	-13742
layout	-13743
licate	-13744
ogenic	-13745
ossary	-13746
ppings	-13747
radesh	-13748
ricted	-13749
terior	-13750
volume	-13751
weight	-13752
▁(507)	-13753
▁1,200	-13754
▁1990’	-13755
▁2000*	-13756
▁996-2	-13757
▁Aster	-13758
▁Block	-13759
▁CIFTA	-13760
▁Camer	-13761
▁Cater	-13762
▁Cheng	-13763
▁Chips	-13764
▁Chris	-13765
▁Codes	-13766
▁Cross	-13767
▁Danes	-13768
▁FOODS	-13769
▁Ghana	-13770
▁Graph	-13771
▁Legal	-13772
▁Lower	-13773
▁Lucia	-13774
▁MERCA	-13775
▁Marie	-13776
▁Monte	-13777
▁Omega	-13778
▁Phils	-13779
▁Power	-13780
▁Prima	-13781
▁REFER	-13782
▁Santo	-13783
▁Syria	-13784
▁Urban	-13785
▁arise	-13786
▁bases	-13787
▁batch	-13788
▁centi	-13789
▁conic	-13790
▁diver	-13791
▁drops	-13792
▁exped	-13793
▁fears	-13794
▁flood	-13795
▁grass	-13796
▁imped	-13797
▁metre	-13798
▁misle	-13799
▁overn	-13800
▁overw	-13801
▁proof	-13802
▁safer	-13803
▁scene	-13804
▁sized	-13805
▁skill	-13806
▁smugg	-13807
▁stiff	-13808
▁sympt	-13809
▁tasty	-13810
▁topic	-13811
▁trips	-13812
▁video	-13813
Central	-13814
Croatia	-13815
Customs	-13816
Lentils	-13817
Nielsen	-13818
USINESS	-13819
Whereas	-13820
acteria	-13821
angerie	-13822
anipron	-13823
anitoba	-13824
billion	-13825
display	-13826
entials	-13827
erience	-13828
increas	-13829
informa	-13830
inguine	-13831
istical	-13832
ometers	-13833
onduran	-13834
onsanto	-13835
ristine	-13836
ustacea	-13837
venture	-13838
zeitung	-13839
▁(100%)	-13840
▁(84-4)	-13841
▁30,000	-13842
▁Academ	-13843
▁Belize	-13844
▁Broker	-13845
▁CONGEL	-13846
▁Female	-13847
▁Fertil	-13848
▁Forest	-13849
▁Morris	-13850
▁Moscow	-13851
▁Oregon	-13852
▁Palais	-13853
▁Permit	-13854
▁RETAIL	-13855
▁Racine	-13856
▁Regina	-13857
▁Remove	-13858
▁Sandra	-13859
▁Strahl	-13860
▁absorb	-13861
▁advent	-13862
▁advise	-13863
▁bottom	-13864
▁colony	-13865
▁correc	-13866
▁deplet	-13867
▁female	-13868
▁freeze	-13869
▁ginger	-13870
▁headed	-13871
▁jumped	-13872
▁liquor	-13873
▁manual	-13874
▁metals	-13875
▁mixing	-13876
▁oblong	-13877
▁olives	-13878
▁passes	-13879
▁pastas	-13880
▁powers	-13881
▁ranged	-13882
▁rarely	-13883
▁reader	-13884
▁relate	-13885
▁reluct	-13886
▁robust	-13887
▁senior	-13888
▁stress	-13889
▁suited	-13890
▁sujiko	-13891
▁switch	-13892
▁underm	-13893
Complete	-13894
Japanese	-13895
Malaysia	-13896
Thailand	-13897
allenges	-13898
aneously	-13899
atabases	-13900
cessions	-13901
contains	-13902
exported	-13903
labelled	-13904
olecular	-13905
omedical	-13906
oretical	-13907
osmetics	-13908
tivities	-13909
▁Airport	-13910
▁Amateur	-13911
▁Arrange	-13912
▁Berries	-13913
▁CHARGES	-13914
▁Caracas	-13915
▁Changes	-13916
▁Combine	-13917
▁Display	-13918
▁ENVIRON	-13919
▁Galeria	-13920
▁Ginseng	-13921
▁Hamered	-13922
▁IMPORTS	-13923
▁INGREDI	-13924
▁Jiangsu	-13925
▁Milling	-13926
▁PROCESS	-13927
▁Pradesh	-13928
▁Primary	-13929
▁STRATEG	-13930
▁Studies	-13931
▁Vincent	-13932
▁Welfare	-13933
▁accompl	-13934
▁affairs	-13935
▁affects	-13936
▁approve	-13937
▁boiling	-13938
▁boomers	-13939
▁bureauc	-13940
▁calorie	-13941
▁cameras	-13942
▁chamber	-13943
▁convers	-13944
▁credits	-13945
▁erosion	-13946
▁ethanol	-13947
▁evolved	-13948
▁fertile	-13949
▁fifteen	-13950
▁fulfill	-13951
▁harmful	-13952
▁helpful	-13953
▁install	-13954
▁ketchup	-13955
▁oranges	-13956
▁oysters	-13957
▁premier	-13958
▁prevail	-13959
▁realize	-13960
▁reveals	-13961
▁richard	-13962
▁tractor	-13963
▁tripled	-13964
▁turnkey	-13965
▁updates	-13966
▁viruses	-13967
▁whereby	-13968
Alcoholic	-13969
ilitation	-13970
ividually	-13971
▁228-6653	-13972
▁598-2500	-13973
▁Advisory	-13974
▁Agencies	-13975
▁Chambers	-13976
▁Dominica	-13977
▁Einstein	-13978
▁Ethiopia	-13979
▁Liechten	-13980
▁Moroccan	-13981
▁Powdered	-13982
▁Previous	-13983
▁Profiles	-13984
▁Provides	-13985
▁Spending	-13986
▁Xinjiang	-13987
▁additive	-13988
▁allocate	-13989
▁arriving	-13990
▁calories	-13991
▁chloride	-13992
▁clearing	-13993
▁clothing	-13994
▁counters	-13995
▁crushing	-13996
▁diabetes	-13997
▁duration	-13998
▁eligible	-13999
▁formerly	-14000
▁interpre	-14001
▁issuance	-14002
▁leverage	-14003
▁matching	-14004
▁moisture	-14005
▁nutrient	-14006
▁schedule	-14007
▁softened	-14008
▁textiles	-14009
▁versions	-14010
▁welcomes	-14011
Background	-14012
oulangerie	-14013
▁AGREEMENT	-14014
▁Copyright	-14015
▁Embassies	-14016
▁Industria	-14017
▁LOGISTICS	-14018
▁Medicinal	-14019
▁Nuremberg	-14020
▁Otherwise	-14021
▁Potential	-14022
▁Reference	-14023
▁Sainsbury	-14024
▁appointed	-14025
▁biodiesel	-14026
▁continent	-14027
▁delicious	-14028
▁exhibited	-14029
▁favourite	-14030
▁fermented	-14031
▁furniture	-14032
▁gathering	-14033
▁instances	-14034
▁institute	-14035
▁neighbors	-14036
▁occurring	-14037
▁precision	-14038
▁preserves	-14039
▁providers	-14040
▁sparkling	-14041
▁undergone	-14042
▁variation	-14043
▁witnessed	-14044
Nonetheless	-14045
Switzerland	-14046
informatics	-14047
▁Amerindian	-14048
▁Assessment	-14049
▁Departures	-14050
▁Grenadines	-14051
▁Luxembourg	-14052
▁Percentage	-14053
▁Resolution	-14054
▁Travellers	-14055
▁Wellington	-14056
▁authorised	-14057
▁characters	-14058
▁collective	-14059
▁consultant	-14060
▁definitely	-14061
▁delegation	-14062
▁exemptions	-14063
▁foreigners	-14064
▁generating	-14065
▁leguminous	-14066
▁mainstream	-14067
▁mechanical	-14068
▁modernized	-14069
▁perception	-14070
▁photometer	-14071
▁sanitation	-14072
▁stipulated	-14073
▁trademarks	-14074
▁traditions	-14075
▁undergoing	-14076
Distribution	-14077
Distributors	-14078
Intermediate	-14079
▁ENVIRONMENT	-14080
▁Venezuelans	-14081
▁atmospheres	-14082
▁centimetres	-14083
▁corporation	-14084
▁definitions	-14085
▁explanation	-14086
▁flavourings	-14087
▁investigate	-14088
▁mountainous	-14089
▁organically	-14090
▁procurement	-14091
▁sensitivity	-14092
▁transaction	-14093
OPPORTUNITIES	-14094
▁Intellectual	-14095
▁Metropolitan	-14096
▁Partnerships	-14097
▁achievements	-14098
▁aggressively	-14099
▁appreciation	-14100
▁astrophysics	-14101
▁attributable	-14102
▁calculations	-14103
▁facilitating	-14104
▁intervention	-14105
▁strawberries	-14106
______________	-14107
▁Accreditation	-14108
▁Distribuidora	-14109
▁Internacional	-14110
▁Liechtenstein	-14111
▁Massachusetts	-14112
▁accommodation	-14113
▁consultations	-14114
▁controversial	-14115
▁invertebrates	-14116
▁Communications	-14117
▁Worcestershire	-14118
=2	-14119
BI	-14120
Bi	-14121
CF	-14122
Do	-14123
FM	-14124
FT	-14125
GO	-14126
Id	-14127
Py	-14128
QA	-14129
Qs	-14130
SR	-14131
Tr	-14132
WG	-14133
eh	-14134
hc	-14135
ni	-14136
uh	-14137
ye	-14138
$14	-14139
-3,	-14140
-57	-14141
-73	-14142
.05	-14143
.1,	-14144
.67	-14145
/03	-14146
/08	-14147
00,	-14148
1."	-14149
110	-14150
129	-14151
2),	-14152
235	-14153
30,	-14154
312	-14155
4."	-14156
4.4	-14157
45/	-14158
50,	-14159
667	-14160
808	-14161
888	-14162
9.6	-14163
ATT	-14164
CIF	-14165
Cal	-14166
FAS	-14167
FFS	-14168
HRI	-14169
IEC	-14170
ITY	-14171
LES	-14172
May	-14173
NAM	-14174
PyA	-14175
RES	-14176
RIS	-14177
Ren	-14178
Rep	-14179
SEA	-14180
Sur	-14181
TAB	-14182
TED	-14183
ULE	-14184
VEL	-14185
Web	-14186
aco	-14187
agg	-14188
aij	-14189
amm	-14190
asm	-14191
awi	-14192
cut	-14193
ele	-14194
ffe	-14195
gue	-14196
gyz	-14197
hey	-14198
hus	-14199
idi	-14200
ifa	-14201
log	-14202
mof	-14203
mor	-14204
oka	-14205
oom	-14206
rec	-14207
tle	-14208
tze	-14209
uga	-14210
vez	-14211
yme	-14212
éph	-14213
▁%.	-14214
▁-5	-14215
▁2:	-14216
▁5-	-14217
▁CL	-14218
▁Cu	-14219
▁Cy	-14220
▁FL	-14221
▁Ga	-14222
▁IT	-14223
▁TV	-14224
-110	-14225
-28,	-14226
-30%	-14227
.1.2	-14228
.8%,	-14229
0%),	-14230
1-3)	-14231
2002	-14232
232/	-14233
APEC	-14234
EROS	-14235
GMOs	-14236
IRDF	-14237
July	-14238
Mont	-14239
Nest	-14240
Soft	-14241
USDA	-14242
adic	-14243
agar	-14244
alco	-14245
atim	-14246
aunt	-14247
auti	-14248
ayan	-14249
baij	-14250
bell	-14251
cbsc	-14252
cfia	-14253
crum	-14254
egal	-14255
elin	-14256
emen	-14257
enic	-14258
erly	-14259
even	-14260
exam	-14261
good	-14262
gouv	-14263
iden	-14264
itis	-14265
ivil	-14266
long	-14267
onal	-14268
onds	-14269
racy	-14270
rica	-14271
rupt	-14272
shid	-14273
sial	-14274
size	-14275
some	-14276
undi	-14277
uren	-14278
yard	-14279
äfer	-14280
▁$44	-14281
▁0.8	-14282
▁1-2	-14283
▁103	-14284
▁105	-14285
▁119	-14286
▁139	-14287
▁183	-14288
▁189	-14289
▁193	-14290
▁315	-14291
▁4.9	-14292
▁41%	-14293
▁425	-14294
▁452	-14295
▁5."	-14296
▁5.0	-14297
▁5.8	-14298
▁560	-14299
▁581	-14300
▁61%	-14301
▁626	-14302
▁629	-14303
▁652	-14304
▁7.2	-14305
▁7.4	-14306
▁8.8	-14307
▁823	-14308
▁9.2	-14309
▁9.8	-14310
▁Abs	-14311
▁Ama	-14312
▁Bag	-14313
▁Cel	-14314
▁Cov	-14315
▁Dal	-14316
▁Dry	-14317
▁Ess	-14318
▁Hak	-14319
▁Hor	-14320
▁Ill	-14321
▁JAS	-14322
▁Kim	-14323
▁Lay	-14324
▁MBM	-14325
▁NOK	-14326
▁PER	-14327
▁Por	-14328
▁Pue	-14329
▁RES	-14330
▁Rib	-14331
▁Ros	-14332
▁Sam	-14333
▁Sol	-14334
▁Sor	-14335
▁TIP	-14336
▁Yug	-14337
▁Zam	-14338
▁asc	-14339
▁bid	-14340
▁dup	-14341
▁era	-14342
▁hem	-14343
▁ine	-14344
▁kgs	-14345
▁mos	-14346
▁pom	-14347
▁sqm	-14348
▁unf	-14349
-0034	-14350
-0688	-14351
-1000	-14352
-2006	-14353
-2121	-14354
.6%),	-14355
ADING	-14356
AGPyA	-14357
April	-14358
Brand	-14359
Bread	-14360
CCASI	-14361
ETNAM	-14362
Forec	-14363
House	-14364
Nutri	-14365
Pasta	-14366
Price	-14367
Small	-14368
State	-14369
Sugar	-14370
admin	-14371
atine	-14372
auses	-14373
aymie	-14374
dairy	-14375
encer	-14376
entor	-14377
ersed	-14378
esman	-14379
eterm	-14380
ethyl	-14381
fiers	-14382
haven	-14383
icios	-14384
idden	-14385
igned	-14386
itude	-14387
namon	-14388
nutra	-14389
osity	-14390
plant	-14391
ppers	-14392
raced	-14393
raham	-14394
reduc	-14395
ropic	-14396
tedly	-14397
trail	-14398
ucker	-14399
umbai	-14400
using	-14401
▁$150	-14402
▁$2.1	-14403
▁$200	-14404
▁$3.3	-14405
▁$3.8	-14406
▁($15	-14407
▁(44)	-14408
▁0.8%	-14409
▁1.3%	-14410
▁1.6%	-14411
▁1979	-14412
▁2.9%	-14413
▁3.4%	-14414
▁4.4%	-14415
▁4.7%	-14416
▁50%,	-14417
▁6.6%	-14418
▁7.3%	-14419
▁86/3	-14420
▁BRUN	-14421
▁Biot	-14422
▁Bonn	-14423
▁Buff	-14424
▁Cebu	-14425
▁Ched	-14426
▁Clos	-14427
▁Cock	-14428
▁Cord	-14429
▁Desk	-14430
▁Five	-14431
▁Gala	-14432
▁Have	-14433
▁Heat	-14434
▁Help	-14435
▁Hers	-14436
▁Kand	-14437
▁Lady	-14438
▁Magn	-14439
▁Nord	-14440
▁PEMD	-14441
▁Peak	-14442
▁Poll	-14443
▁REQU	-14444
▁Rico	-14445
▁Ries	-14446
▁Roth	-14447
▁Rust	-14448
▁Soil	-14449
▁Sour	-14450
▁Stan	-14451
▁TIME	-14452
▁Term	-14453
▁Teva	-14454
▁aber	-14455
▁ball	-14456
▁barg	-14457
▁epid	-14458
▁flux	-14459
▁gift	-14460
▁gold	-14461
▁grey	-14462
▁iboc	-14463
▁kits	-14464
▁knew	-14465
▁loan	-14466
▁lump	-14467
▁lunc	-14468
▁marc	-14469
▁miti	-14470
▁outp	-14471
▁pest	-14472
▁ribs	-14473
▁roof	-14474
▁rust	-14475
▁sean	-14476
▁sees	-14477
▁span	-14478
▁subd	-14479
▁tiss	-14480
▁vine	-14481
▁whey	-14482
Animal	-14483
Bundes	-14484
Eleven	-14485
Nearly	-14486
Panama	-14487
Regard	-14488
Strong	-14489
Taiwan	-14490
Thanks	-14491
anners	-14492
apping	-14493
ardous	-14494
around	-14495
athrow	-14496
azette	-14497
baijan	-14498
crumbs	-14499
eather	-14500
emarks	-14501
ergies	-14502
ernova	-14503
ifiers	-14504
ighter	-14505
istica	-14506
mclean	-14507
ocated	-14508
ourses	-14509
ribute	-14510
ulence	-14511
velopp	-14512
▁(44-0	-14513
▁(709)	-14514
▁1955,	-14515
▁1977,	-14516
▁1981,	-14517
▁1989,	-14518
▁2015,	-14519
▁2015.	-14520
▁871-7	-14521
▁992-6	-14522
▁Achie	-14523
▁Alger	-14524
▁Avian	-14525
▁Baked	-14526
▁Basic	-14527
▁Bring	-14528
▁CONDI	-14529
▁Carry	-14530
▁Catch	-14531
▁Chand	-14532
▁Chang	-14533
▁Forms	-14534
▁Given	-14535
▁Himal	-14536
▁Intra	-14537
▁Lemay	-14538
▁Liber	-14539
▁Media	-14540
▁NEXOS	-14541
▁Point	-14542
▁Roast	-14543
▁SAFDZ	-14544
▁Scott	-14545
▁Third	-14546
▁Upper	-14547
▁Whisk	-14548
▁Wines	-14549
▁avian	-14550
▁block	-14551
▁butch	-14552
▁civil	-14553
▁colon	-14554
▁color	-14555
▁colum	-14556
▁congr	-14557
▁crabs	-14558
▁deriv	-14559
▁diets	-14560
▁diges	-14561
▁disag	-14562
▁enabl	-14563
▁error	-14564
▁fatty	-14565
▁frame	-14566
▁gases	-14567
▁genes	-14568
▁globe	-14569
▁horiz	-14570
▁inexp	-14571
▁miles	-14572
▁photo	-14573
▁proud	-14574
▁purée	-14575
▁recon	-14576
▁rises	-14577
▁roles	-14578
▁route	-14579
▁schol	-14580
▁therm	-14581
▁truly	-14582
▁views	-14583
▁vinyl	-14584
▁yeast	-14585
/12/199	-14586
48-8191	-14587
ATERIAL	-14588
British	-14589
CARICOM	-14590
Chicken	-14591
Chilled	-14592
Chinese	-14593
Hungary	-14594
January	-14595
Lithuan	-14596
Poultry	-14597
Present	-14598
SAGARPA	-14599
Tariffs	-14600
aurants	-14601
changed	-14602
ecanada	-14603
ectious	-14604
ennifer	-14605
ethanol	-14606
ichelle	-14607
igenous	-14608
jection	-14609
licated	-14610
philipp	-14611
reshold	-14612
sectors	-14613
urskins	-14614
▁(2006)	-14615
▁15,000	-14616
▁1996."	-14617
▁510-80	-14618
▁Ambass	-14619
▁Beirut	-14620
▁Burger	-14621
▁Capita	-14622
▁Corpor	-14623
▁Cotton	-14624
▁Double	-14625
▁EVENTS	-14626
▁Estate	-14627
▁Farmed	-14628
▁Gagnon	-14629
▁Hubble	-14630
▁Hubert	-14631
▁Infant	-14632
▁Lentil	-14633
▁Lesson	-14634
▁MERCAS	-14635
▁Malawi	-14636
▁Maurit	-14637
▁Monday	-14638
▁Notice	-14639
▁Peanut	-14640
▁Reform	-14641
▁School	-14642
▁almond	-14643
▁assets	-14644
▁batter	-14645
▁blocks	-14646
▁breast	-14647
▁broken	-14648
▁caviar	-14649
▁checks	-14650
▁coasts	-14651
▁creamy	-14652
▁distor	-14653
▁earned	-14654
▁emerge	-14655
▁endors	-14656
▁europa	-14657
▁failed	-14658
▁fleets	-14659
▁intake	-14660
▁makers	-14661
▁melted	-14662
▁nearby	-14663
▁rating	-14664
▁relief	-14665
▁ruling	-14666
▁salami	-14667
▁scares	-14668
▁timber	-14669
▁turned	-14670
▁undoub	-14671
▁varian	-14672
Compared	-14673
Manitoba	-14674
Particip	-14675
articles	-14676
ilingual	-14677
incanada	-14678
jinomoto	-14679
ortheast	-14680
▁Abastos	-14681
▁Angeles	-14682
▁ArabNet	-14683
▁Cadbury	-14684
▁Cereals	-14685
▁Concern	-14686
▁Context	-14687
▁Cooking	-14688
▁Gateway	-14689
▁History	-14690
▁Icewine	-14691
▁Kaufhof	-14692
▁Letters	-14693
▁Mississ	-14694
▁Namibia	-14695
▁ORGANIC	-14696
▁ORGANIZ	-14697
▁Protein	-14698
▁SEAFOOD	-14699
▁Seattle	-14700
▁Sectors	-14701
▁Shaping	-14702
▁Yangtze	-14703
▁booming	-14704
▁catalog	-14705
▁closest	-14706
▁courses	-14707
▁drained	-14708
▁embargo	-14709
▁enacted	-14710
▁environ	-14711
▁existed	-14712
▁fashion	-14713
▁filling	-14714
▁freshly	-14715
▁glucose	-14716
▁hamburg	-14717
▁holiday	-14718
▁insight	-14719
▁noticed	-14720
▁obvious	-14721
▁poorest	-14722
▁reserve	-14723
▁residue	-14724
▁sharply	-14725
▁student	-14726
▁survive	-14727
▁upwards	-14728
▁vanilla	-14729
▁vendors	-14730
▁virtual	-14731
Estimated	-14732
Household	-14733
President	-14734
iciencies	-14735
zerbaijan	-14736
▁2004-200	-14737
▁759-7505	-14738
▁759-7726	-14739
▁995-2121	-14740
▁996-0034	-14741
▁996-0688	-14742
▁996-2635	-14743
▁Bakeries	-14744
▁Croatian	-14745
▁Española	-14746
▁Heathrow	-14747
▁Interior	-14748
▁Kentucky	-14749
▁Magazine	-14750
▁Measured	-14751
▁Monetary	-14752
▁Projects	-14753
▁Santiago	-14754
▁Scallops	-14755
▁Students	-14756
▁Virginia	-14757
▁advisory	-14758
▁analyzed	-14759
▁captured	-14760
▁cherries	-14761
▁climbing	-14762
▁compares	-14763
▁conducts	-14764
▁constitu	-14765
▁download	-14766
▁franchis	-14767
▁granting	-14768
▁harvests	-14769
▁hydrogen	-14770
▁invented	-14771
▁linkages	-14772
▁minimize	-14773
▁occupied	-14774
▁optional	-14775
▁organize	-14776
▁periodic	-14777
▁premiums	-14778
▁pristine	-14779
▁pursuing	-14780
▁renowned	-14781
▁rigorous	-14782
▁sponsors	-14783
▁surprise	-14784
▁taxation	-14785
▁tendency	-14786
▁trucking	-14787
▁uncommon	-14788
▁utilized	-14789
Commission	-14790
Investment	-14791
▁1829/2003	-14792
▁Applicant	-14793
▁Financing	-14794
▁Husbandry	-14795
▁Important	-14796
▁Interview	-14797
▁Medicines	-14798
▁Southwest	-14799
▁Sunflower	-14800
▁advisable	-14801
▁aggregate	-14802
▁authorize	-14803
▁blueberry	-14804
▁carcasses	-14805
▁coldwater	-14806
▁dangerous	-14807
▁diligence	-14808
▁dimension	-14809
▁divisions	-14810
▁expecting	-14811
▁exploring	-14812
▁factories	-14813
▁featuring	-14814
▁fulfilled	-14815
▁healthful	-14816
▁mortality	-14817
▁multitude	-14818
▁necessity	-14819
▁numerical	-14820
▁recipient	-14821
▁seasoning	-14822
▁showcased	-14823
▁temperate	-14824
▁temporary	-14825
▁threshold	-14826
▁urbanized	-14827
Aquaculture	-14828
alimentaria	-14829
ultaneously	-14830
veloppement	-14831
▁Appetizers	-14832
▁Employment	-14833
▁Households	-14834
▁Laboratory	-14835
▁Organizing	-14836
▁References	-14837
▁accelerate	-14838
▁approaches	-14839
▁cafeterias	-14840
▁capitalize	-14841
▁committees	-14842
▁extraction	-14843
▁fragmented	-14844
▁implements	-14845
▁impression	-14846
▁logistical	-14847
▁marginally	-14848
▁microwaves	-14849
▁opposition	-14850
▁references	-14851
▁regardless	-14852
▁seasonings	-14853
▁separation	-14854
▁thoroughly	-14855
▁Fairgrounds	-14856
▁PRODUCTORES	-14857
▁Preferences	-14858
▁Procurement	-14859
▁accelerated	-14860
▁calculation	-14861
▁communicate	-14862
▁consolidate	-14863
▁continental	-14864
▁drastically	-14865
▁electronics	-14866
▁elimination	-14867
▁enlargement	-14868
▁exponential	-14869
▁importantly	-14870
▁influencing	-14871
▁inventories	-14872
▁negotiation	-14873
▁perceptions	-14874
▁propagation	-14875
▁undoubtedly	-14876
▁unprocessed	-14877
foodstandards	-14878
▁Certificates	-14879
▁Concentrated	-14880
▁Lebensmittel	-14881
▁Participants	-14882
▁Publications	-14883
▁demographics	-14884
▁environments	-14885
▁manufactures	-14886
▁modification	-14887
▁replacements	-14888
▁automatically	-14889
▁disadvantages	-14890
▁harmonization	-14891
▁administration	-14892
▁electronically	-14893
nutraingredients	-14894
.#	-14895
.'	-14896
05	-14897
4/	-14898
8.	-14899
AV	-14900
BB	-14901
GD	-14902
GU	-14903
LY	-14904
Ne	-14905
SH	-14906
bb	-14907
dc	-14908
km	-14909
mi	-14910
nb	-14911
pd	-14912
sl	-14913
xx	-14914
ám	-14915
én	-14916
üd	-14917
▁é	-14918
!""	-14919
)""	-14920
):"	-14921
-41	-14922
-6)	-14923
-79	-14924
-86	-14925
-98	-14926
.(5	-14927
.06	-14928
.13	-14929
/04	-14930
/09	-14931
/92	-14932
0%)	-14933
1-7	-14934
1.4	-14935
149	-14936
221	-14937
228	-14938
3-8	-14939
401	-14940
63,	-14941
64)	-14942
705	-14943
8%)	-14944
8-8	-14945
958	-14946
ACT	-14947
ANA	-14948
Any	-14949
BAS	-14950
Bev	-14951
Cdn	-14952
Des	-14953
FSA	-14954
ICK	-14955
INS	-14956
LAN	-14957
MOP	-14958
PER	-14959
QUE	-14960
Ray	-14961
Typ	-14962
UEL	-14963
UGA	-14964
VEN	-14965
YPE	-14966
adb	-14967
asa	-14968
aud	-14969
aux	-14970
bla	-14971
bra	-14972
cgi	-14973
cht	-14974
dar	-14975
esy	-14976
eta	-14977
gae	-14978
hui	-14979
isa	-14980
jas	-14981
mic	-14982
nac	-14983
neg	-14984
olm	-14985
orp	-14986
rar	-14987
rea	-14988
sec	-14989
sur	-14990
usa	-14991
▁"6	-14992
▁4:	-14993
▁AP	-14994
▁BF	-14995
▁BY	-14996
▁ER	-14997
▁Fe	-14998
▁HW	-14999
▁Il	-15000
▁Oy	-15001
▁bv	-15002
▁ci	-15003
▁rc	-15004
-100	-15005
-11,	-15006
-15,	-15007
-426	-15008
.5%,	-15009
Bulk	-15010
CBSC	-15011
FIES	-15012
Fast	-15013
Fill	-15014
Four	-15015
Free	-15016
Land	-15017
Marc	-15018
Port	-15019
SCFI	-15020
Ship	-15021
TURA	-15022
WEST	-15023
Year	-15024
acer	-15025
adia	-15026
ahua	-15027
amar	-15028
amel	-15029
amex	-15030
apua	-15031
arel	-15032
beef	-15033
bred	-15034
camp	-15035
chel	-15036
ctor	-15037
edia	-15038
etan	-15039
etsk	-15040
eved	-15041
feld	-15042
fere	-15043
hort	-15044
igma	-15045
ileg	-15046
irim	-15047
ishi	-15048
mist	-15049
nuts	-15050
oard	-15051
oban	-15052
obel	-15053
occo	-15054
oids	-15055
olas	-15056
oman	-15057
onde	-15058
ouch	-15059
raig	-15060
rang	-15061
[...]
