<unk>	0
<s>	0
</s>	0
▁d	-0
es	-1
en	-2
▁l	-3
on	-4
▁p	-5
▁de	-6
an	-7
ti	-8
▁c	-9
ur	-10
ent	-11
▁a	-12
er	-13
▁s	-14
in	-15
is	-16
re	-17
▁e	-18
qu	-19
it	-20
ar	-21
tion	-22
or	-23
▁m	-24
ro	-25
▁et	-26
al	-27
ment	-28
▁la	-29
▁des	-30
▁"	-31
te	-32
ation	-33
▁les	-34
."	-35
om	-36
ne	-37
ri	-38
▁le	-39
ou	-40
le	-41
▁à	-42
▁C	-43
il	-44
▁f	-45
ch	-46
▁t	-47
ré	-48
▁en	-49
que	-50
▁pro	-51
our	-52
us	-53
li	-54
ra	-55
res	-56
▁au	-57
▁du	-58
ort	-59
ant	-60
▁v	-61
00	-62
ont	-63
du	-64
▁2	-65
port	-66
ons	-67
ce	-68
ai	-69
▁u	-70
el	-71
au	-72
▁L	-73
ad	-74
és	-75
ci	-76
▁é	-77
▁produ	-78
▁n	-79
▁(	-80
▁b	-81
its	-82
ans	-83
omm	-84
ta	-85
im	-86
ol	-87
▁qu	-88
▁1	-89
▁par	-90
▁g	-91
as	-92
anad	-93
ag	-94
de	-95
ie	-96
teur	-97
est	-98
▁200	-99
▁pour	-100
▁pl	-101
▁A	-102
▁in	-103
▁S	-104
▁produits	-105
▁:	-106
ec	-107
iss	-108
▁dé	-109
▁P	-110
▁mar	-111
té	-112
me	-113
▁ex	-114
▁sur	-115
ale	-116
▁re	-117
▁que	-118
▁plus	-119
▁ré	-120
ien	-121
ul	-122
▁M	-123
os	-124
▁est	-125
ations	-126
▁un	-127
▁dans	-128
▁T	-129
ments	-130
ts	-131
import	-132
ff	-133
ic	-134
▁cons	-135
▁con	-136
▁une	-137
oi	-138
▁march	-139
anada	-140
né	-141
▁h	-142
__	-143
▁%	-144
ter	-145
ins	-146
▁I	-147
tre	-148
les	-149
op	-150
▁comm	-151
ab	-152
▁qui	-153
ers	-154
▁Canada	-155
▁D	-156
aux	-157
ac	-158
ve	-159
aires	-160
di	-161
ques	-162
ww	-163
ure	-164
se	-165
▁sont	-166
ric	-167
▁ch	-168
teurs	-169
▁o	-170
ité	-171
eu	-172
▁B	-173
and	-174
entre	-175
▁import	-176
▁ali	-177
aire	-178
at	-179
ex	-180
ys	-181
▁ce	-182
ni	-183
pr	-184
illi	-185
▁R	-186
ère	-187
ig	-188
▁ou	-189
tri	-190
▁aux	-191
▁av	-192
ine	-193
▁milli	-194
orm	-195
tr	-196
▁pré	-197
mb	-198
ap	-199
▁F	-200
lé	-201
▁su	-202
▁se	-203
ance	-204
ir	-205
▁ma	-206
ang	-207
▁marché	-208
▁E	-209
urs	-210
gi	-211
anadien	-212
ali	-213
▁mo	-214
▁com	-215
ée	-216
▁pa	-217
▁canadien	-218
nes	-219
am	-220
ande	-221
ces	-222
▁r	-223
si	-224
▁pr	-225
▁ag	-226
▁Les	-227
▁an	-228
▁N	-229
end	-230
▁commer	-231
▁entre	-232
tu	-233
ouv	-234
▁ont	-235
▁•	-236
▁j	-237
che	-238
ants	-239
▁3	-240
un	-241
▁tr	-242
▁export	-243
ées	-244
erv	-245
tte	-246
tes	-247
▁ac	-248
ous	-249
▁pays	-250
elle	-251
▁In	-252
ès	-253
age	-254
▁ra	-255
▁Le	-256
▁di	-257
ction	-258
form	-259
ateurs	-260
pris	-261
ique	-262
ait	-263
▁5	-264
mentaires	-265
▁pas	-266
▁G	-267
▁consomm	-268
ales	-269
sent	-270
▁sec	-271
oc	-272
▁4	-273
____	-274
▁po	-275
▁millions	-276
▁Té	-277
www	-278
olo	-279
cip	-280
tique	-281
ue	-282
▁19	-283
pp	-284
ux	-285
Les	-286
ture	-287
▁comp	-288
ten	-289
ines	-290
ais	-291
En	-292
oll	-293
▁-	-294
ite	-295
um	-296
ge	-297
pe	-298
ven	-299
▁avec	-300
mp	-301
tres	-302
▁res	-303
▁La	-304
onom	-305
dus	-306
tif	-307
▁V	-308
lle	-309
▁O	-310
▁trans	-311
iv	-312
ru	-313
▁6	-314
et	-315
ér	-316
▁aliments	-317
▁parti	-318
ois	-319
▁commerci	-320
ard	-321
▁H	-322
ence	-323
▁dis	-324
ég	-325
dustri	-326
▁bi	-327
▁É	-328
ca	-329
▁ne	-330
ille	-331
ion	-332
▁peu	-333
oit	-334
tt	-335
ères	-336
incip	-337
vent	-338
▁gr	-339
rou	-340
bre	-341
▁tou	-342
▁pri	-343
par	-344
nation	-345
▁9	-346
tis	-347
▁U	-348
nement	-349
éri	-350
isse	-351
ars	-352
éné	-353
bu	-354
ot	-355
▁princip	-356
▁il	-357
▁Ch	-358
▁inter	-359
ord	-360
une	-361
id	-362
▁7	-363
▁cont	-364
gment	-365
ari	-366
roali	-367
▁J	-368
▁doll	-369
▁sa	-370
bli	-371
être	-372
▁entrepris	-373
▁secteur	-374
mi	-375
per	-376
▁te	-377
til	-378
ulture	-379
▁alimentaires	-380
▁dollars	-381
Le	-382
alis	-383
alement	-384
ist	-385
pos	-386
▁cro	-387
eur	-388
ves	-389
▁exportations	-390
mentaire	-391
),	-392
▁nom	-393
tive	-394
nées	-395
▁agric	-396
oci	-397
ond	-398
▁"•	-399
▁vent	-400
ologi	-401
▁importations	-402
conom	-403
ui	-404
▁conc	-405
ss	-406
od	-407
▁ces	-408
cu	-409
aleur	-410
ing	-411
▁rep	-412
ents	-413
ble	-414
mes	-415
▁»	-416
tions	-417
ét	-418
dustrie	-419
ouver	-420
▁été	-421
tin	-422
fi	-423
▁8	-424
▁valeur	-425
▁tra	-426
▁être	-427
▁2005	-428
able	-429
av	-430
formation	-431
▁prix	-432
//	-433
ttp	-434
▁$	-435
▁éta	-436
▁cer	-437
://	-438
▁acc	-439
▁2004	-440
▁entreprises	-441
ill	-442
ours	-443
tiques	-444
agne	-445
▁http	-446
tats	-447
0,	-448
▁leur	-449
▁per	-450
▁199	-451
▁K	-452
▁Télé	-453
▁augment	-454
rec	-455
La	-456
export	-457
éd	-458
oir	-459
▁rap	-460
la	-461
▁géné	-462
issance	-463
ens	-464
▁Ag	-465
▁«	-466
mé	-467
▁production	-468
▁canadiens	-469
..	-470
ass	-471
oy	-472
000	-473
▁app	-474
urop	-475
tribu	-476
uis	-477
ème	-478
résent	-479
ités	-480
▁produit	-481
née	-482
▁www	-483
lev	-484
▁dem	-485
ong	-486
▁marchés	-487
▁comme	-488
▁nombre	-489
industrie	-490
org	-491
▁fru	-492
▁mon	-493
▁serv	-494
▁four	-495
ise	-496
ph	-497
▁ses	-498
riel	-499
riculture	-500
▁représent	-501
▁pos	-502
vel	-503
▁vi	-504
________	-505
issons	-506
▁W	-507
mar	-508
pé	-509
▁agroali	-510
▁dev	-511
▁don	-512
▁2003	-513
▁bo	-514
▁co	-515
aient	-516
vers	-517
velop	-518
ls	-519
▁Inter	-520
gc	-521
▁régi	-522
)."	-523
ma	-524
ob	-525
ante	-526
cher	-527
com	-528
▁consommateurs	-529
▁internation	-530
▁ob	-531
enne	-532
co	-533
▁cette	-534
pec	-535
titu	-536
elles	-537
▁présent	-538
gra	-539
ies	-540
ili	-541
▁es	-542
▁fruits	-543
▁fra	-544
▁000	-545
▁biologi	-546
▁croissance	-547
▁Tél	-548
▁États	-549
ense	-550
vir	-551
▁y	-552
alité	-553
UE	-554
Un	-555
▁déta	-556
▁Pro	-557
▁2006	-558
viron	-559
▁leurs	-560
▁2002	-561
▁Téléc	-562
▁ter	-563
▁moy	-564
▁off	-565
lement	-566
net	-567
ood	-568
▁son	-569
▁consommation	-570
chés	-571
▁deux	-572
▁pre	-573
▁mais	-574
▁demande	-575
trang	-576
ué	-577
▁tot	-578
onnes	-579
▁commerce	-580
anis	-581
rés	-582
▁canadiennes	-583
▁dép	-584
ême	-585
emb	-586
orte	-587
ouvernement	-588
▁ca	-589
bl	-590
▁CA	-591
▁lég	-592
all	-593
tilis	-594
isson	-595
ica	-596
▁ég	-597
tière	-598
▁grand	-599
ient	-600
▁fait	-601
▁ét	-602
▁car	-603
13	-604
ors	-605
▁no	-606
ices	-607
Uni	-608
tra	-609
▁dévelop	-610
llem	-611
▁premi	-612
rit	-613
▁sou	-614
ussi	-615
tiv	-616
▁autres	-617
ole	-618
▁mer	-619
▁ventes	-620
ards	-621
ateur	-622
era	-623
▁distribu	-624
itu	-625
▁min	-626
ON	-627
▁économ	-628
ubli	-629
▁déc	-630
▁Su	-631
opul	-632
pement	-633
▁vers	-634
chn	-635
▁sau	-636
ourriel	-637
min	-638
▁al	-639
▁Internet	-640
▁exp	-641
1,	-642
oles	-643
iques	-644
▁génér	-645
nu	-646
AC	-647
insi	-648
Unis	-649
enti	-650
ffaires	-651
gie	-652
▁eff	-653
st	-654
ures	-655
-2	-656
nent	-657
des	-658
nements	-659
int	-660
▁étrang	-661
▁gouvernement	-662
sp	-663
▁Mex	-664
▁popul	-665
▁également	-666
▁direc	-667
▁Courriel	-668
▁cha	-669
IC	-670
ES	-671
▁fin	-672
▁rapport	-673
ises	-674
olu	-675
▁si	-676
oire	-677
▁Comm	-678
▁bien	-679
app	-680
apon	-681
▁dont	-682
orc	-683
elon	-684
▁poisson	-685
▁pê	-686
▁0	-687
tor	-688
serv	-689
▁années	-690
ences	-691
vis	-692
ov	-693
▁der	-694
▁élev	-695
▁qualité	-696
oivent	-697
ition	-698
ner	-699
exportation	-700
eau	-701
▁peut	-702
▁région	-703
▁suiv	-704
▁gra	-705
▁:"	-706
rait	-707
él	-708
▁amé	-709
ages	-710
près	-711
lu	-712
▁aussi	-713
eux	-714
▁même	-715
▁fourn	-716
importation	-717
▁inté	-718
▁frais	-719
anté	-720
rica	-721
▁doivent	-722
▁ph	-723
▁agricoles	-724
ils	-725
▁derni	-726
▁ainsi	-727
In	-728
èg	-729
ouve	-730
antes	-731
he	-732
▁im	-733
▁fab	-734
ide	-735
▁biologiques	-736
▁ad	-737
▁exportateurs	-738
▁10	-739
▁ass	-740
ice	-741
AN	-742
uropé	-743
▁–	-744
▁Ex	-745
▁diff	-746
bles	-747
▁très	-748
▁pass	-749
▁services	-750
onne	-751
▁certa	-752
50	-753
péci	-754
dition	-755
anc	-756
EN	-757
ire	-758
▁milliards	-759
▁taux	-760
ade	-761
▁oc	-762
▁(6	-763
ellement	-764
▁faire	-765
▁20	-766
▁europé	-767
autres	-768
acc	-769
tru	-770
▁vis	-771
TI	-772
▁Chine	-773
▁viande	-774
▁année	-775
ication	-776
▁développement	-777
▁part	-778
▁soit	-779
ange	-780
▁moins	-781
▁Il	-782
▁li	-783
▁bas	-784
▁rég	-785
ches	-786
ente	-787
▁on	-788
▁pe	-789
▁spéci	-790
▁détail	-791
organis	-792
gel	-793
▁non	-794
▁boissons	-795
éra	-796
▁fa	-797
fin	-798
▁grande	-799
▁Re	-800
▁rais	-801
▁jus	-802
▁hab	-803
▁nation	-804
▁Mexique	-805
▁and	-806
cess	-807
▁k	-808
rée	-809
act	-810
▁1,	-811
aut	-812
puis	-813
▁sal	-814
én	-815
lles	-816
▁rec	-817
aliments	-818
▁ti	-819
▁mes	-820
endant	-821
iste	-822
mbre	-823
▁of	-824
ici	-825
▁dou	-826
taur	-827
▁pers	-828
▁Food	-829
▁tonnes	-830
▁recher	-831
ress	-832
10	-833
▁2007	-834
▁publi	-835
▁matière	-836
out	-837
rent	-838
▁Q	-839
▁tro	-840
els	-841
emp	-842
mentation	-843
▁En	-844
ane	-845
▁peuvent	-846
enseig	-847
na	-848
▁produc	-849
▁santé	-850
tives	-851
ver	-852
gré	-853
▁at	-854
▁transform	-855
ut	-856
▁suc	-857
éta	-858
été	-859
tisse	-860
ote	-861
aille	-862
ier	-863
endre	-864
▁cours	-865
ats	-866
rg	-867
▁population	-868
▁tout	-869
mo	-870
rig	-871
▁augmenté	-872
llemagne	-873
anti	-874
-3	-875
urr	-876
▁fabric	-877
▁dim	-878
aï	-879
▁12	-880
▁tous	-881
▁principaux	-882
▁utilis	-883
▁prépar	-884
▁inf	-885
mon	-886
umes	-887
▁peti	-888
Ce	-889
ocu	-890
▁environ	-891
▁Pa	-892
▁restaur	-893
permar	-894
▁pêche	-895
rées	-896
inf	-897
▁memb	-898
▁nouve	-899
De	-900
ilité	-901
▁agricole	-902
mment	-903
istère	-904
spagne	-905
▁proven	-906
▁loc	-907
▁avant	-908
▁vente	-909
ran	-910
culi	-911
-1	-912
▁dro	-913
use	-914
▁main	-915
▁porc	-916
Au	-917
▁règ	-918
chnolo	-919
iti	-920
▁15	-921
▁atte	-922
oup	-923
▁dom	-924
▁particuli	-925
jet	-926
ource	-927
▁exig	-928
▁certif	-929
enseignements	-930
▁dimin	-931
▁sé	-932
entrepris	-933
ode	-934
tage	-935
ables	-936
▁cl	-937
▁partie	-938
▁américa	-939
▁importés	-940
▁fac	-941
sie	-942
▁Ce	-943
▁CAD	-944
▁Mar	-945
vestisse	-946
,5	-947
▁ha	-948
▁ent	-949
▁doit	-950
▁soci	-951
▁conf	-952
lus	-953
mble	-954
▁Cons	-955
▁monde	-956
▁coû	-957
▁actu	-958
ez	-959
usse	-960
gram	-961
▁Japon	-962
ace	-963
▁mag	-964
▁ju	-965
▁né	-966
uses	-967
▁cas	-968
étique	-969
▁marque	-970
13)	-971
tég	-972
sra	-973
▁concurr	-974
ources	-975
dre	-976
aine	-977
▁canadienne	-978
ub	-979
▁(613)	-980
▁rela	-981
▁raison	-982
tic	-983
▁(2	-984
▁»,	-985
▁mondi	-986
▁ren	-987
eb	-988
rer	-989
).	-990
ilipp	-991
mis	-992
ions	-993
ult	-994
▁constitu	-995
▁sous	-996
tenir	-997
▁cent	-998
év	-999
tivement	-1000
▁gro	-1001
▁anim	-1002
ela	-1003
▁*	-1004
exp	-1005
roalimentaire	-1006
erie	-1007
▁2005,	-1008
ets	-1009
▁év	-1010
tifs	-1011
permarchés	-1012
▁cap	-1013
▁cré	-1014
agriculture	-1015
▁contin	-1016
11	-1017
ht	-1018
cep	-1019
On	-1020
▁trou	-1021
▁18	-1022
▁rép	-1023
▁trois	-1024
one	-1025
▁consid	-1026
▁DE	-1027
▁port	-1028
raient	-1029
information	-1030
ép	-1031
tronom	-1032
▁Ph	-1033
chnologie	-1034
________________	-1035
▁ni	-1036
▁ins	-1037
▁prov	-1038
▁transformation	-1039
nique	-1040
▁magas	-1041
▁for	-1042
▁prof	-1043
èrement	-1044
éré	-1045
IB	-1046
iens	-1047
▁man	-1048
▁organis	-1049
Pour	-1050
▁chi	-1051
vre	-1052
▁men	-1053
ate	-1054
▁reven	-1055
▁depuis	-1056
▁économique	-1057
▁renseignements	-1058
Il	-1059
arg	-1060
▁toute	-1061
ances	-1062
▁fournisse	-1063
▁poli	-1064
▁form	-1065
▁prop	-1066
ign	-1067
AL	-1068
▁moyen	-1069
ître	-1070
▁base	-1071
▁ar	-1072
▁ri	-1073
iles	-1074
▁réf	-1075
Ag	-1076
résil	-1077
▁2001	-1078
▁moyenne	-1079
▁fi	-1080
ttes	-1081
▁international	-1082
reg	-1083
téri	-1084
fs	-1085
agn	-1086
ière	-1087
urope	-1088
▁annu	-1089
▁divers	-1090
▁recherche	-1091
▁commerciaux	-1092
atur	-1093
▁perme	-1094
gu	-1095
fois	-1096
▁cli	-1097
▁vous	-1098
alie	-1099
resse	-1100
yst	-1101
orig	-1102
▁légumes	-1103
▁Commer	-1104
▁habit	-1105
▁où	-1106
ième	-1107
▁rou	-1108
▁Produ	-1109
Par	-1110
élé	-1111
▁modi	-1112
▁marchand	-1113
part	-1114
céd	-1115
entes	-1116
▁alimentaire	-1117
tari	-1118
▁possi	-1119
TION	-1120
mbass	-1121
▁ans	-1122
eront	-1123
agr	-1124
▁indi	-1125
olume	-1126
ommes	-1127
▁situ	-1128
ll	-1129
▁On	-1130
alisation	-1131
htm	-1132
équ	-1133
▁norm	-1134
▁sta	-1135
▁concer	-1136
▁2000	-1137
▁chiff	-1138
conomie	-1139
▁Roy	-1140
CE	-1141
Dans	-1142
-7	-1143
ay	-1144
va	-1145
▁chaî	-1146
▁nous	-1147
▁déb	-1148
▁hausse	-1149
19	-1150
oli	-1151
▁européenne	-1152
df	-1153
quer	-1154
eil	-1155
tér	-1156
▁Min	-1157
▁Serv	-1158
▁membres	-1159
,8	-1160
issement	-1161
▁docu	-1162
dients	-1163
▁devrait	-1164
éli	-1165
AR	-1166
UR	-1167
▁(3	-1168
▁important	-1169
▁De	-1170
▁producteurs	-1171
▁fai	-1172
▁éch	-1173
,3	-1174
jou	-1175
▁seu	-1176
▁rapide	-1177
tée	-1178
▁Sud	-1179
▁cour	-1180
éch	-1181
▁compte	-1182
▁nouv	-1183
▁st	-1184
▁Col	-1185
alimentation	-1186
US	-1187
ct	-1188
OM	-1189
▁desti	-1190
tivités	-1191
ser	-1192
ôte	-1193
▁forte	-1194
bie	-1195
-8	-1196
omme	-1197
oration	-1198
eure	-1199
tement	-1200
▁conna	-1201
▁16	-1202
ICan	-1203
▁30	-1204
▁magasins	-1205
▁distribution	-1206
▁péri	-1207
▁agroalimentaire	-1208
,4	-1209
ites	-1210
çon	-1211
....	-1212
▁ten	-1213
▁2004,	-1214
nam	-1215
▁13	-1216
land	-1217
ieurs	-1218
▁ache	-1219
▁syst	-1220
vision	-1221
▁(4	-1222
▁CICan	-1223
ociation	-1224
,2	-1225
ia	-1226
çu	-1227
▁pâ	-1228
▁selon	-1229
▁prév	-1230
▁tend	-1231
-4	-1232
der	-1233
illes	-1234
ission	-1235
sion	-1236
tégor	-1237
▁temp	-1238
▁vari	-1239
mbassade	-1240
,6	-1241
▁AAC	-1242
▁PIB	-1243
-6	-1244
ël	-1245
▁14	-1246
ritan	-1247
▁près	-1248
aume	-1249
▁100	-1250
▁Isra	-1251
ennent	-1252
▁Fr	-1253
▁fon	-1254
▁nouveaux	-1255
▁US	-1256
urer	-1257
▁congel	-1258
▁différ	-1259
,7	-1260
▁0,	-1261
▁23	-1262
▁rédu	-1263
entreprise	-1264
▁vo	-1265
ieu	-1266
ôle	-1267
▁sub	-1268
▁commerciale	-1269
ENT	-1270
▁50	-1271
▁cr	-1272
▁était	-1273
▁Royaume	-1274
▁marchandises	-1275
,9	-1276
pes	-1277
▁An	-1278
▁saumon	-1279
▁Agriculture	-1280
▁Un	-1281
▁fer	-1282
▁afin	-1283
▁général	-1284
▁supermarchés	-1285
tario	-1286
▁esp	-1287
▁Cont	-1288
▁volume	-1289
oû	-1290
ingap	-1291
▁22	-1292
▁sans	-1293
▁public	-1294
▁elle	-1295
▁accord	-1296
72	-1297
ax	-1298
▁quel	-1299
▁compr	-1300
mpl	-1301
▁nu	-1302
tent	-1303
▁fois	-1304
▁Brésil	-1305
▁program	-1306
oute	-1307
▁Tra	-1308
▁long	-1309
▁droits	-1310
▁premier	-1311
▁dernières	-1312
éc	-1313
ach	-1314
bec	-1315
▁nécess	-1316
▁données	-1317
▁inc	-1318
AS	-1319
▁25	-1320
iter	-1321
atoire	-1322
▁biote	-1323
▁particip	-1324
ER	-1325
▁établi	-1326
▁Philipp	-1327
ico	-1328
▁Sh	-1329
entif	-1330
▁habitant	-1331
-0	-1332
▁dur	-1333
▁emb	-1334
Allemagne	-1335
estion	-1336
▁animaux	-1337
th	-1338
anne	-1339
économie	-1340
▁catégor	-1341
▁commerciales	-1342
▁cin	-1343
▁dés	-1344
▁11	-1345
▁plan	-1346
▁ingré	-1347
▁(5	-1348
▁as	-1349
tamment	-1350
graph	-1351
▁ab	-1352
eso	-1353
tés	-1354
to	-1355
core	-1356
coup	-1357
▁imp	-1358
aines	-1359
▁Export	-1360
▁toutes	-1361
affaires	-1362
▁ty	-1363
▁transport	-1364
position	-1365
▁étrangères	-1366
▁ils	-1367
fic	-1368
▁17	-1369
Espagne	-1370
▁aff	-1371
▁gam	-1372
lande	-1373
og	-1374
uni	-1375
rodu	-1376
▁pou	-1377
inter	-1378
dent	-1379
▁nive	-1380
▁établ	-1381
eaucoup	-1382
appro	-1383
▁mont	-1384
ération	-1385
▁Singap	-1386
▁dépens	-1387
▁%."	-1388
▁autre	-1389
origine	-1390
▁conten	-1391
▁normes	-1392
tat	-1393
▁lait	-1394
▁jusqu	-1395
environ	-1396
▁industri	-1397
▁compos	-1398
▁encore	-1399
▁période	-1400
▁St	-1401
▁Web	-1402
▁exemp	-1403
▁commercial	-1404
▁plu	-1405
ureau	-1406
ouchés	-1407
▁mesure	-1408
▁lors	-1409
▁ci	-1410
iser	-1411
▁vol	-1412
▁tour	-1413
▁respec	-1414
▁plusieurs	-1415
issent	-1416
▁parten	-1417
▁biologique	-1418
œu	-1419
loit	-1420
mport	-1421
▁ind	-1422
▁rés	-1423
ensemble	-1424
▁beso	-1425
ditions	-1426
ditionne	-1427
▁(1	-1428
▁Di	-1429
ustr	-1430
▁den	-1431
▁rel	-1432
Union	-1433
uébec	-1434
▁appro	-1435
▁certains	-1436
▁fonction	-1437
▁/	-1438
venir	-1439
▁contr	-1440
national	-1441
▁fournisseurs	-1442
▁Agroalimentaire	-1443
onc	-1444
avant	-1445
éro	-1446
▁vin	-1447
▁site	-1448
▁ver	-1449
▁transformés	-1450
wa	-1451
étés	-1452
▁Commerce	-1453
▁beaucoup	-1454
hui	-1455
▁mal	-1456
▁réc	-1457
▁Au	-1458
▁alors	-1459
try	-1460
▁th	-1461
▁cor	-1462
aison	-1463
▁pres	-1464
iet	-1465
▁ess	-1466
▁lim	-1467
▁provenance	-1468
▁principales	-1469
▁exigences	-1470
-5	-1471
pa	-1472
▁%,	-1473
▁Cor	-1474
▁ven	-1475
oires	-1476
ber	-1477
▁régions	-1478
▁représente	-1479
tta	-1480
▁mex	-1481
érable	-1482
▁autor	-1483
20	-1484
▁"«	-1485
▁(9	-1486
▁façon	-1487
▁plupart	-1488
lan	-1489
▁éc	-1490
▁gros	-1491
▁quanti	-1492
▁activités	-1493
▁Philippines	-1494
IS	-1495
indre	-1496
tivité	-1497
▁fond	-1498
▁provin	-1499
▁Singapour	-1500
▁Par	-1501
td	-1502
▁ajou	-1503
apport	-1504
▁gamme	-1505
IN	-1506
▁grou	-1507
tières	-1508
▁prê	-1509
▁2002,	-1510
ritannique	-1511
avor	-1512
orme	-1513
▁deme	-1514
ableau	-1515
▁étaient	-1516
étiquetage	-1517
lec	-1518
▁ach	-1519
amp	-1520
motion	-1521
▁permis	-1522
▁revenu	-1523
▁ingrédients	-1524
ché	-1525
▁coll	-1526
▁poissons	-1527
▁principalement	-1528
▁Com	-1529
▁seulement	-1530
alu	-1531
oni	-1532
▁Uni	-1533
bil	-1534
.1	-1535
CI	-1536
▁détaill	-1537
-9	-1538
man	-1539
▁fourni	-1540
▁mexica	-1541
èmes	-1542
▁cel	-1543
▁esti	-1544
▁marques	-1545
fé	-1546
oul	-1547
▁Car	-1548
▁disp	-1549
.,	-1550
anci	-1551
▁maj	-1552
▁ceux	-1553
▁dépenses	-1554
,1	-1555
▁60	-1556
▁notamment	-1557
▁sup	-1558
inois	-1559
ietnam	-1560
chnologi	-1561
air	-1562
off	-1563
nant	-1564
ATION	-1565
ombie	-1566
▁ministère	-1567
80	-1568
▁Pays	-1569
▁étrangers	-1570
enc	-1571
ues	-1572
asse	-1573
▁enreg	-1574
▁Service	-1575
▁importante	-1576
vier	-1577
▁million	-1578
oût	-1579
▁nég	-1580
▁sci	-1581
istre	-1582
▁favor	-1583
lements	-1584
▁nombreux	-1585
▁ba	-1586
▁met	-1587
eille	-1588
▁Nord	-1589
▁cinq	-1590
▁céré	-1591
▁place	-1592
▁débouchés	-1593
ds	-1594
ore	-1595
▁élevé	-1596
ssociation	-1597
att	-1598
▁pra	-1599
▁total	-1600
imp	-1601
▁étu	-1602
▁stra	-1603
▁chaque	-1604
▁entreprise	-1605
mark	-1606
▁Aper	-1607
▁promotion	-1608
DA	-1609
▁Al	-1610
▁vend	-1611
▁système	-1612
lementation	-1613
niques	-1614
▁laiti	-1615
vestissement	-1616
érique	-1617
▁2003,	-1618
gov	-1619
onn	-1620
▁Bo	-1621
▁Th	-1622
abilité	-1623
▁France	-1624
▁natur	-1625
su	-1626
cri	-1627
aci	-1628
ansion	-1629
▁allem	-1630
▁Québec	-1631
anges	-1632
tenant	-1633
cop	-1634
adresse	-1635
▁compar	-1636
▁Conseil	-1637
ront	-1638
▁hom	-1639
anvier	-1640
pection	-1641
pons	-1642
▁blé	-1643
Selon	-1644
▁pouv	-1645
utilis	-1646
▁secteurs	-1647
oun	-1648
arge	-1649
▁pommes	-1650
▁Y	-1651
▁jour	-1652
▁Direc	-1653
▁étant	-1654
▁importateurs	-1655
▁biotechnologie	-1656
▁méd	-1657
dfait	-1658
pendant	-1659
▁40	-1660
▁ress	-1661
▁Contact	-1662
vé	-1663
mae	-1664
oix	-1665
oient	-1666
usines	-1667
▁avoir	-1668
▁votre	-1669
▁Rapport	-1670
ow	-1671
cup	-1672
maeci	-1673
▁straté	-1674
▁grandes	-1675
▁pendant	-1676
▁mé	-1677
▁Colombie	-1678
▁24	-1679
▁Du	-1680
alisé	-1681
fique	-1682
▁déter	-1683
▁2002."	-1684
▁change	-1685
▁commun	-1686
GM	-1687
ras	-1688
Inde	-1689
▁fig	-1690
andes	-1691
▁point	-1692
térieur	-1693
▁diminué	-1694
Agriculture	-1695
▁restaurants	-1696
▁auprès	-1697
io	-1698
▁so	-1699
▁temps	-1700
▁répond	-1701
▁mention	-1702
▁vie	-1703
▁viv	-1704
▁font	-1705
▁Cette	-1706
▁grands	-1707
ceu	-1708
fici	-1709
▁coûts	-1710
▁offre	-1711
angl	-1712
anit	-1713
voir	-1714
jours	-1715
▁modifi	-1716
fication	-1717
▁PR	-1718
élev	-1719
▁Centre	-1720
▁faible	-1721
cc	-1722
ib	-1723
▁Se	-1724
▁préc	-1725
▁observ	-1726
▁che	-1727
ttawa	-1728
eng	-1729
pte	-1730
année	-1731
▁mise	-1732
▁intéri	-1733
▁respons	-1734
lic	-1735
▁Sa	-1736
▁denrées	-1737
▁disponi	-1738
▁Ambassade	-1739
fil	-1740
qui	-1741
▁%),	-1742
▁lum	-1743
▁sera	-1744
▁trava	-1745
mérique	-1746
,0	-1747
let	-1748
rir	-1749
yant	-1750
▁Mal	-1751
▁inst	-1752
▁principal	-1753
▁Z	-1754
sence	-1755
▁donc	-1756
allage	-1757
ock	-1758
rab	-1759
Ontario	-1760
▁conditions	-1761
▁détaillants	-1762
lè	-1763
▁terre	-1764
▁contri	-1765
▁chinois	-1766
▁empl	-1767
▁dispos	-1768
▁devraient	-1769
TE	-1770
tant	-1771
▁1999	-1772
▁Hong	-1773
12	-1774
▁&	-1775
▁mois	-1776
▁première	-1777
▁américains	-1778
lée	-1779
enez	-1780
tient	-1781
▁après	-1782
▁Ne	-1783
cool	-1784
tériel	-1785
ak	-1786
▁gl	-1787
▁mét	-1788
▁1998	-1789
▁supéri	-1790
ôt	-1791
orer	-1792
az	-1793
erc	-1794
Europe	-1795
tilles	-1796
▁2001,	-1797
▁élevés	-1798
▁nationale	-1799
OR	-1800
istes	-1801
▁Nouv	-1802
▁is	-1803
▁Inc	-1804
▁Israël	-1805
▁Ottawa	-1806
▁financi	-1807
▁détermin	-1808
▁Information	-1809
▁déj	-1810
▁janvier	-1811
her	-1812
rier	-1813
▁prog	-1814
anger	-1815
▁celui	-1816
▁japon	-1817
tention	-1818
30	-1819
RE	-1820
info	-1821
▁totale	-1822
▁conserv	-1823
ges	-1824
food	-1825
▁poi	-1826
▁pâtes	-1827
▁exemple	-1828
59	-1829
ed	-1830
lo	-1831
ectu	-1832
▁Trade	-1833
▁japonais	-1834
▁personne	-1835
▁Des	-1836
▁Ltd	-1837
gique	-1838
▁café	-1839
▁nord	-1840
▁facteurs	-1841
uela	-1842
▁Affaires	-1843
▁céréales	-1844
▁intéress	-1845
xe	-1846
issant	-1847
▁probl	-1848
▁meille	-1849
▁compris	-1850
▁cad	-1851
▁fran	-1852
▁concurrence	-1853
▁représentent	-1854
arma	-1855
▁affaires	-1856
▁laitiers	-1857
▁situation	-1858
▁fabrication	-1859
▁riz	-1860
eures	-1861
phone	-1862
enezuela	-1863
▁obtenir	-1864
▁personnes	-1865
.2	-1866
▁cher	-1867
▁toujours	-1868
▁règlements	-1869
▁op	-1870
lace	-1871
acité	-1872
▁puis	-1873
▁tels	-1874
▁libre	-1875
▁permet	-1876
▁conform	-1877
▁Ces	-1878
▁Mont	-1879
ouvent	-1880
▁Profil	-1881
▁diminu	-1882
▁niveau	-1883
▁surgel	-1884
eurs	-1885
▁Import	-1886
▁traditionne	-1887
▁augmentation	-1888
tac	-1889
▁sig	-1890
avantage	-1891
CEE	-1892
uss	-1893
wan	-1894
▁ayant	-1895
▁mondiale	-1896
CAN	-1897
nés	-1898
ieux	-1899
▁bon	-1900
▁tari	-1901
▁partir	-1902
▁génétique	-1903
▁actuellement	-1904
investissement	-1905
ert	-1906
ron	-1907
▁destin	-1908
▁réfrig	-1909
▁Vietnam	-1910
▁col	-1911
stitu	-1912
▁matières	-1913
▁politique	-1914
▁internationaux	-1915
5)	-1916
Bas	-1917
▁liste	-1918
▁sucre	-1919
▁contra	-1920
▁contre	-1921
▁Venezuela	-1922
rop	-1923
▁%)	-1924
ocol	-1925
Toute	-1926
▁national	-1927
14	-1928
mer	-1929
▁rouge	-1930
▁atteint	-1931
▁continu	-1932
▁Bar	-1933
▁cuis	-1934
cessus	-1935
▁Allemagne	-1936
▁26	-1937
égét	-1938
▁matériel	-1939
▁distributeurs	-1940
▁internationale	-1941
truc	-1942
augment	-1943
▁fam	-1944
▁végét	-1945
▁consul	-1946
▁tendance	-1947
▁investisse	-1948
▁restauration	-1949
CA	-1950
tout	-1951
▁Source	-1952
▁terres	-1953
▁souvent	-1954
inspection	-1955
▁relations	-1956
▁mén	-1957
▁chaînes	-1958
▁processus	-1959
jets	-1960
▁lieu	-1961
▁préf	-1962
▁clients	-1963
▁congelés	-1964
lar	-1965
uide	-1966
▁Rus	-1967
rgenti	-1968
▁celle	-1969
▁celles	-1970
Toutefois	-1971
ok	-1972
▁Sec	-1973
▁poin	-1974
▁elles	-1975
▁taille	-1976
▁annuelle	-1977
▁fabricants	-1978
▁supp	-1979
▁expos	-1980
▁2005."	-1981
▁importé	-1982
▁catégorie	-1983
aly	-1984
don	-1985
roître	-1986
▁contrôle	-1987
âce	-1988
▁espagn	-1989
issements	-1990
fr	-1991
MENT	-1992
▁Ali	-1993
▁Con	-1994
▁douan	-1995
▁étique	-1996
rgentine	-1997
ustralie	-1998
▁deuxième	-1999
▁maintenant	-2000
tier	-2001
cembre	-2002
▁Produits	-2003
▁programme	-2004
ich	-2005
crip	-2006
ienne	-2007
lescop	-2008
léments	-2009
▁Co	-2010
ades	-2011
html	-2012
lique	-2013
▁Espagne	-2014
▁pourrait	-2015
▁Ministère	-2016
Est	-2017
aie	-2018
cas	-2019
▁té	-2020
urent	-2021
▁2003."	-2022
▁Russie	-2023
▁politiques	-2024
êt	-2025
▁vra	-2026
anemark	-2027
tructure	-2028
istr	-2029
isation	-2030
▁directeur	-2031
5,	-2032
Bien	-2033
▁mis	-2034
isées	-2035
▁tech	-2036
olution	-2037
▁concernant	-2038
ène	-2039
odes	-2040
▁lui	-2041
▁vue	-2042
▁Cent	-2043
▁documents	-2044
▁destination	-2045
ja	-2046
euf	-2047
▁28	-2048
Cette	-2049
bilités	-2050
▁Nouvelle	-2051
▁nouvelles	-2052
gne	-2053
▁29	-2054
▁donné	-2055
▁soient	-2056
▁certification	-2057
rom	-2058
ieur	-2059
onde	-2060
État	-2061
érés	-2062
ision	-2063
▁type	-2064
▁baisse	-2065
▁mesures	-2066
▁contribu	-2067
▁spécialis	-2068
approvision	-2069
▁importants	-2070
▁rapidement	-2071
▁réglementation	-2072
▁mi	-2073
acts	-2074
andis	-2075
bilité	-2076
ity	-2077
▁har	-2078
orité	-2079
entrée	-2080
▁scientif	-2081
▁acheteurs	-2082
▁atteindre	-2083
▁ép	-2084
▁liv	-2085
ément	-2086
▁chocol	-2087
▁permett	-2088
▁surtout	-2089
▁enregist	-2090
atre	-2091
▁197	-2092
talie	-2093
▁rang	-2094
iennent	-2095
▁sources	-2096
▁davantage	-2097
▁ressources	-2098
▁technologi	-2099
vi	-2100
ril	-2101
rganis	-2102
évrier	-2103
▁passé	-2104
▁repas	-2105
Univers	-2106
▁emball	-2107
▁conséqu	-2108
▁certaines	-2109
men	-2110
▁27	-2111
cell	-2112
médi	-2113
tric	-2114
illet	-2115
emballage	-2116
▁Danemark	-2117
▁volaille	-2118
▁Téléphone	-2119
TA	-2120
Ces	-2121
ède	-2122
▁198	-2123
▁mai	-2124
ograph	-2125
▁Europe	-2126
▁service	-2127
icat	-2128
▁nos	-2129
▁poss	-2130
▁tant	-2131
▁connu	-2132
▁résul	-2133
▁alcool	-2134
▁tandis	-2135
▁effectu	-2136
▁organismes	-2137
ton	-2138
ètres	-2139
▁nutri	-2140
▁chaîne	-2141
▁destinés	-2142
/2	-2143
1)	-2144
ain	-2145
▁cu	-2146
alyse	-2147
vembre	-2148
IE	-2149
jec	-2150
las	-2151
erve	-2152
▁cadre	-2153
▁prêts	-2154
▁Aperçu	-2155
▁associ	-2156
▁douane	-2157
▁économiques	-2158
▁ET	-2159
ception	-2160
▁attribu	-2161
▁présente	-2162
▁suivants	-2163
eff	-2164
esti	-2165
▁réalis	-2166
▁essenti	-2167
▁lumière	-2168
▁possibilités	-2169
ctu	-2170
argé	-2171
achat	-2172
▁juin	-2173
itions	-2174
tection	-2175
▁ajoutée	-2176
▁passant	-2177
Britannique	-2178
02	-2179
96	-2180
dit	-2181
▁94	-2182
▁DU	-2183
▁Une	-2184
quent	-2185
▁règles	-2186
▁aur	-2187
actér	-2188
▁Kong	-2189
▁gestion	-2190
rin	-2191
reve	-2192
▁mars	-2193
aïlande	-2194
▁homard	-2195
▁quantité	-2196
utilisation	-2197
▁coop	-2198
▁méth	-2199
▁statis	-2200
Si	-2201
cul	-2202
▁Sta	-2203
▁isra	-2204
▁renf	-2205
érence	-2206
▁Chili	-2207
▁provenant	-2208
QUE	-2209
▁the	-2210
armaceu	-2211
▁actuelle	-2212
▁décembre	-2213
▁ret	-2214
ariat	-2215
huile	-2216
iller	-2217
établ	-2218
▁terme	-2219
▁besoins	-2220
▁israéli	-2221
4)	-2222
CH	-2223
▁gar	-2224
▁hau	-2225
▁groupe	-2226
▁milliard	-2227
▁généralement	-2228
);	-2229
da	-2230
▁mul	-2231
illon	-2232
èrent	-2233
▁déjà	-2234
▁améli	-2235
▁seront	-2236
▁Univers	-2237
▁présence	-2238
▁oeu	-2239
▁petits	-2240
▁Commission	-2241
▁faut	-2242
▁procéd	-2243
▁société	-2244
▁trouver	-2245
25	-2246
LE	-2247
ît	-2248
▁IN	-2249
rant	-2250
▁CAN	-2251
▁béné	-2252
▁2004."	-2253
▁caractér	-2254
tenti	-2255
▁habitu	-2256
▁quatre	-2257
▁Gu	-2258
heure	-2259
▁locaux	-2260
▁Thaïlande	-2261
▁considérable	-2262
sia	-2263
▁auc	-2264
aisie	-2265
▁(200	-2266
▁cult	-2267
▁achats	-2268
▁sociétés	-2269
▁New	-2270
lation	-2271
Cependant	-2272
servatoire	-2273
▁établissements	-2274
ld	-2275
▁z	-2276
Comme	-2277
▁succ	-2278
▁2006,	-2279
▁culture	-2280
▁install	-2281
ila	-2282
ège	-2283
comm	-2284
▁500	-2285
▁ris	-2286
oiles	-2287
▁(972	-2288
▁boeuf	-2289
........	-2290
▁capacité	-2291
▁conserve	-2292
▁échanges	-2293
▁kg	-2294
▁soja	-2295
AP	-2296
...	-2297
▁21	-2298
ural	-2299
tiennent	-2300
▁allemand	-2301
▁Association	-2302
▁directement	-2303
▁International	-2304
ess	-2305
▁jou	-2306
▁USDA	-2307
ulaire	-2308
▁domin	-2309
6)	-2310
Ou	-2311
hy	-2312
ïs	-2313
cial	-2314
quie	-2315
image	-2316
astronom	-2317
▁février	-2318
ache	-2319
ennes	-2320
▁gross	-2321
▁domaine	-2322
Asie	-2323
orts	-2324
pond	-2325
▁rése	-2326
▁reste	-2327
▁propos	-2328
▁certificat	-2329
DE	-2330
cur	-2331
▁"1	-2332
▁Pour	-2333
▁bonne	-2334
▁exploit	-2335
▁potenti	-2336
▁astronom	-2337
▁quelques	-2338
▁répondre	-2339
IT	-2340
▁42	-2341
aide	-2342
tien	-2343
▁Bel	-2344
▁aid	-2345
lescope	-2346
▁nouveau	-2347
▁pouvoir	-2348
▁majorité	-2349
.-	-2350
ête	-2351
▁offer	-2352
▁générale	-2353
▁relativement	-2354
DF	-2355
agit	-2356
veur	-2357
ative	-2358
ration	-2359
0)	-2360
qué	-2361
rim	-2362
ensi	-2363
avenir	-2364
▁novembre	-2365
:"	-2366
ke	-2367
éb	-2368
xim	-2369
▁Gr	-2370
accès	-2371
rique	-2372
▁maïs	-2373
▁centr	-2374
▁effet	-2375
▁moder	-2376
▁existe	-2377
Amérique	-2378
érer	-2379
▁Corp	-2380
▁outre	-2381
▁2001."	-2382
▁Malaisie	-2383
▁premières	-2384
▁pourraient	-2385
▁(8	-2386
▁45	-2387
▁parmi	-2388
▁distributeur	-2389
60	-2390
oh	-2391
ler	-2392
▁gé	-2393
▁Tur	-2394
▁bru	-2395
▁mor	-2396
itaire	-2397
▁compé	-2398
▁Bureau	-2399
▁prendre	-2400
▁tableau	-2401
▁constitue	-2402
Ch	-2403
if	-2404
hab	-2405
▁70	-2406
orld	-2407
▁lig	-2408
▁mil	-2409
iteurs	-2410
▁prévoit	-2411
▁génétiquement	-2412
ana	-2413
ina	-2414
ains	-2415
élevage	-2416
▁chocolat	-2417
TR	-2418
gy	-2419
blig	-2420
empl	-2421
tisf	-2422
▁hum	-2423
tobre	-2424
▁Paci	-2425
▁coût	-2426
▁quar	-2427
▁seul	-2428
▁graines	-2429
▁presque	-2430
infoexport	-2431
augmentation	-2432
77	-2433
isé	-2434
nov	-2435
▁pu	-2436
erre	-2437
itor	-2438
euille	-2439
▁sécur	-2440
vention	-2441
▁unique	-2442
ancement	-2443
▁concent	-2444
▁juillet	-2445
▁particulier	-2446
EC	-2447
▁moi	-2448
▁appar	-2449
▁jours	-2450
▁petit	-2451
▁points	-2452
▁profes	-2453
fications	-2454
▁toutefois	-2455
entreprises	-2456
99	-2457
ish	-2458
▁35	-2459
oule	-2460
▁pét	-2461
▁élec	-2462
▁Télécop	-2463
▁technologie	-2464
▁Qu	-2465
▁salon	-2466
▁chiffre	-2467
▁mondial	-2468
▁totales	-2469
▁Télécopieur	-2470
40	-2471
amé	-2472
▁80	-2473
▁cal	-2474
▁délé	-2475
▁télé	-2476
▁poids	-2477
étiquette	-2478
▁préparés	-2479
62	-2480
Ex	-2481
met	-2482
ros	-2483
tie	-2484
ature	-2485
▁collab	-2486
▁importance	-2487
uk	-2488
ick	-2489
ifi	-2490
kra	-2491
▁32	-2492
▁mél	-2493
truct	-2494
respond	-2495
▁ménages	-2496
▁relatives	-2497
▁correspond	-2498
▁alcoolisées	-2499
15	-2500
lant	-2501
▁cul	-2502
▁etc	-2503
▁lit	-2504
istan	-2505
▁heures	-2506
importateur	-2507
▁investissements	-2508
ug	-2509
▁Ad	-2510
ueur	-2511
▁vig	-2512
landais	-2513
▁augmenter	-2514
32	-2515
tos	-2516
▁hy	-2517
édér	-2518
▁bov	-2519
▁file	-2520
onitor	-2521
échange	-2522
70	-2523
esp	-2524
▁or	-2525
▁bis	-2526
▁far	-2527
▁débu	-2528
étrang	-2529
▁fournir	-2530
▁espagnol	-2531
importance	-2532
▁caractéris	-2533
▁internationales	-2534
tié	-2535
donés	-2536
triche	-2537
▁crème	-2538
▁moment	-2539
entilles	-2540
irection	-2541
AI	-2542
ind	-2543
▁jeu	-2544
▁reg	-2545
▁six	-2546
ublique	-2547
▁mettre	-2548
▁satisf	-2549
▁communi	-2550
.:	-2551
;"	-2552
uf	-2553
▁hu	-2554
▁Tor	-2555
▁hôte	-2556
▁sujet	-2557
usiness	-2558
▁consac	-2559
▁Directive	-2560
▁nécessaire	-2561
▁protection	-2562
▁installations	-2563
33	-2564
95	-2565
amb	-2566
urb	-2567
▁Rép	-2568
▁1997	-2569
▁2000,	-2570
▁grâce	-2571
échelle	-2572
▁nouvelle	-2573
▁coopération	-2574
▁Be	-2575
onto	-2576
ting	-2577
Entre	-2578
uméro	-2579
▁adop	-2580
▁boul	-2581
▁biens	-2582
▁capit	-2583
▁moitié	-2584
▁fournit	-2585
▁sécurité	-2586
▁programmes	-2587
asp	-2588
alal	-2589
isme	-2590
▁DES	-2591
▁bio	-2592
▁forme	-2593
anglais	-2594
exploit	-2595
▁savoir	-2596
étranger	-2597
IA	-2598
ÉS	-2599
▁id	-2600
ffis	-2601
▁kil	-2602
cuits	-2603
▁fraî	-2604
▁posi	-2605
▁mieux	-2606
ptembre	-2607
▁Statis	-2608
▁classe	-2609
ativement	-2610
▁participation	-2611
92	-2612
▁Av	-2613
▁ve	-2614
▁én	-2615
jour	-2616
▁vit	-2617
▁date	-2618
▁déli	-2619
▁titre	-2620
triques	-2621
ulteurs	-2622
▁offici	-2623
▁poulet	-2624
▁octobre	-2625
▁légèrement	-2626
environnement	-2627
88	-2628
riv	-2629
autre	-2630
eurre	-2631
élande	-2632
▁Foods	-2633
ineuses	-2634
▁déclar	-2635
NE	-2636
iz	-2637
Une	-2638
ala	-2639
are	-2640
rie	-2641
▁rue	-2642
isses	-2643
▁bila	-2644
chargé	-2645
▁tarif	-2646
donésie	-2647
▁médica	-2648
▁prises	-2649
▁technologies	-2650
)"	-2651
LI	-2652
nie	-2653
rité	-2654
tude	-2655
euros	-2656
étail	-2657
œuvre	-2658
▁sein	-2659
▁trav	-2660
▁vrac	-2661
▁agent	-2662
▁oblig	-2663
issante	-2664
▁quelque	-2665
exposition	-2666
▁Direction	-2667
▁concurrenti	-2668
ail	-2669
▁Bal	-2670
▁sus	-2671
▁requ	-2672
▁multi	-2673
▁parce	-2674
▁centre	-2675
▁diffic	-2676
▁importateur	-2677
bo	-2678
-200	-2679
cent	-2680
mmes	-2681
qués	-2682
▁Sal	-2683
▁eng	-2684
▁mod	-2685
ticle	-2686
▁%)."	-2687
▁récol	-2688
▁propri	-2689
▁travail	-2690
▁No	-2691
▁ml	-2692
Zélande	-2693
▁succès	-2694
▁trouve	-2695
▁étoiles	-2696
▁problèmes	-2697
èle	-2698
aste	-2699
réal	-2700
▁CON	-2701
▁Cos	-2702
▁loi	-2703
▁thé	-2704
▁Guide	-2705
itement	-2706
visions	-2707
▁Toronto	-2708
expansion	-2709
▁document	-2710
▁pharmaceu	-2711
35	-2712
86	-2713
90	-2714
▁À	-2715
oin	-2716
expé	-2717
ling	-2718
▁can	-2719
améli	-2720
aïwan	-2721
organ	-2722
▁liens	-2723
▁notre	-2724
américa	-2725
atoires	-2726
▁membre	-2727
▁éléments	-2728
▁importantes	-2729
▁consommateur	-2730
lin	-2731
▁ap	-2732
omin	-2733
▁Nor	-2734
▁négoci	-2735
▁source	-2736
▁Belgique	-2737
▁République	-2738
42	-2739
9,	-2740
Ob	-2741
▁36	-2742
tine	-2743
çais	-2744
▁OGM	-2745
▁dix	-2746
▁rev	-2747
▁Port	-2748
▁avril	-2749
▁besoin	-2750
▁vendus	-2751
▁Turquie	-2752
▁efforts	-2753
Argentine	-2754
Australie	-2755
▁constituent	-2756
angh	-2757
▁sud	-2758
▁Asie	-2759
▁haut	-2760
▁sauv	-2761
▁minim	-2762
▁visant	-2763
▁dernier	-2764
▁position	-2765
▁américain	-2766
utôt	-2767
▁Pré	-2768
▁sol	-2769
▁vins	-2770
▁large	-2771
▁sensi	-2772
cemment	-2773
▁plutôt	-2774
▁offrent	-2775
▁section	-2776
Université	-2777
▁résultats	-2778
.3	-2779
GE	-2780
OD	-2781
ose	-2782
▁90	-2783
▁Dé	-2784
▁él	-2785
Isra	-2786
▁Man	-2787
sident	-2788
▁occas	-2789
▁annuel	-2790
▁inféri	-2791
▁cultures	-2792
▁fournisseur	-2793
75	-2794
ka	-2795
▁bl	-2796
▁sem	-2797
▁côte	-2798
▁rôle	-2799
▁accès	-2800
▁proch	-2801
▁évalu	-2802
▁beurre	-2803
▁possible	-2804
rganisation	-2805
ah	-2806
omp	-2807
oud	-2808
Ouest	-2809
▁fins	-2810
▁from	-2811
▁influ	-2812
▁initi	-2813
▁obten	-2814
▁pratiques	-2815
▁tendances	-2816
▁différents	-2817
international	-2818
""	-2819
OS	-2820
oig	-2821
tim	-2822
blir	-2823
ides	-2824
offre	-2825
▁Site	-2826
▁coup	-2827
Italie	-2828
cident	-2829
▁Agric	-2830
▁salub	-2831
▁stock	-2832
▁segment	-2833
▁bénéfici	-2834
▁totalisé	-2835
rid	-2836
▁cô	-2837
▁sp	-2838
tées	-2839
▁Plus	-2840
alités	-2841
▁impos	-2842
▁ouver	-2843
ational	-2844
▁bétail	-2845
▁teneur	-2846
▁élevée	-2847
▁études	-2848
▁expansion	-2849
▁communiquer	-2850
44	-2851
gé	-2852
uba	-2853
nels	-2854
oyés	-2855
quel	-2856
▁fle	-2857
▁gaz	-2858
icile	-2859
▁secs	-2860
iennes	-2861
▁occup	-2862
cription	-2863
▁demeure	-2864
▁télescope	-2865
▁médicaments	-2866
66	-2867
be	-2868
ud	-2869
▁cet	-2870
▁expé	-2871
▁paie	-2872
▁suite	-2873
▁bureau	-2874
▁villes	-2875
▁lorsque	-2876
▁intérieur	-2877
▁lentilles	-2878
8,	-2879
▁w	-2880
▁eu	-2881
stac	-2882
▁nour	-2883
▁sign	-2884
Depuis	-2885
titude	-2886
▁recon	-2887
illeurs	-2888
▁projet	-2889
▁compéti	-2890
▁faibles	-2891
▁restric	-2892
istrement	-2893
▁Montréal	-2894
▁catégories	-2895
▁nombreuses	-2896
raî	-2897
▁Br	-2898
▁arab	-2899
▁bière	-2900
▁malad	-2901
stronom	-2902
▁limité	-2903
truction	-2904
▁récemment	-2905
▁disponible	-2906
uli	-2907
TEUR	-2908
mira	-2909
mont	-2910
tron	-2911
▁fron	-2912
▁véri	-2913
▁champ	-2914
▁estim	-2915
▁rende	-2916
▁super	-2917
▁Shangh	-2918
▁profit	-2919
▁précéd	-2920
▁recomm	-2921
▁accords	-2922
▁centres	-2923
▁importe	-2924
▁revenus	-2925
▁septembre	-2926
▁modifications	-2927
cid	-2928
quac	-2929
érie	-2930
▁Bru	-2931
▁att	-2932
▁chez	-2933
▁rece	-2934
▁halal	-2935
▁dépend	-2936
▁poursu	-2937
roduction	-2938
▁diverses	-2939
Av	-2940
GR	-2941
çus	-2942
▁Te	-2943
▁aut	-2944
▁chim	-2945
▁remp	-2946
attend	-2947
angerie	-2948
cession	-2949
ministr	-2950
▁Center	-2951
▁milieu	-2952
issariat	-2953
omonitor	-2954
▁petites	-2955
▁français	-2956
▁suivantes	-2957
po	-2958
ime	-2959
mbl	-2960
amin	-2961
▁phot	-2962
▁poudre	-2963
▁ailleurs	-2964
▁industries	-2965
▁principale	-2966
▁représentant	-2967
lov	-2968
uve	-2969
▁65	-2970
till	-2971
après	-2972
icots	-2973
▁Inde	-2974
▁Nous	-2975
▁pétro	-2976
▁inform	-2977
▁lesque	-2978
▁comprend	-2979
82	-2980
OMC	-2981
art	-2982
dou	-2983
temp	-2984
▁bou	-2985
jourd	-2986
▁soli	-2987
bation	-2988
ologne	-2989
rincip	-2990
▁tiers	-2991
▁types	-2992
assurer	-2993
▁commenc	-2994
▁concerne	-2995
▁dernière	-2996
▁modifiés	-2997
▁province	-2998
▁surgelés	-2999
▁salubrité	-3000
▁diminution	-3001
▁déterminer	-3002
MA	-3003
ao	-3004
ountry	-3005
▁appel	-3006
▁droit	-3007
mograph	-3008
▁étranger	-3009
▁responsable	-3010
Mal	-3011
rès	-3012
▁34	-3013
▁56	-3014
▁Pe	-3015
▁The	-3016
▁équ	-3017
ombre	-3018
table	-3019
▁priv	-3020
▁approu	-3021
▁institu	-3022
▁projets	-3023
▁importées	-3024
▁partenaires	-3025
PA	-3026
Des	-3027
▁75	-3028
atri	-3029
êmes	-3030
▁déf	-3031
▁exc	-3032
▁vos	-3033
enreg	-3034
▁chef	-3035
▁glob	-3036
▁ques	-3037
▁évent	-3038
▁numéro	-3039
▁offerts	-3040
ouverture	-3041
expédition	-3042
▁questions	-3043
▁préparation	-3044
83	-3045
vège	-3046
▁rév	-3047
▁signi	-3048
établir	-3049
▁territ	-3050
lantique	-3051
▁soutien	-3052
▁fabricant	-3053
rastructure	-3054
▁comprennent	-3055
DC	-3056
ket	-3057
oti	-3058
▁55	-3059
▁Ar	-3060
▁Mc	-3061
▁am	-3062
▁ro	-3063
anie	-3064
ones	-3065
quée	-3066
▁Res	-3067
▁ser	-3068
Israël	-3069
ortion	-3070
▁accomp	-3071
▁Norvège	-3072
▁anglais	-3073
▁Agricult	-3074
▁question	-3075
▁connaître	-3076
▁agriculteurs	-3077
dra	-3078
ola	-3079
yer	-3080
erta	-3081
▁Règ	-3082
▁chu	-3083
▁pes	-3084
▁ple	-3085
isent	-3086
quipe	-3087
▁minu	-3088
▁vise	-3089
▁défin	-3090
centage	-3091
euillez	-3092
▁durant	-3093
▁hôtels	-3094
▁utilisés	-3095
▁University	-3096
▁PO	-3097
èces	-3098
▁Box	-3099
habit	-3100
▁Cuba	-3101
▁goût	-3102
▁spec	-3103
▁Suisse	-3104
▁demand	-3105
▁supplé	-3106
ablement	-3107
▁viandes	-3108
▁mexicain	-3109
exportateur	-3110
▁grossistes	-3111
▁boulangerie	-3112
arm	-3113
oeu	-3114
▁1.	-3115
▁LA	-3116
▁Barb	-3117
▁chau	-3118
frique	-3119
▁creve	-3120
itaires	-3121
▁potentiel	-3122
▁conservation	-3123
cts	-3124
inc	-3125
tar	-3126
▁cir	-3127
▁ref	-3128
▁urb	-3129
évalu	-3130
▁simp	-3131
annexe	-3132
quelle	-3133
▁chois	-3134
▁fédér	-3135
▁vendre	-3136
▁continue	-3137
quaculture	-3138
▁directive	-3139
▁démograph	-3140
▁supérieure	-3141
▁concurrents	-3142
4,	-3143
Al	-3144
assi	-3145
▁enc	-3146
▁pav	-3147
▁1996	-3148
iserie	-3149
▁deven	-3150
▁local	-3151
▁réseau	-3152
▁Shanghai	-3153
▁emballés	-3154
▁enregistré	-3155
▁Corporation	-3156
▁changements	-3157
▁financement	-3158
▁nécessaires	-3159
85	-3160
dire	-3161
eils	-3162
raux	-3163
Parmi	-3164
occup	-3165
sionne	-3166
analyse	-3167
▁maison	-3168
lication	-3169
▁cuisine	-3170
▁garanti	-3171
▁vigueur	-3172
▁laquelle	-3173
▁premiers	-3174
uromonitor	-3175
▁métriques	-3176
fe	-3177
xes	-3178
œuf	-3179
mage	-3180
▁fré	-3181
▁voy	-3182
▁Haut	-3183
▁souh	-3184
kraine	-3185
ysique	-3186
▁avait	-3187
▁ferme	-3188
▁contenant	-3189
Qu	-3190
▁62	-3191
lées	-3192
équi	-3193
▁lib	-3194
temps	-3195
▁Corée	-3196
▁fabri	-3197
▁vaste	-3198
umineuses	-3199
▁avantages	-3200
▁Gouvernement	-3201
▁X	-3202
▁33	-3203
▁Fra	-3204
▁eux	-3205
▁tar	-3206
ivers	-3207
▁août	-3208
mirats	-3209
▁accep	-3210
▁Mexico	-3211
▁Ontario	-3212
▁réduire	-3213
▁souhait	-3214
▁européens	-3215
Association	-3216
Observatoire	-3217
▁exportateur	-3218
▁Importations	-3219
▁statistiques	-3220
xte	-3221
59-7	-3222
Ainsi	-3223
intér	-3224
▁assu	-3225
▁glac	-3226
▁occu	-3227
vement	-3228
▁World	-3229
▁choix	-3230
▁vertu	-3231
▁Israel	-3232
▁philipp	-3233
▁Canadien	-3234
▁relative	-3235
▁intermédi	-3236
▁étiquettes	-3237
▁respectivement	-3238
gar	-3239
han	-3240
ohn	-3241
seur	-3242
ètre	-3243
▁lic	-3244
▁noix	-3245
▁prob	-3246
gramme	-3247
▁intér	-3248
▁ligne	-3249
▁Taïwan	-3250
▁obstac	-3251
▁saison	-3252
▁accroître	-3253
▁industrie	-3254
▁professionne	-3255
we	-3256
-3)	-3257
▁44	-3258
rain	-3259
ules	-3260
énéz	-3261
▁San	-3262
▁»."	-3263
chent	-3264
▁Agri	-3265
▁ense	-3266
▁déliv	-3267
▁foire	-3268
▁organ	-3269
▁charge	-3270
▁manière	-3271
▁domaines	-3272
▁économie	-3273
▁nutrition	-3274
ministration	-3275
▁Exportations	-3276
enregistrement	-3277
▁.	-3278
ODU	-3279
ian	-3280
oss	-3281
pdf	-3282
▁At	-3283
▁Merc	-3284
▁fais	-3285
▁lanc	-3286
antill	-3287
atives	-3288
nergie	-3289
énézué	-3290
▁accru	-3291
▁facil	-3292
▁arabes	-3293
▁réserv	-3294
▁plantes	-3295
▁Émirats	-3296
▁exportés	-3297
▁confiserie	-3298
▁pharmaceutiques	-3299
1/	-3300
PR	-3301
af	-3302
èce	-3303
▁93	-3304
▁ord	-3305
tiers	-3306
▁gras	-3307
▁famili	-3308
▁cherche	-3309
▁interven	-3310
▁consulter	-3311
▁recherches	-3312
▁approvision	-3313
▁Agricultural	-3314
OU	-3315
uc	-3316
▁Bi	-3317
▁Rica	-3318
▁accr	-3319
▁achè	-3320
▁brut	-3321
▁blanc	-3322
▁objec	-3323
▁contrô	-3324
▁grains	-3325
▁régime	-3326
▁réguli	-3327
▁second	-3328
▁servir	-3329
▁telles	-3330
▁usines	-3331
▁minutes	-3332
▁Aliments	-3333
▁naturels	-3334
▁pratique	-3335
▁producteur	-3336
▁réfrigérés	-3337
▁différentes	-3338
98	-3339
pri	-3340
▁72	-3341
▁».	-3342
dess	-3343
euse	-3344
gues	-3345
orti	-3346
▁tax	-3347
eries	-3348
▁Grou	-3349
▁atti	-3350
▁radi	-3351
stitut	-3352
▁Costa	-3353
▁inclu	-3354
ression	-3355
▁avantage	-3356
▁progress	-3357
Organisation	-3358
▁scientifique	-3359
aig	-3360
pro	-3361
▁43	-3362
▁ir	-3363
▁MAR	-3364
▁info	-3365
▁pain	-3366
▁rési	-3367
posage	-3368
▁aider	-3369
▁sirop	-3370
énézuéli	-3371
▁Tableau	-3372
▁possède	-3373
▁techniques	-3374
▁traitement	-3375
▁légumineuses	-3376
18	-3377
▁[	-3378
bes	-3379
non	-3380
▁ax	-3381
alys	-3382
unis	-3383
▁Acc	-3384
vesti	-3385
▁aven	-3386
tation	-3387
▁complè	-3388
▁groupes	-3389
▁méthodes	-3390
▁systèmes	-3391
▁condition	-3392
▁quantités	-3393
▁référence	-3394
za	-3395
/19	-3396
AAC	-3397
RES	-3398
▁km	-3399
Paci	-3400
orge	-3401
euses	-3402
▁Dans	-3403
▁vitam	-3404
intérêt	-3405
▁franch	-3406
▁certain	-3407
▁niveaux	-3408
▁parties	-3409
▁électron	-3410
▁présenter	-3411
▁conséquent	-3412
commissariat	-3413
▁comparativement	-3414
SO	-3415
hi	-3416
lor	-3417
▁pi	-3418
apit	-3419
roma	-3420
êtes	-3421
▁Fax	-3422
▁but	-3423
objet	-3424
oreign	-3425
▁Entre	-3426
▁légis	-3427
▁porcs	-3428
▁réuss	-3429
▁2006."	-3430
▁européen	-3431
▁autorités	-3432
▁difficile	-3433
▁pourcentage	-3434
ón	-3435
lob	-3436
ork	-3437
umé	-3438
▁Ré	-3439
ager	-3440
ates	-3441
inde	-3442
▁(52	-3443
▁amp	-3444
▁inv	-3445
▁fort	-3446
▁prom	-3447
▁tenu	-3448
canada	-3449
▁aucune	-3450
▁farine	-3451
▁vivants	-3452
▁troisième	-3453
▁britannique	-3454
▁collaboration	-3455
17	-3456
UX	-3457
pt	-3458
4-2	-3459
amen	-3460
▁250	-3461
▁bar	-3462
suite	-3463
▁faci	-3464
▁pris	-3465
▁ville	-3466
▁agents	-3467
▁pêcher	-3468
▁transf	-3469
▁assujet	-3470
▁propres	-3471
▁centrale	-3472
▁crevettes	-3473
▁fortement	-3474
▁visiteurs	-3475
▁représentants	-3476
▁transformateurs	-3477
RI	-3478
fa	-3479
ern	-3480
ios	-3481
uns	-3482
âge	-3483
▁ban	-3484
▁cit	-3485
appli	-3486
▁Asia	-3487
▁arri	-3488
▁pois	-3489
▁canne	-3490
▁cause	-3491
▁début	-3492
istique	-3493
▁effets	-3494
▁lorsqu	-3495
Autriche	-3496
▁occident	-3497
établissement	-3498
▁restrictions	-3499
DI	-3500
/200	-3501
Télé	-3502
fier	-3503
▁dit	-3504
ficie	-3505
égard	-3506
▁lois	-3507
▁unis	-3508
▁Minis	-3509
▁pesos	-3510
▁locale	-3511
▁douanes	-3512
▁renforc	-3513
Pacifique	-3514
▁Services	-3515
▁haricots	-3516
▁régional	-3517
▁stratégi	-3518
▁destinées	-3519
▁dispositions	-3520
▁préparations	-3521
▁traditionnels	-3522
bor	-3523
gué	-3524
▁fe	-3525
▁10,	-3526
▁gri	-3527
parti	-3528
aliser	-3529
▁Santé	-3530
▁décen	-3531
▁haute	-3532
▁excell	-3533
ications	-3534
erlandais	-3535
▁augmente	-3536
▁technique	-3537
▁Commercial	-3538
▁disponibles	-3539
76	-3540
RIC	-3541
oré	-3542
ève	-3543
éan	-3544
alif	-3545
▁Cro	-3546
quées	-3547
▁Comp	-3548
▁bœuf	-3549
▁cela	-3550
▁aroma	-3551
▁donne	-3552
▁oeufs	-3553
▁exposants	-3554
▁intermédiaires	-3555
3)	-3556
▁AN	-3557
gués	-3558
▁11,	-3559
▁300	-3560
▁net	-3561
▁pén	-3562
▁prim	-3563
ouvoir	-3564
▁porte	-3565
▁exporté	-3566
▁pétrole	-3567
habitants	-3568
▁pêcheurs	-3569
▁frontière	-3570
▁stratégie	-3571
3,	-3572
At	-3573
▁+	-3574
bin	-3575
dro	-3576
olé	-3577
gion	-3578
▁Elle	-3579
▁mode	-3580
urance	-3581
▁indép	-3582
érences	-3583
▁Fraser	-3584
▁variété	-3585
▁problème	-3586
▁recommand	-3587
▁attribuable	-3588
▁alimentation	-3589
▁présentation	-3590
▁scientifiques	-3591
43	-3592
65	-3593
7,	-3594
AB	-3595
lig	-3596
▁53	-3597
▁JO	-3598
mise	-3599
uire	-3600
rient	-3601
▁mach	-3602
▁reli	-3603
itière	-3604
▁Report	-3605
▁cultiv	-3606
▁comesti	-3607
stronomes	-3608
▁National	-3609
roissement	-3610
▁partenaire	-3611
45	-3612
ps	-3613
PDF	-3614
uri	-3615
▁sc	-3616
▁Ils	-3617
arité	-3618
icace	-3619
ulent	-3620
▁lang	-3621
Malgré	-3622
keting	-3623
▁Econom	-3624
▁latine	-3625
activité	-3626
▁Industri	-3627
approbation	-3628
/0	-3629
SI	-3630
ha	-3631
ast	-3632
cos	-3633
écu	-3634
▁Rep	-3635
appui	-3636
teuse	-3637
▁adap	-3638
▁voir	-3639
Export	-3640
▁sains	-3641
▁bovins	-3642
▁litres	-3643
exploitation	-3644
An	-3645
ze	-3646
4-9	-3647
▁95	-3648
aces	-3649
afood	-3650
autor	-3651
itent	-3652
quant	-3653
usine	-3654
▁2000."	-3655
▁collec	-3656
▁offrir	-3657
▁sauvage	-3658
▁chiffres	-3659
▁pavillon	-3660
▁intervenants	-3661
ks	-3662
ase	-3663
dor	-3664
oba	-3665
erce	-3666
face	-3667
guay	-3668
icro	-3669
pays	-3670
▁Ban	-3671
▁Fin	-3672
▁Pri	-3673
cides	-3674
urant	-3675
▁Pers	-3676
▁affi	-3677
▁miel	-3678
▁épic	-3679
▁stand	-3680
▁direct	-3681
▁jeunes	-3682
▁précis	-3683
▁(972-3)	-3684
▁Foreign	-3685
▁locales	-3686
▁suivant	-3687
▁derniers	-3688
▁préoccup	-3689
▁extérieur	-3690
▁vénézuéli	-3691
▁intérieure	-3692
POR	-3693
nei	-3694
tel	-3695
▁82	-3696
▁Fe	-3697
▁He	-3698
▁va	-3699
auté	-3700
▁Sur	-3701
nelle	-3702
éroport	-3703
▁accrue	-3704
▁dépass	-3705
▁encour	-3706
▁figure	-3707
ailleurs	-3708
▁spécifi	-3709
▁efficace	-3710
▁paiement	-3711
Téléchargé	-3712
▁diversifi	-3713
▁proportion	-3714
▁◦	-3715
011	-3716
uré	-3717
▁(7	-3718
▁37	-3719
▁52	-3720
▁Ac	-3721
▁Me	-3722
▁Po	-3723
Même	-3724
aque	-3725
arch	-3726
cont	-3727
▁dén	-3728
▁sit	-3729
▁uti	-3730
index	-3731
▁gens	-3732
origin	-3733
ticles	-3734
▁tradu	-3735
▁vendu	-3736
▁rempli	-3737
▁exporter	-3738
▁économies	-3739
▁représentaient	-3740
16	-3741
▁"2	-3742
▁Tr	-3743
Elle	-3744
tics	-3745
▁phy	-3746
▁Slov	-3747
▁Tous	-3748
▁crit	-3749
▁stim	-3750
▁trop	-3751
▁mêmes	-3752
roduits	-3753
▁Portug	-3754
▁crédit	-3755
▁gouver	-3756
▁pêches	-3757
▁semble	-3758
ancouver	-3759
anitaire	-3760
novation	-3761
▁dépanne	-3762
▁ensuite	-3763
▁Amérique	-3764
▁établies	-3765
▁cependant	-3766
▁provinces	-3767
aquaculture	-3768
entreposage	-3769
▁néerlandais	-3770
agroalimentaire	-3771
TS	-3772
Acc	-3773
aff	-3774
ama	-3775
oyen	-3776
rgan	-3777
tiss	-3778
berta	-3779
étude	-3780
▁aide	-3781
▁aura	-3782
kistan	-3783
▁parts	-3784
▁proté	-3785
▁sauce	-3786
▁consta	-3787
▁entraî	-3788
▁matéri	-3789
▁signif	-3790
▁termes	-3791
pectives	-3792
▁Aperçus	-3793
accroître	-3794
intention	-3795
▁Products	-3796
▁création	-3797
▁végétaux	-3798
SE	-3799
mx	-3800
ry	-3801
▁Ma	-3802
acao	-3803
ires	-3804
isés	-3805
▁400	-3806
▁fix	-3807
▁ray	-3808
erman	-3809
ineux	-3810
▁dire	-3811
Agence	-3812
dustry	-3813
ruguay	-3814
énergie	-3815
▁Brunei	-3816
▁amples	-3817
▁aliment	-3818
▁bilatér	-3819
▁Pacifique	-3820
▁promouvoir	-3821
▁uniquement	-3822
hu	-3823
▁38	-3824
osur	-3825
cessi	-3826
naire	-3827
serve	-3828
▁Docu	-3829
▁liqu	-3830
▁avons	-3831
▁analys	-3832
▁caract	-3833
▁comple	-3834
▁conclu	-3835
▁glacée	-3836
▁petite	-3837
▁animale	-3838
▁utiliser	-3839
astronomie	-3840
▁formation	-3841
▁financière	-3842
▁territoire	-3843
▁environnement	-3844
con	-3845
gis	-3846
kat	-3847
mos	-3848
ule	-3849
▁sy	-3850
nons	-3851
▁sel	-3852
adrid	-3853
oléag	-3854
ultés	-3855
▁"100	-3856
▁Lond	-3857
▁chac	-3858
▁test	-3859
ditifs	-3860
emploi	-3861
▁prend	-3862
▁rempl	-3863
▁étude	-3864
▁géograph	-3865
évaluation	-3866
▁Programme	-3867
▁superficie	-3868
▁spécialisés	-3869
CC	-3870
ara	-3871
oph	-3872
▁""	-3873
abat	-3874
alth	-3875
anes	-3876
réci	-3877
èque	-3878
éder	-3879
▁évé	-3880
ufact	-3881
▁micro	-3882
▁suivi	-3883
lection	-3884
▁stocks	-3885
▁Princip	-3886
▁puisque	-3887
▁risques	-3888
▁établir	-3889
▁achètent	-3890
▁critères	-3891
▁fraîches	-3892
▁indépend	-3893
▁habitudes	-3894
▁président	-3895
▁démographique	-3896
93	-3897
hés	-3898
old	-3899
▁to	-3900
rich	-3901
▁Pan	-3902
TEURS	-3903
anois	-3904
europ	-3905
ouest	-3906
éraux	-3907
▁sembl	-3908
▁Autres	-3909
▁desser	-3910
▁tarifs	-3911
paration	-3912
▁réduction	-3913
▁naturelles	-3914
dul	-3915
ell	-3916
nel	-3917
▁"(	-3918
▁Ju	-3919
nies	-3920
oici	-3921
rais	-3922
roph	-3923
▁let	-3924
▁rur	-3925
▁tri	-3926
▁Soci	-3927
▁sema	-3928
▁Selon	-3929
▁nette	-3930
▁quant	-3931
▁seule	-3932
▁Comité	-3933
▁Consul	-3934
▁client	-3935
▁expéri	-3936
▁filets	-3937
lacement	-3938
▁Ministry	-3939
▁ministre	-3940
▁Vancouver	-3941
▁israélien	-3942
▁dépanneurs	-3943
fg	-3944
Comm	-3945
inés	-3946
vidu	-3947
▁(50	-3948
▁Tel	-3949
isser	-3950
▁John	-3951
▁mets	-3952
▁Moyen	-3953
▁exerc	-3954
▁pomme	-3955
anitoba	-3956
▁suffis	-3957
▁Carling	-3958
▁entière	-3959
extérieur	-3960
intérieur	-3961
▁Business	-3962
▁appropri	-3963
▁délégués	-3964
veloppement	-3965
▁prochaines	-3966
▁conformément	-3967
▁essentiellement	-3968
hib	-3969
oie	-3970
▁46	-3971
agné	-3972
comp	-3973
léch	-3974
▁tom	-3975
▁(011	-3976
▁vois	-3977
▁MARCH	-3978
▁coule	-3979
▁propre	-3980
▁conting	-3981
Indonésie	-3982
▁individu	-3983
▁rendement	-3984
▁prévisions	-3985
46	-3986
▁i	-3987
êts	-3988
▁63	-3989
iers	-3990
lect	-3991
▁log	-3992
texte	-3993
▁clés	-3994
▁kios	-3995
▁voie	-3996
MENTAI	-3997
▁dédou	-3998
antaine	-3999
mission	-4000
▁moyens	-4001
▁occupe	-4002
▁passer	-4003
▁phytos	-4004
▁amélior	-4005
▁tempéra	-4006
▁biscuits	-4007
▁supplémentaires	-4008
IL	-4009
oma	-4010
vez	-4011
Cela	-4012
oirs	-4013
▁Bio	-4014
▁For	-4015
▁Pra	-4016
▁via	-4017
ingré	-4018
ublic	-4019
▁fili	-4020
▁médi	-4021
▁péné	-4022
excell	-4023
▁intég	-4024
▁ports	-4025
iseries	-4026
oursins	-4027
▁donner	-4028
▁mètres	-4029
▁origin	-4030
▁devient	-4031
▁faisant	-4032
▁récolte	-4033
▁vendent	-4034
anitaires	-4035
▁contient	-4036
▁tourisme	-4037
▁vitamines	-4038
▁développer	-4039
▁comestibles	-4040
▁électronique	-4041
▁biotechnologi	-4042
47	-4043
Ad	-4044
EX	-4045
NCA	-4046
▁tm	-4047
tell	-4048
▁tex	-4049
ffice	-4050
oleil	-4051
▁crus	-4052
onnées	-4053
▁2006"	-4054
▁Organ	-4055
▁carte	-4056
▁class	-4057
▁maxim	-4058
▁médic	-4059
▁plats	-4060
▁brésil	-4061
▁assurer	-4062
▁laitière	-4063
▁Industrie	-4064
▁consommer	-4065
▁régionaux	-4066
2,	-4067
ust	-4068
âte	-4069
▁EN	-4070
▁Mé	-4071
▁Sy	-4072
▁gu	-4073
▁Pav	-4074
▁cam	-4075
▁cub	-4076
▁por	-4077
cosse	-4078
▁dist	-4079
apitre	-4080
▁sorte	-4081
▁distin	-4082
▁entier	-4083
▁femmes	-4084
▁humaine	-4085
▁magasin	-4086
▁mélange	-4087
▁surface	-4088
▁Mercosur	-4089
▁Portugal	-4090
▁décision	-4091
▁meilleure	-4092
▁occasions	-4093
▁permettre	-4094
▁croissante	-4095
cle	-4096
Lors	-4097
ival	-4098
▁(19	-4099
▁Div	-4100
TIQUE	-4101
ômage	-4102
▁1990	-4103
accord	-4104
▁const	-4105
▁table	-4106
▁expédi	-4107
▁huiles	-4108
▁pénétr	-4109
▁retrou	-4110
▁aujourd	-4111
▁portant	-4112
▁univers	-4113
▁milliers	-4114
▁poursuiv	-4115
▁provinci	-4116
▁publicité	-4117
▁Convention	-4118
▁emballages	-4119
▁proviennent	-4120
▁quarantaine	-4121
Pré	-4122
▁85	-4123
ited	-4124
oile	-4125
▁ral	-4126
chées	-4127
cussi	-4128
iritu	-4129
prise	-4130
riture	-4131
▁aucun	-4132
▁glace	-4133
▁trait	-4134
istribu	-4135
▁classi	-4136
▁nature	-4137
▁protég	-4138
▁stimul	-4139
▁Pologne	-4140
▁utilisé	-4141
ification	-4142
inflation	-4143
▁lesquels	-4144
▁suivante	-4145
▁favoriser	-4146
▁matériaux	-4147
▁tarifaires	-4148
▁statistique	-4149
▁fonctionnels	-4150
infrastructure	-4151
RA	-4152
ij	-4153
-2)	-4154
Ali	-4155
ath	-4156
isp	-4157
▁Vi	-4158
onal	-4159
tori	-4160
▁enf	-4161
▁nou	-4162
▁sim	-4163
isant	-4164
▁anti	-4165
Orient	-4166
cience	-4167
▁cacao	-4168
▁subst	-4169
▁tartin	-4170
▁Country	-4171
▁raisons	-4172
▁reconna	-4173
tructures	-4174
▁importer	-4175
▁allemande	-4176
▁chimiques	-4177
▁demandeur	-4178
▁permettant	-4179
41	-4180
ms	-4181
ws	-4182
ÉG	-4183
Ils	-4184
OGM	-4185
▁31	-4186
▁49	-4187
rabe	-4188
ulle	-4189
urée	-4190
wick	-4191
xico	-4192
énie	-4193
▁(1,	-4194
▁cou	-4195
▁emp	-4196
agnie	-4197
dique	-4198
nexes	-4199
perçu	-4200
▁chuté	-4201
▁confi	-4202
▁exige	-4203
▁noter	-4204
ertains	-4205
▁avenue	-4206
▁longue	-4207
▁multip	-4208
▁risque	-4209
▁chômage	-4210
▁connaît	-4211
▁passées	-4212
ambassade	-4213
▁maladies	-4214
▁Australie	-4215
▁nationales	-4216
▁américaines	-4217
▁difficultés	-4218
Agroalimentaire	-4219
mat	-4220
Plus	-4221
abac	-4222
▁1,5	-4223
▁Loi	-4224
▁feu	-4225
influ	-4226
tacés	-4227
▁élab	-4228
▁2003.	-4229
▁759-7	-4230
▁oléag	-4231
▁privé	-4232
▁radio	-4233
▁saoud	-4234
obtenir	-4235
▁Nombre	-4236
▁exclus	-4237
▁lequel	-4238
abattage	-4239
actitude	-4240
iritueux	-4241
▁Barbade	-4242
▁surgelé	-4243
antillons	-4244
▁développ	-4245
▁contribué	-4246
▁obstacles	-4247
▁organisme	-4248
▁formulaire	-4249
▁confiseries	-4250
48	-4251
ALE	-4252
agu	-4253
ied	-4254
orp	-4255
▁GM	-4256
▁Ni	-4257
ACIA	-4258
alle	-4259
▁INR	-4260
▁Rég	-4261
agent	-4262
ceaux	-4263
grais	-4264
écois	-4265
▁Orig	-4266
espace	-4267
Écosse	-4268
▁Tunis	-4269
▁créne	-4270
▁payer	-4271
▁réput	-4272
agement	-4273
▁instru	-4274
▁manque	-4275
▁Develop	-4276
▁avaient	-4277
▁croître	-4278
▁fédéral	-4279
▁offrant	-4280
▁recours	-4281
▁élevées	-4282
▁complète	-4283
▁conseils	-4284
▁contacts	-4285
▁décennie	-4286
▁demeurent	-4287
▁hypermarchés	-4288
▁concurrentiel	-4289
▁habituellement	-4290
VE	-4291
ger	-4292
gés	-4293
ung	-4294
.100	-4295
lure	-4296
▁Jam	-4297
▁cos	-4298
▁pol	-4299
▁conj	-4300
▁tard	-4301
formes	-4302
isions	-4303
traceu	-4304
▁(34-9	-4305
▁1999,	-4306
▁prosp	-4307
▁série	-4308
unswick	-4309
▁calcul	-4310
▁confir	-4311
▁oeuvre	-4312
▁souten	-4313
Institut	-4314
▁Pacific	-4315
▁fromage	-4316
▁réparti	-4317
▁veulent	-4318
▁figurent	-4319
▁produire	-4320
▁travaill	-4321
▁allemands	-4322
▁maintenir	-4323
▁respecter	-4324
FA	-4325
OL	-4326
▁;	-4327
lam	-4328
▁MA	-4329
apan	-4330
ital	-4331
▁996	-4332
▁Ber	-4333
▁Mer	-4334
▁ann	-4335
▁mus	-4336
▁val	-4337
▁asia	-4338
▁québ	-4339
action	-4340
cteurs	-4341
ignons	-4342
ureaux	-4343
étaire	-4344
▁Trans	-4345
▁crabe	-4346
▁extra	-4347
▁lente	-4348
▁venir	-4349
▁éventu	-4350
▁contenu	-4351
▁devenir	-4352
▁Division	-4353
▁explique	-4354
▁améliorer	-4355
▁compagnie	-4356
▁nationaux	-4357
▁québécois	-4358
▁popularité	-4359
Or	-4360
Re	-4361
ASE	-4362
oth	-4363
ret	-4364
▁Ro	-4365
IQUE	-4366
ible	-4367
ynam	-4368
▁Est	-4369
▁del	-4370
▁gal	-4371
▁pau	-4372
RICOM	-4373
rabie	-4374
rance	-4375
rites	-4376
▁blan	-4377
▁fine	-4378
▁PRODU	-4379
▁Saint	-4380
▁accue	-4381
andards	-4382
▁applic	-4383
▁fleuve	-4384
▁vivant	-4385
▁CARICOM	-4386
▁acheter	-4387
▁congelé	-4388
▁Pavillon	-4389
▁additifs	-4390
▁procédures	-4391
amélioration	-4392
▁composition	-4393
▁stratégique	-4394
................	-4395
6,	-4396
ati	-4397
fer	-4398
▁Bu	-4399
acer	-4400
onie	-4401
▁nav	-4402
adesh	-4403
earch	-4404
itées	-4405
outes	-4406
▁sauf	-4407
▁état	-4408
lément	-4409
ouvrir	-4410
▁admin	-4411
▁coord	-4412
▁norme	-4413
▁Madrid	-4414
▁apport	-4415
▁entrer	-4416
▁estime	-4417
▁regrou	-4418
▁investi	-4419
▁préparé	-4420
angladesh	-4421
▁Industry	-4422
▁Pakistan	-4423
▁morceaux	-4424
ingrédients	-4425
49	-4426
55	-4427
Ar	-4428
VA	-4429
▁×	-4430
Mar	-4431
dic	-4432
▁39	-4433
▁67	-4434
▁AS	-4435
aise	-4436
anim	-4437
pren	-4438
énom	-4439
▁Esp	-4440
▁Gra	-4441
▁env	-4442
▁Vari	-4443
▁asse	-4444
▁ciel	-4445
▁tent	-4446
Accord	-4447
amment	-4448
▁durée	-4449
▁remar	-4450
▁México	-4451
▁malgré	-4452
▁montre	-4453
▁publié	-4454
▁solide	-4455
▁soumis	-4456
▁Aliment	-4457
▁Origine	-4458
▁certifi	-4459
▁dénomin	-4460
▁Manitoba	-4461
▁Rapports	-4462
▁commencé	-4463
▁ensemble	-4464
▁rapports	-4465
▁Argentine	-4466
▁Canadiens	-4467
ctuellement	-4468
▁américaine	-4469
▁spécialité	-4470
▁Development	-4471
▁associations	-4472
▁gouvernements	-4473
ee	-4474
ly	-4475
arb	-4476
cia	-4477
mit	-4478
ète	-4479
▁73	-4480
▁AU	-4481
▁Or	-4482
quoi	-4483
▁Rés	-4484
estre	-4485
igure	-4486
▁vont	-4487
mettre	-4488
▁2004.	-4489
▁Sector	-4490
▁Utilis	-4491
▁approuv	-4492
▁espèces	-4493
▁rencont	-4494
▁découver	-4495
▁employés	-4496
▁publique	-4497
▁variétés	-4498
▁meilleurs	-4499
▁règlement	-4500
▁spiritueux	-4501
▁température	-4502
67	-4503
II	-4504
fo	-4505
▁â	-4506
ITS	-4507
bat	-4508
vie	-4509
▁91	-4510
adop	-4511
hôte	-4512
rign	-4513
▁(41	-4514
▁aci	-4515
limin	-4516
moins	-4517
ondur	-4518
▁King	-4519
▁face	-4520
▁mout	-4521
▁pous	-4522
▁reçu	-4523
inseng	-4524
orants	-4525
▁coûte	-4526
▁liées	-4527
▁œuvre	-4528
aliment	-4529
▁Italie	-4530
▁réduit	-4531
▁serait	-4532
▁stable	-4533
▁équipe	-4534
▁mission	-4535
▁méthode	-4536
américain	-4537
▁crustacés	-4538
▁structure	-4539
▁utilisées	-4540
▁comprendre	-4541
▁précédente	-4542
▁satisfaire	-4543
▁comparaison	-4544
▁spécifiques	-4545
accroissement	-4546
,"	-4547
sec	-4548
vin	-4549
▁57	-4550
▁na	-4551
Cont	-4552
oncé	-4553
quis	-4554
▁Lab	-4555
▁abs	-4556
▁int	-4557
anche	-4558
chant	-4559
euner	-4560
quête	-4561
rière	-4562
vient	-4563
jouter	-4564
▁Terre	-4565
▁dynam	-4566
▁outil	-4567
▁tirer	-4568
▁Commun	-4569
▁danois	-4570
▁inspec	-4571
▁Tunisie	-4572
▁travers	-4573
criptions	-4574
ressource	-4575
▁machines	-4576
▁préfèrent	-4577
ritanniques	-4578
▁mexicaines	-4579
.4	-4580
6/	-4581
Gr	-4582
ME	-4583
SA	-4584
ris	-4585
▁LE	-4586
PORT	-4587
issé	-4588
tait	-4589
▁Spa	-4590
▁ble	-4591
▁fro	-4592
Après	-4593
icats	-4594
veurs	-4595
érant	-4596
▁Show	-4597
quante	-4598
rlande	-4599
▁2005.	-4600
▁Nouve	-4601
▁charg	-4602
▁réper	-4603
▁tabac	-4604
aturité	-4605
cidence	-4606
▁Agence	-4607
▁German	-4608
▁limite	-4609
▁voyage	-4610
▁licence	-4611
▁liquide	-4612
▁familles	-4613
exactitude	-4614
▁confiance	-4615
▁objectifs	-4616
▁nourriture	-4617
▁organiques	-4618
▁compétitivité	-4619
97	-4620
ho	-4621
▁€	-4622
Car	-4623
Pro	-4624
bue	-4625
▁do	-4626
inté	-4627
jout	-4628
oyer	-4629
uile	-4630
▁600	-4631
▁Ins	-4632
▁Net	-4633
▁Reg	-4634
▁bal	-4635
askat	-4636
istra	-4637
tilise	-4638
▁Accès	-4639
▁Biote	-4640
▁Exhib	-4641
▁compt	-4642
▁sites	-4643
▁zones	-4644
▁Soleil	-4645
▁Afrique	-4646
▁Société	-4647
▁acteurs	-4648
▁destiné	-4649
▁entente	-4650
▁Research	-4651
▁comptent	-4652
équipement	-4653
▁croissant	-4654
▁habitants	-4655
▁épiceries	-4656
application	-4657
▁réputation	-4658
▁Réglementation	-4659
do	-4660
eut	-4661
▁48	-4662
▁DÉ	-4663
Nous	-4664
ding	-4665
otal	-4666
▁(31	-4667
▁613	-4668
▁mou	-4669
pects	-4670
phère	-4671
▁manu	-4672
▁rapp	-4673
▁somm	-4674
▁étro	-4675
aleurs	-4676
▁Franc	-4677
▁appli	-4678
▁assez	-4679
▁débar	-4680
▁labor	-4681
▁souci	-4682
▁soupe	-4683
anadian	-4684
onnance	-4685
ulaires	-4686
▁Market	-4687
▁canola	-4688
▁ouvert	-4689
▁préemb	-4690
chnology	-4691
▁enfants	-4692
▁publics	-4693
▁totalis	-4694
évolution	-4695
▁desserts	-4696
▁décisions	-4697
▁propriété	-4698
▁champignons	-4699
▁possibilité	-4700
▁particulières	-4701
▁responsabilité	-4702
23	-4703
OT	-4704
pl	-4705
▁Ge	-4706
ands	-4707
▁EDC	-4708
▁flu	-4709
▁fut	-4710
lever	-4711
▁kilo	-4712
▁liés	-4713
▁rend	-4714
gments	-4715
▁défic	-4716
▁exist	-4717
atrième	-4718
istance	-4719
ufactur	-4720
▁MARCHÉ	-4721
▁manger	-4722
▁poivre	-4723
▁partout	-4724
▁remplir	-4725
▁transgé	-4726
▁travaux	-4727
▁voisins	-4728
▁signifie	-4729
▁veuillez	-4730
▁largement	-4731
▁primaires	-4732
▁progressé	-4733
▁permettent	-4734
▁stratégies	-4735
▁commercialis	-4736
▁négociations	-4737
--	-4738
LA	-4739
dé	-4740
dom	-4741
ium	-4742
ref	-4743
▁CC	-4744
▁SA	-4745
▁sè	-4746
-55)	-4747
ador	-4748
isée	-4749
lier	-4750
érée	-4751
▁ait	-4752
foods	-4753
intes	-4754
ollus	-4755
▁camp	-4756
▁dens	-4757
▁poll	-4758
▁zone	-4759
▁créer	-4760
▁kilom	-4761
▁orient	-4762
▁sauces	-4763
▁séchés	-4764
partment	-4765
▁Seafood	-4766
▁majeure	-4767
▁marquée	-4768
▁rurales	-4769
influence	-4770
ollusques	-4771
organisme	-4772
partement	-4773
▁diminuer	-4774
▁distance	-4775
▁chiffrées	-4776
▁longtemps	-4777
▁protéines	-4778
▁Bangladesh	-4779
▁couverture	-4780
Actuellement	-4781
traceutiques	-4782
▁entièrement	-4783
63	-4784
ga	-4785
ns	-4786
ago	-4787
del	-4788
▁68	-4789
▁Is	-4790
▁Si	-4791
▁dû	-4792
ener	-4793
erci	-4794
iver	-4795
oeil	-4796
otid	-4797
ties	-4798
épic	-4799
œufs	-4800
▁1,2	-4801
▁2,5	-4802
▁AGR	-4803
MENTS	-4804
▁Gros	-4805
Canada	-4806
hésion	-4807
▁passe	-4808
▁quand	-4809
▁vende	-4810
▁2007."	-4811
▁Panama	-4812
▁allant	-4813
▁climat	-4814
▁quotid	-4815
ventions	-4816
▁appréci	-4817
▁contrat	-4818
▁facteur	-4819
▁livrais	-4820
assurance	-4821
édération	-4822
▁saoudite	-4823
▁Indonésie	-4824
▁Statistics	-4825
▁astronomes	-4826
observatoire	-4827
▁Euromonitor	-4828
▁transitaire	-4829
TC	-4830
bio	-4831
bres	-4832
fice	-4833
iche	-4834
vous	-4835
▁Chi	-4836
▁bud	-4837
▁eth	-4838
▁pal	-4839
ement	-4840
isher	-4841
ondes	-4842
tegis	-4843
▁1995	-4844
▁bois	-4845
▁proc	-4846
itures	-4847
▁image	-4848
▁inten	-4849
▁morue	-4850
usement	-4851
▁Banque	-4852
▁Marché	-4853
▁foires	-4854
▁rouges	-4855
▁(52-55)	-4856
▁fraîche	-4857
▁ginseng	-4858
▁valeurs	-4859
▁certaine	-4860
▁recettes	-4861
▁réformes	-4862
▁Directeur	-4863
▁financier	-4864
▁marketing	-4865
▁pêcheries	-4866
▁quatrième	-4867
▁supérieur	-4868
▁conséquence	-4869
▁obligatoire	-4870
▁industrielle	-4871
▁investisseurs	-4872
bi	-4873
go	-4874
4-1	-4875
ION	-4876
can	-4877
lex	-4878
ome	-4879
▁"3	-4880
▁00	-4881
▁64	-4882
▁vu	-4883
uros	-4884
▁ici	-4885
▁méc	-4886
▁web	-4887
abord	-4888
aigre	-4889
avoir	-4890
lands	-4891
ordre	-4892
▁West	-4893
▁conn	-4894
▁gâte	-4895
▁loin	-4896
▁mang	-4897
▁taxe	-4898
oeuvre	-4899
▁Chair	-4900
▁fonds	-4901
▁galax	-4902
▁pénur	-4903
anement	-4904
issions	-4905
service	-4906
▁utiles	-4907
cussions	-4908
▁Institu	-4909
▁bureaux	-4910
▁préparer	-4911
▁mexicains	-4912
▁Department	-4913
▁Exhibition	-4914
▁augmentent	-4915
▁restaurant	-4916
▁perspectives	-4917
▁organisations	-4918
▁Renseignements	-4919
200	-4920
alo	-4921
any	-4922
lai	-4923
lub	-4924
ota	-4925
▁AC	-4926
▁fl	-4927
orde	-4928
rage	-4929
▁Ret	-4930
▁goû	-4931
▁jau	-4932
dient	-4933
fghan	-4934
olive	-4935
tares	-4936
▁Coop	-4937
▁trim	-4938
ariats	-4939
ologie	-4940
▁fléch	-4941
▁telle	-4942
tructur	-4943
▁bonnes	-4944
▁Hongrie	-4945
▁Ukraine	-4946
▁comport	-4947
▁segments	-4948
▁semences	-4949
▁soutenir	-4950
organismes	-4951
▁caractère	-4952
▁consommés	-4953
▁faciliter	-4954
▁représenté	-4955
▁exploitations	-4956
▁nutraceutiques	-4957
.)	-4958
ky	-4959
ÉR	-4960
Sur	-4961
har	-4962
tit	-4963
ôts	-4964
▁66	-4965
▁El	-4966
Avec	-4967
INCI	-4968
tail	-4969
▁eau	-4970
▁fil	-4971
iment	-4972
▁Nest	-4973
▁sept	-4974
▁éval	-4975
téraux	-4976
▁musul	-4977
▁surve	-4978
▁Retour	-4979
▁compét	-4980
▁démont	-4981
▁modern	-4982
▁passée	-4983
▁pleine	-4984
▁rayons	-4985
épicerie	-4986
▁Organic	-4987
▁complet	-4988
▁semaine	-4989
▁demandes	-4990
▁trouvent	-4991
▁vérifier	-4992
▁continuer	-4993
▁photograph	-4994
▁populaires	-4995
▁certificats	-4996
Br	-4997
cr	-4998
ef	-4999
ey	-5000
▁=	-5001
ENA	-5002
▁47	-5003
▁SH	-5004
tera	-5005
▁(24	-5006
▁943	-5007
▁Aus	-5008
▁Can	-5009
▁Del	-5010
aïbes	-5011
▁eaux	-5012
alifor	-5013
▁Maroc	-5014
▁breve	-5015
▁crise	-5016
▁expli	-5017
▁grign	-5018
▁mises	-5019
▁plein	-5020
ectares	-5021
▁Saveur	-5022
▁chacun	-5023
▁claire	-5024
▁examin	-5025
▁requis	-5026
▁(34-91)	-5027
▁grammes	-5028
▁pouvant	-5029
▁sectori	-5030
▁articles	-5031
▁comporte	-5032
▁négative	-5033
▁positive	-5034
rophysique	-5035
▁constante	-5036
▁réglement	-5037
▁changement	-5038
▁intéressant	-5039
▁représentait	-5040
22	-5041
87	-5042
AF	-5043
kg	-5044
due	-5045
ral	-5046
yle	-5047
Iran	-5048
▁Fru	-5049
▁Har	-5050
▁Sau	-5051
4-20)	-5052
gypte	-5053
uffis	-5054
▁Expo	-5055
▁aéri	-5056
▁créé	-5057
▁suit	-5058
▁vété	-5059
▁2006.	-5060
▁Feder	-5061
▁Super	-5062
▁Suède	-5063
▁affir	-5064
▁explo	-5065
▁modes	-5066
rontali	-5067
▁adopté	-5068
▁dollar	-5069
▁obtenu	-5070
▁Organis	-5071
▁vétérin	-5072
▁cuisinés	-5073
▁minimale	-5074
Atlantique	-5075
appliquent	-5076
▁populaire	-5077
alimentaire	-5078
▁additionne	-5079
▁excellente	-5080
▁spécifique	-5081
▁subventions	-5082
▁régulièrement	-5083
.0	-5084
duc	-5085
tag	-5086
uel	-5087
▁Ca	-5088
▁Es	-5089
▁ND	-5090
bler	-5091
oint	-5092
▁COM	-5093
▁Her	-5094
▁Per	-5095
▁cop	-5096
▁imm	-5097
▁bord	-5098
▁neuf	-5099
agnies	-5100
chèque	-5101
▁Forme	-5102
▁Voici	-5103
▁bison	-5104
▁désig	-5105
▁repos	-5106
▁réuni	-5107
identif	-5108
▁Office	-5109
▁déclin	-5110
▁fermes	-5111
▁langue	-5112
▁promen	-5113
▁retour	-5114
▁visite	-5115
çabilité	-5116
▁Environ	-5117
▁conclus	-5118
▁emplois	-5119
▁exclusi	-5120
▁figurer	-5121
▁fournis	-5122
▁positif	-5123
▁réseaux	-5124
▁équival	-5125
▁établie	-5126
▁Caraïbes	-5127
▁Consulat	-5128
▁chapitre	-5129
▁occasion	-5130
innovation	-5131
▁renforcer	-5132
▁bilatéraux	-5133
▁conformité	-5134
▁événements	-5135
▁Développement	-5136
▁professionnels	-5137
9/	-5138
SC	-5139
ji	-5140
sh	-5141
yo	-5142
▁x	-5143
▁¥	-5144
ALI	-5145
ash	-5146
bur	-5147
isc	-5148
évé	-5149
▁Am	-5150
▁Hu	-5151
Cons	-5152
airs	-5153
enre	-5154
▁MER	-5155
▁SUR	-5156
▁cél	-5157
▁jam	-5158
mises	-5159
▁1994	-5160
▁CANA	-5161
▁Poli	-5162
▁côté	-5163
▁rent	-5164
▁tête	-5165
▁éner	-5166
rement	-5167
▁NDNCA	-5168
▁Total	-5169
▁excéd	-5170
▁faits	-5171
▁guide	-5172
onduras	-5173
ulletin	-5174
▁aperçu	-5175
▁fluctu	-5176
▁jamais	-5177
▁restre	-5178
▁sommes	-5179
▁capital	-5180
▁détails	-5181
▁identif	-5182
▁intérêt	-5183
▁spectre	-5184
▁établis	-5185
MENTAIRES	-5186
▁Antilles	-5187
▁activité	-5188
▁consiste	-5189
▁modernes	-5190
fghanistan	-5191
▁Standards	-5192
▁collation	-5193
▁kilomètres	-5194
▁mollusques	-5195
▁connaissent	-5196
▁construction	-5197
▁informations	-5198
▁institutions	-5199
▁partenariats	-5200
81	-5201
91	-5202
PO	-5203
ía	-5204
Mme	-5205
oms	-5206
▁FR	-5207
▁Pê	-5208
ados	-5209
alog	-5210
bons	-5211
tish	-5212
▁1,6	-5213
▁150	-5214
▁ALI	-5215
▁SEC	-5216
▁vir	-5217
ANASE	-5218
occas	-5219
ressi	-5220
▁Stra	-5221
▁bons	-5222
▁hors	-5223
▁pied	-5224
ATIONS	-5225
Environ	-5226
▁(44-20)	-5227
▁cuisson	-5228
▁juteuse	-5229
▁limitée	-5230
ologiques	-5231
▁Boissons	-5232
▁contexte	-5233
▁congelées	-5234
▁promenade	-5235
▁administra	-5236
▁continuent	-5237
▁intéressés	-5238
▁participer	-5239
▁multination	-5240
▁partenariat	-5241
▁échantillons	-5242
▁gouvernementaux	-5243
9.	-5244
AT	-5245
Di	-5246
IG	-5247
ya	-5248
ack	-5249
als	-5250
lay	-5251
lég	-5252
pré	-5253
yth	-5254
▁02	-5255
▁lo	-5256
élab	-5257
▁Gro	-5258
▁Ste	-5259
▁caf	-5260
▁lac	-5261
▁reç	-5262
▁rig	-5263
▁Évé	-5264
oeufs	-5265
ormes	-5266
rivée	-5267
ution	-5268
▁Litu	-5269
▁extr	-5270
accent	-5271
eiller	-5272
inaire	-5273
▁(416)	-5274
▁aient	-5275
▁effic	-5276
▁envis	-5277
▁frapp	-5278
▁genre	-5279
▁graph	-5280
▁minér	-5281
▁signé	-5282
▁simil	-5283
Ukraine	-5284
▁auxque	-5285
▁carnés	-5286
▁combin	-5287
▁essais	-5288
▁pertin	-5289
▁renfer	-5290
▁salons	-5291
ologique	-5292
▁atteign	-5293
▁indique	-5294
▁kiosque	-5295
▁montant	-5296
▁débarque	-5297
▁meilleur	-5298
▁présenté	-5299
importants	-5300
▁contraire	-5301
▁souhaitent	-5302
▁information	-5303
▁dénomination	-5304
gg	-5305
imm	-5306
oya	-5307
▁Je	-5308
▁Nu	-5309
▁Ob	-5310
▁fr	-5311
ancé	-5312
oque	-5313
ourg	-5314
▁125	-5315
▁700	-5316
▁800	-5317
▁Bri	-5318
▁Lim	-5319
▁gag	-5320
▁gel	-5321
ALENA	-5322
Chine	-5323
Grâce	-5324
ibles	-5325
intég	-5326
usion	-5327
usses	-5328
▁appu	-5329
▁avis	-5330
▁ital	-5331
▁phys	-5332
▁vert	-5333
▁évid	-5334
▁2007,	-5335
▁démar	-5336
▁pains	-5337
▁vient	-5338
▁Groupe	-5339
▁Valeur	-5340
▁objets	-5341
▁rendre	-5342
applique	-5343
▁Balance	-5344
▁Company	-5345
▁blanche	-5346
▁déficit	-5347
▁maladie	-5348
▁modifié	-5349
▁sociale	-5350
▁utilise	-5351
▁Canadian	-5352
▁Exporter	-5353
▁intérêts	-5354
▁mondiaux	-5355
▁clientèle	-5356
▁concentré	-5357
▁présentés	-5358
▁récession	-5359
▁facilement	-5360
rastructures	-5361
▁initiatives	-5362
▁manutention	-5363
▁équipements	-5364
▁dédouanement	-5365
HA	-5366
nl	-5367
▁Î	-5368
-20	-5369
tez	-5370
▁54	-5371
▁EX	-5372
▁Mi	-5373
▁Oc	-5374
arie	-5375
cien	-5376
dorf	-5377
ings	-5378
ouse	-5379
▁Mes	-5380
▁dég	-5381
ertif	-5382
ières	-5383
lobal	-5384
taire	-5385
vatis	-5386
▁cong	-5387
▁dépl	-5388
▁tran	-5389
dessus	-5390
ection	-5391
eneral	-5392
offrir	-5393
ustral	-5394
▁1990,	-5395
▁1998,	-5396
▁exper	-5397
▁tient	-5398
business	-5399
▁Section	-5400
▁moderne	-5401
▁récente	-5402
▁vietnam	-5403
augmenter	-5404
▁Grosseur	-5405
▁autorisé	-5406
▁minéraux	-5407
▁privatis	-5408
▁vinaigre	-5409
▁végétale	-5410
▁conformes	-5411
▁mexicaine	-5412
▁réfrigéré	-5413
▁sélection	-5414
Euromonitor	-5415
▁compagnies	-5416
▁Utilisation	-5417
▁contiennent	-5418
▁législation	-5419
▁probablement	-5420
▁préoccupations	-5421
07	-5422
IF	-5423
IM	-5424
4-6	-5425
PAR	-5426
ami	-5427
cel	-5428
▁Dr	-5429
berg	-5430
oine	-5431
oton	-5432
remi	-5433
▁PAR	-5434
▁Rob	-5435
▁nov	-5436
▁pap	-5437
giène	-5438
ister	-5439
roche	-5440
érées	-5441
▁mand	-5442
▁prêt	-5443
▁pâte	-5444
▁raff	-5445
▁veut	-5446
▁Atlas	-5447
▁Japan	-5448
Afrique	-5449
▁denrée	-5450
adoption	-5451
icateurs	-5452
▁devront	-5453
▁dispose	-5454
astronome	-5455
élevaient	-5456
▁Document	-5457
▁Maturité	-5458
▁Personne	-5459
▁courante	-5460
▁courtier	-5461
▁déjeuner	-5462
▁croquante	-5463
▁fabriqués	-5464
▁personnel	-5465
▁végétales	-5466
▁étiquette	-5467
▁chargement	-5468
▁exposition	-5469
▁Exportation	-5470
▁préférences	-5471
▁traçabilité	-5472
OC	-5473
UI	-5474
-23	-5475
cil	-5476
idé	-5477
ori	-5478
pul	-5479
▁87	-5480
▁Sp	-5481
▁mm	-5482
▁ul	-5483
Food	-5484
ical	-5485
verg	-5486
▁201	-5487
▁dès	-5488
▁tel	-5489
▁Prix	-5490
▁bass	-5491
▁cass	-5492
▁post	-5493
omment	-5494
▁condi	-5495
▁endro	-5496
▁plans	-5497
▁ronde	-5498
▁écoss	-5499
Uruguay	-5500
actions	-5501
ressent	-5502
▁commod	-5503
▁concep	-5504
▁lignes	-5505
▁offert	-5506
▁riches	-5507
issances	-5508
mosphère	-5509
▁Germany	-5510
▁Nouveau	-5511
▁balance	-5512
▁contact	-5513
▁délégué	-5514
▁portent	-5515
Brunswick	-5516
améliorer	-5517
opulation	-5518
▁Distribu	-5519
▁Honduras	-5520
▁Slovénie	-5521
▁accompag	-5522
▁canneber	-5523
▁connexes	-5524
▁occupent	-5525
▁pourront	-5526
▁réussite	-5527
▁sciences	-5528
▁utilisée	-5529
▁influence	-5530
▁produisent	-5531
▁présentent	-5532
▁agriculture	-5533
▁estimations	-5534
▁répartition	-5535
▁transgéniques	-5536
52	-5537
aw	-5538
04)	-5539
100	-5540
LES	-5541
dia	-5542
edc	-5543
jsp	-5544
ura	-5545
égi	-5546
▁CO	-5547
▁GB	-5548
aria	-5549
olit	-5550
orce	-5551
▁1,4	-5552
▁Fre	-5553
▁Gar	-5554
▁Lac	-5555
▁Pos	-5556
▁iss	-5557
▁ouv	-5558
gérie	-5559
trade	-5560
treet	-5561
▁930,	-5562
▁Annu	-5563
▁malt	-5564
▁quoi	-5565
▁sais	-5566
change	-5567
otines	-5568
▁dépit	-5569
▁lieux	-5570
▁quali	-5571
▁recul	-5572
▁régle	-5573
▁stric	-5574
dessous	-5575
ustrali	-5576
▁Health	-5577
▁Saskat	-5578
▁désire	-5579
▁enrich	-5580
▁(972-2)	-5581
▁Alberta	-5582
▁Produit	-5583
▁déclaré	-5584
▁Lituanie	-5585
▁associés	-5586
▁commence	-5587
▁prennent	-5588
▁pénétrer	-5589
▁viennent	-5590
indication	-5591
▁Règlement	-5592
▁commodité	-5593
▁ethniques	-5594
▁japonaise	-5595
▁lentement	-5596
▁Communauté	-5597
▁chercheurs	-5598
▁transformé	-5599
▁Statistique	-5600
▁contingents	-5601
▁secondaires	-5602
▁britanniques	-5603
▁responsables	-5604
Administration	-5605
MP	-5606
Se	-5607
▁#	-5608
-10	-5609
8-6	-5610
Min	-5611
mbH	-5612
▁83	-5613
▁NE	-5614
▁ON	-5615
▁Ou	-5616
▁sû	-5617
▁us	-5618
cons	-5619
rois	-5620
ètes	-5621
▁0,5	-5622
▁Cal	-5623
▁Tok	-5624
▁lin	-5625
▁mot	-5626
▁nor	-5627
agnol	-5628
tures	-5629
èdent	-5630
▁Conf	-5631
▁Farm	-5632
▁ryth	-5633
Import	-5634
examen	-5635
▁Group	-5636
▁court	-5637
▁expéd	-5638
▁lancé	-5639
▁manif	-5640
▁salés	-5641
▁étudi	-5642
▁bovine	-5643
▁privil	-5644
▁aspects	-5645
▁délivré	-5646
▁gâteaux	-5647
▁réduits	-5648
exception	-5649
▁Contacts	-5650
▁gazeuses	-5651
▁pourquoi	-5652
▁sensible	-5653
▁contribue	-5654
▁fiabilité	-5655
▁franchise	-5656
▁incidence	-5657
▁Astronomes	-5658
▁inférieure	-5659
▁japonaises	-5660
▁travaillent	-5661
▁participants	-5662
▁productivité	-5663
2)	-5664
Sa	-5665
cf	-5666
yp	-5667
-32	-5668
NEX	-5669
los	-5670
nal	-5671
tec	-5672
▁96	-5673
▁Bl	-5674
lets	-5675
mons	-5676
otel	-5677
usda	-5678
venu	-5679
vres	-5680
▁Déc	-5681
▁Mme	-5682
▁Ter	-5683
▁Tex	-5684
tence	-5685
▁2010	-5686
▁Cela	-5687
▁Délé	-5688
▁éché	-5689
difice	-5690
eldorf	-5691
europa	-5692
oncurr	-5693
quième	-5694
▁situé	-5695
▁Fisher	-5696
▁circul	-5697
▁grosse	-5698
▁légère	-5699
▁mariti	-5700
▁rigour	-5701
▁rythme	-5702
▁élimin	-5703
Produits	-5704
herlands	-5705
▁annoncé	-5706
▁composé	-5707
▁directs	-5708
▁drogues	-5709
▁détient	-5710
▁indiqué	-5711
▁semence	-5712
▁servent	-5713
▁solides	-5714
tissement	-5715
▁Economic	-5716
▁Veuillez	-5717
▁conforme	-5718
▁frontali	-5719
▁physique	-5720
▁sensibil	-5721
▁éventail	-5722
inscription	-5723
▁Université	-5724
▁clairement	-5725
▁consomment	-5726
▁grandement	-5727
organisation	-5728
▁touristique	-5729
▁géographique	-5730
je	-5731
ox	-5732
Com	-5733
hor	-5734
rez	-5735
▁77	-5736
▁9.	-5737
▁Li	-5738
PAUX	-5739
atie	-5740
chée	-5741
ourt	-5742
▁1,1	-5743
▁3,5	-5744
▁PAS	-5745
▁PDF	-5746
▁PRÉ	-5747
▁fau	-5748
ament	-5749
antan	-5750
arach	-5751
enser	-5752
illée	-5753
milli	-5754
élarg	-5755
▁Coff	-5756
▁GmbH	-5757
▁juri	-5758
▁neig	-5759
▁solu	-5760
▁susc	-5761
▁œufs	-5762
ension	-5763
resser	-5764
tables	-5765
▁Comme	-5766
▁final	-5767
▁prévu	-5768
▁souff	-5769
▁tenir	-5770
article	-5771
hygiène	-5772
▁(2005)	-5773
▁chargé	-5774
▁exprim	-5775
▁facile	-5776
▁format	-5777
▁interd	-5778
▁porter	-5779
▁sommet	-5780
Commerce	-5781
INCIPAUX	-5782
occasion	-5783
▁Califor	-5784
▁tchèque	-5785
▁texture	-5786
esticides	-5787
permarché	-5788
▁Autriche	-5789
▁garantir	-5790
▁généraux	-5791
▁parvenir	-5792
▁portions	-5793
▁chinoises	-5794
▁essentiel	-5795
▁transfert	-5796
▁lesquelles	-5797
▁oléagineux	-5798
▁instruments	-5799
▁laboratoire	-5800
▁provinciaux	-5801
▁particuliers	-5802
▁traditionnelle	-5803
OP	-5804
auf	-5805
ira	-5806
sse	-5807
étu	-5808
▁76	-5809
▁PA	-5810
ader	-5811
ervé	-5812
même	-5813
état	-5814
▁1,3	-5815
▁Lég	-5816
▁Mon	-5817
▁pan	-5818
▁élè	-5819
Direc	-5820
effet	-5821
hydra	-5822
olumb	-5823
sions	-5824
▁Info	-5825
diques	-5826
▁Spain	-5827
▁cesse	-5828
▁euros	-5829
▁libér	-5830
▁poste	-5831
▁énonc	-5832
absence	-5833
▁Street	-5834
▁active	-5835
▁affich	-5836
▁employ	-5837
▁puisqu	-5838
▁saveur	-5839
▁soulig	-5840
Économie	-5841
érations	-5842
▁compren	-5843
▁densité	-5844
▁estimée	-5845
▁exporte	-5846
▁famille	-5847
▁volumes	-5848
▁élément	-5849
▁aromatis	-5850
▁nouilles	-5851
▁provient	-5852
▁retrouve	-5853
Astronomes	-5854
▁bilatéral	-5855
▁cinquième	-5856
▁courtiers	-5857
▁modalités	-5858
▁condiments	-5859
▁considérés	-5860
▁ingrédient	-5861
89	-5862
UL	-5863
blé	-5864
get	-5865
▁Ab	-5866
▁br	-5867
▁mâ	-5868
ency	-5869
mans	-5870
nnes	-5871
olfe	-5872
roir	-5873
▁995	-5874
▁CAF	-5875
▁LES	-5876
▁Pau	-5877
▁cri	-5878
▁dos	-5879
▁hor	-5880
▁rab	-5881
agnes	-5882
appel	-5883
crire	-5884
faits	-5885
▁Bien	-5886
▁Mich	-5887
▁Star	-5888
▁Vous	-5889
▁fisc	-5890
Québec	-5891
issait	-5892
observ	-5893
oignon	-5894
tisser	-5895
umière	-5896
▁bleue	-5897
▁varie	-5898
▁Marque	-5899
▁Retail	-5900
▁phénom	-5901
▁pointe	-5902
▁situés	-5903
▁sucrée	-5904
▁évalué	-5905
▁consult	-5906
▁directe	-5907
▁obtenus	-5908
▁reconnu	-5909
▁reservé	-5910
▁établit	-5911
▁courriel	-5912
▁évaluées	-5913
▁produites	-5914
▁sanitaire	-5915
▁trimestre	-5916
▁Industrial	-5917
▁Principaux	-5918
▁financiers	-5919
▁logistique	-5920
▁officielle	-5921
▁intéressées	-5922
▁transformée	-5923
▁bioalimentaire	-5924
▁multinationales	-5925
▁traditionnelles	-5926
84	-5927
ft	-5928
did	-5929
fas	-5930
obe	-5931
omb	-5932
ses	-5933
urg	-5934
▁II	-5935
▁ta	-5936
▁Év	-5937
SOCI	-5938
book	-5939
line	-5940
pôts	-5941
stra	-5942
ters	-5943
▁Cha	-5944
▁Sch	-5945
▁all	-5946
▁boî	-5947
▁fum	-5948
▁mol	-5949
antic	-5950
atifs	-5951
istor	-5952
mande	-5953
rince	-5954
▁Coun	-5955
▁Fran	-5956
▁Rich	-5957
▁huit	-5958
▁reti	-5959
alogue	-5960
chewan	-5961
naires	-5962
équipe	-5963
▁(246)	-5964
▁Grèce	-5965
▁abord	-5966
▁artis	-5967
▁chang	-5968
▁innov	-5969
▁saine	-5970
▁train	-5971
▁Étude	-5972
lectric	-5973
▁1998."	-5974
▁cartes	-5975
▁complé	-5976
▁lettre	-5977
▁mâcher	-5978
▁élèves	-5979
paravant	-5980
▁Londres	-5981
▁coûteux	-5982
▁progrès	-5983
acheteurs	-5984
▁capitale	-5985
▁moyennes	-5986
▁Institute	-5987
▁emballage	-5988
▁fondament	-5989
▁pollution	-5990
▁préemball	-5991
▁spéciales	-5992
▁substances	-5993
strophysique	-5994
▁investissement	-5995
94	-5996
-00	-5997
ANT	-5998
auc	-5999
ria	-6000
tro	-6001
île	-6002
▁%.	-6003
▁SI	-6004
▁lu	-6005
arde	-6006
file	-6007
pect	-6008
sses	-6009
▁(49	-6010
▁195	-6011
▁2,3	-6012
▁2,8	-6013
▁Dav	-6014
▁Gov	-6015
▁Mil	-6016
▁clé	-6017
élève	-6018
▁cell	-6019
▁nuit	-6020
▁sauc	-6021
▁équi	-6022
alisée	-6023
orient	-6024
tariat	-6025
trants	-6026
▁Hotel	-6027
▁Tokyo	-6028
▁corps	-6029
▁coton	-6030
▁plate	-6031
▁soins	-6032
olumbia	-6033
▁harmon	-6034
▁outils	-6035
▁visent	-6036
▁étoile	-6037
donnance	-6038
ducation	-6039
▁bonbons	-6040
▁devises	-6041
▁durable	-6042
▁facture	-6043
▁moindre	-6044
▁varient	-6045
activités	-6046
tructions	-6047
▁chinoise	-6048
▁relation	-6049
troduction	-6050
▁développé	-6051
▁efficaces	-6052
▁exception	-6053
Afghanistan	-6054
▁exploitants	-6055
▁publication	-6056
▁représenter	-6057
ID	-6058
IV	-6059
Ph	-6060
ua	-6061
103	-6062
fié	-6063
ley	-6064
▁RE	-6065
occu	-6066
oies	-6067
orée	-6068
umer	-6069
▁1-8	-6070
▁2,9	-6071
▁App	-6072
▁Bon	-6073
▁Dou	-6074
▁Exp	-6075
▁Win	-6076
poser	-6077
▁(55)	-6078
▁Iran	-6079
▁Plan	-6080
▁Porc	-6081
▁mous	-6082
▁peup	-6083
▁réel	-6084
▁surp	-6085
Arabie	-6086
alcool	-6087
ueilli	-6088
▁Elles	-6089
▁Texas	-6090
▁cafés	-6091
▁devra	-6092
▁désir	-6093
▁grimp	-6094
▁retra	-6095
▁trouv	-6096
animaux	-6097
tableau	-6098
▁auront	-6099
▁autour	-6100
▁chiens	-6101
▁cultur	-6102
▁ménage	-6103
▁pauvre	-6104
▁preuve	-6105
▁simple	-6106
▁soupes	-6107
igration	-6108
▁British	-6109
▁accéder	-6110
▁analyse	-6111
▁conseil	-6112
▁courant	-6113
▁propose	-6114
▁Republic	-6115
▁contamin	-6116
▁protéger	-6117
▁récentes	-6118
▁sauvages	-6119
▁enregistr	-6120
▁favorable	-6121
▁inférieur	-6122
▁touristes	-6123
▁philippins	-6124
▁professeur	-6125
▁applicables	-6126
▁financières	-6127
▁marchandise	-6128
▁observatoires	-6129
73	-6130
EB	-6131
UN	-6132
br	-6133
eri	-6134
üss	-6135
▁(%	-6136
▁88	-6137
▁là	-6138
NEXE	-6139
Nouv	-6140
OALI	-6141
amer	-6142
ican	-6143
isco	-6144
ouge	-6145
ulté	-6146
▁196	-6147
▁900	-6148
▁Bre	-6149
▁Han	-6150
▁Mag	-6151
▁Ver	-6152
▁cid	-6153
▁glu	-6154
luant	-6155
ories	-6156
ottes	-6157
▁1993	-6158
▁Aviv	-6159
▁Düss	-6160
▁Fish	-6161
▁Lune	-6162
▁Road	-6163
▁semi	-6164
▁sert	-6165
assent	-6166
trique	-6167
▁2002.	-6168
▁China	-6169
▁cuire	-6170
▁seuls	-6171
▁usine	-6172
igences	-6173
▁Coffee	-6174
▁Grande	-6175
▁Recher	-6176
▁ajouté	-6177
▁demeur	-6178
▁social	-6179
▁termin	-6180
▁vieill	-6181
acheteur	-6182
endances	-6183
rétariat	-6184
tiquette	-6185
▁Adresse	-6186
▁affiché	-6187
▁extrême	-6188
▁pénurie	-6189
▁saveurs	-6190
▁Édifice	-6191
Ambassade	-6192
tisseries	-6193
▁Finlande	-6194
▁PRODUITS	-6195
▁campagne	-6196
▁dominent	-6197
▁mentions	-6198
▁principe	-6199
▁renferme	-6200
▁soutenue	-6201
▁communaut	-6202
▁instantan	-6203
▁livraison	-6204
▁mondiales	-6205
▁possèdent	-6206
▁Düsseldorf	-6207
▁permission	-6208
▁pesticides	-6209
▁supérieurs	-6210
▁industriels	-6211
▁connaissance	-6212
▁vénézuéliennes	-6213
4.	-6214
EA	-6215
gl	-6216
up	-6217
-22	-6218
jus	-6219
▁92	-6220
▁CE	-6221
▁FO	-6222
Docu	-6223
dulc	-6224
inte	-6225
ries	-6226
▁120	-6227
▁Ass	-6228
▁Aut	-6229
▁pay	-6230
▁sav	-6231
venue	-6232
expéri	-6233
oncles	-6234
refour	-6235
▁Natur	-6236
▁chair	-6237
▁commu	-6238
▁goûts	-6239
▁huile	-6240
▁illus	-6241
▁situe	-6242
▁étage	-6243
entente	-6244
ination	-6245
iterran	-6246
▁PRÉPAR	-6247
▁autant	-6248
▁carrés	-6249
▁consig	-6250
▁devant	-6251
▁fleurs	-6252
▁située	-6253
adhésion	-6254
ébouchés	-6255
▁Croatie	-6256
▁emboute	-6257
▁mécanis	-6258
▁naturel	-6259
▁prévues	-6260
▁résidus	-6261
▁séchées	-6262
▁échéant	-6263
Industrie	-6264
entremise	-6265
▁résultat	-6266
lectricité	-6267
▁approuvés	-6268
▁encourage	-6269
▁entrepren	-6270
▁générales	-6271
▁importent	-6272
▁solutions	-6273
▁stabilité	-6274
association	-6275
▁Téléchargé	-6276
▁aromatique	-6277
▁assujettis	-6278
▁continuera	-6279
▁travailler	-6280
▁Netherlands	-6281
▁département	-6282
▁européennes	-6283
▁suppléments	-6284
▁connaissances	-6285
▁infrastructures	-6286
MB	-6287
no	-6288
où	-6289
-25	-6290
-30	-6291
-4)	-6292
IED	-6293
agé	-6294
cer	-6295
val	-6296
▁07	-6297
▁1)	-6298
▁59	-6299
▁86	-6300
▁Cl	-6301
▁Ed	-6302
▁FA	-6303
cies	-6304
mine	-6305
odex	-6306
èles	-6307
ènes	-6308
▁(10	-6309
▁986	-6310
▁Ben	-6311
▁Bos	-6312
▁FAB	-6313
▁Med	-6314
▁Nom	-6315
▁Pal	-6316
▁Vic	-6317
▁luc	-6318
▁syn	-6319
aster	-6320
trice	-6321
Étant	-6322
▁Brux	-6323
▁Fond	-6324
▁banc	-6325
▁forc	-6326
jectif	-6327
trices	-6328
ystème	-6329
▁Suite	-6330
▁boute	-6331
▁chefs	-6332
▁cible	-6333
▁défis	-6334
▁fréqu	-6335
▁livre	-6336
▁nourr	-6337
▁prior	-6338
Irlande	-6339
arrivée	-6340
ulation	-6341
version	-6342
▁arrive	-6343
▁entrée	-6344
▁faites	-6345
▁hareng	-6346
▁mandat	-6347
▁suivie	-6348
lescopes	-6349
ommation	-6350
▁AGROALI	-6351
▁Cologne	-6352
▁accrues	-6353
▁couleur	-6354
▁globale	-6355
▁réalisé	-6356
▁réserve	-6357
▁Columbia	-6358
▁approxim	-6359
▁couleurs	-6360
▁incluent	-6361
▁indiquer	-6362
▁asiatique	-6363
▁bienfaits	-6364
▁considéré	-6365
▁direction	-6366
▁nécessité	-6367
▁permettra	-6368
▁voyageurs	-6369
▁étrangère	-6370
▁difficulté	-6371
▁durabilité	-6372
▁favorables	-6373
▁industriel	-6374
▁similaires	-6375
▁transition	-6376
▁grignotines	-6377
▁mentionnons	-6378
▁particulière	-6379
▁travailleurs	-6380
▁vérification	-6381
▁phytosanitaire	-6382
xi	-6383
yc	-6384
ICC	-6385
MAR	-6386
dec	-6387
gob	-6388
mie	-6389
▁"0	-6390
▁41	-6391
▁74	-6392
▁BR	-6393
▁Cr	-6394
▁Pé	-6395
▁Wh	-6396
ENTS	-6397
cide	-6398
long	-6399
orth	-6400
rass	-6401
▁2,6	-6402
▁21,	-6403
▁Aff	-6404
▁Cas	-6405
▁Dar	-6406
▁Tai	-6407
▁Vin	-6408
▁ara	-6409
▁béb	-6410
▁her	-6411
▁lot	-6412
▁neu	-6413
aguay	-6414
essai	-6415
rivés	-6416
ussex	-6417
▁alli	-6418
▁demi	-6419
▁fumé	-6420
▁lien	-6421
▁mani	-6422
▁vali	-6423
allées	-6424
nelles	-6425
tibles	-6426
▁Allem	-6427
▁Paris	-6428
▁affec	-6429
▁douce	-6430
▁fruit	-6431
▁ANNEXE	-6432
▁Certif	-6433
▁Figure	-6434
▁London	-6435
▁Sussex	-6436
▁examen	-6437
▁homolo	-6438
▁miroir	-6439
▁papier	-6440
▁pertes	-6441
▁réussi	-6442
▁étapes	-6443
Contacts	-6444
autorité	-6445
elations	-6446
matiques	-6447
▁devenue	-6448
▁grasses	-6449
▁introdu	-6450
▁minimum	-6451
▁observe	-6452
▁ralenti	-6453
▁remarqu	-6454
▁renseig	-6455
▁créneaux	-6456
▁demander	-6457
▁ententes	-6458
▁réaliser	-6459
▁solution	-6460
▁stimuler	-6461
▁structur	-6462
▁Bruxelles	-6463
▁considéra	-6464
▁douanières	-6465
▁expérience	-6466
▁mentionnés	-6467
▁assujetties	-6468
▁expéditeurs	-6469
▁expéditions	-6470
▁extrêmement	-6471
▁Saskatchewan	-6472
▁représentation	-6473
!"	-6474
PP	-6475
▁—	-6476
-06	-6477
506	-6478
ECI	-6479
exc	-6480
gle	-6481
ney	-6482
▁":	-6483
▁97	-6484
ague	-6485
alam	-6486
cuit	-6487
http	-6488
tosh	-6489
▁(13	-6490
▁20,	-6491
▁3,3	-6492
▁Auc	-6493
▁HRI	-6494
▁Lib	-6495
▁NOM	-6496
▁RÉG	-6497
▁Wal	-6498
▁cra	-6499
Elles	-6500
ancer	-6501
exper	-6502
extra	-6503
iteur	-6504
stats	-6505
▁Best	-6506
▁bate	-6507
▁carc	-6508
▁page	-6509
▁préd	-6510
▁sond	-6511
Intosh	-6512
prises	-6513
source	-6514
ximité	-6515
▁1997,	-6516
▁James	-6517
▁Salon	-6518
▁cidre	-6519
▁lucra	-6520
▁marin	-6521
▁tests	-6522
grammes	-6523
▁1999."	-6524
▁Govern	-6525
▁blancs	-6526
▁budget	-6527
▁découl	-6528
▁faveur	-6529
▁pourra	-6530
▁répons	-6531
arachide	-6532
exporter	-6533
ulations	-6534
▁Nations	-6535
▁austral	-6536
▁indirec	-6537
▁lettres	-6538
▁spécial	-6539
▁terrain	-6540
▁urbains	-6541
intermédi	-6542
▁conclure	-6543
▁déshydra	-6544
▁fréquent	-6545
▁montrent	-6546
▁sections	-6547
▁surveill	-6548
▁Transport	-6549
▁dynamique	-6550
▁phénomène	-6551
▁proximité	-6552
▁travaille	-6553
▁utilisent	-6554
▁contribuer	-6555
▁réalisation	-6556
▁embouteillée	-6557
▁traditionnel	-6558
▁privatisation	-6559
▁,	-6560
-02	-6561
-12	-6562
ERS	-6563
___	-6564
car	-6565
gue	-6566
uer	-6567
▁**	-6568
▁Lu	-6569
▁Mo	-6570
enci	-6571
igne	-6572
inst	-6573
èves	-6574
▁Cop	-6575
▁Jer	-6576
▁Mor	-6577
▁ant	-6578
▁cru	-6579
▁sac	-6580
▁yog	-6581
effic	-6582
endra	-6583
issez	-6584
onnue	-6585
▁2008	-6586
▁York	-6587
▁axée	-6588
▁diam	-6589
▁joue	-6590
▁remb	-6591
▁rien	-6592
▁subi	-6593
▁voit	-6594
econom	-6595
ington	-6596
mètres	-6597
▁Premi	-6598
▁ajout	-6599
▁chats	-6600
▁condu	-6601
▁faite	-6602
▁mouve	-6603
▁peine	-6604
▁taxes	-6605
Princip	-6606
▁aurait	-6607
▁citron	-6608
▁immédi	-6609
▁signal	-6610
▁suivre	-6611
▁suscep	-6612
▁Équipe	-6613
utiliser	-6614
▁General	-6615
▁boisson	-6616
▁entrent	-6617
▁intensi	-6618
▁mangent	-6619
▁navires	-6620
Ministère	-6621
▁aéroport	-6622
▁chimique	-6623
▁comptant	-6624
▁licences	-6625
▁présents	-6626
▁périodes	-6627
▁relatifs	-6628
▁touchant	-6629
▁urbaines	-6630
Ordonnance	-6631
▁disposent	-6632
▁philippin	-6633
▁signature	-6634
servatoires	-6635
▁consacrées	-6636
▁israéliens	-6637
▁télescopes	-6638
▁Événements	-6639
Exportations	-6640
importations	-6641
▁considèrent	-6642
▁progression	-6643
▁astronomique	-6644
▁Biotechnology	-6645
▁considérables	-6646
▁concurrentiels	-6647
▁phytosanitaires	-6648
1.	-6649
Ne	-6650
auv	-6651
bal	-6652
gre	-6653
qua	-6654
way	-6655
èse	-6656
▁2.	-6657
▁3.	-6658
▁99	-6659
▁pé	-6660
▁rô	-6661
Mart	-6662
alem	-6663
ares	-6664
avie	-6665
avis	-6666
crit	-6667
euve	-6668
exis	-6669
onia	-6670
rite	-6671
tise	-6672
▁2,4	-6673
▁4,5	-6674
▁Den	-6675
▁Son	-6676
Inter	-6677
Quant	-6678
ación	-6679
aises	-6680
appar	-6681
cteur	-6682
domad	-6683
entin	-6684
ilson	-6685
krain	-6686
tatis	-6687
▁1992	-6688
▁CONT	-6689
▁Deli	-6690
▁caus	-6691
▁fera	-6692
▁fret	-6693
▁subs	-6694
▁thon	-6695
entiel	-6696
gement	-6697
illons	-6698
isplay	-6699
ustoms	-6700
édéral	-6701
▁2005"	-6702
▁Union	-6703
▁doute	-6704
▁haché	-6705
▁reflè	-6706
▁riche	-6707
▁règle	-6708
▁résid	-6709
acheter	-6710
▁Nestlé	-6711
▁Toutes	-6712
▁Viande	-6713
▁Victor	-6714
▁aérien	-6715
▁devenu	-6716
▁finale	-6717
▁livres	-6718
▁perman	-6719
▁renouv	-6720
▁sèches	-6721
▁volont	-6722
ographie	-6723
▁Affairs	-6724
▁Ajouter	-6725
▁Fédéral	-6726
▁Uruguay	-6727
▁accessi	-6728
▁ajouter	-6729
▁bleuets	-6730
▁comment	-6731
▁exigent	-6732
▁homards	-6733
▁parfois	-6734
▁version	-6735
Directive	-6736
▁Australi	-6737
▁Certains	-6738
▁approuvé	-6739
▁convient	-6740
▁incluant	-6741
▁interdit	-6742
▁officiel	-6743
▁attention	-6744
▁douaniers	-6745
▁espagnole	-6746
▁naturelle	-6747
▁requérant	-6748
▁réalisées	-6749
▁utilisant	-6750
Information	-6751
intégration	-6752
▁Fédération	-6753
▁Government	-6754
▁classement	-6755
▁conception	-6756
▁concession	-6757
▁distribuer	-6758
▁dépendance	-6759
▁graphiques	-6760
▁potentiels	-6761
▁simplement	-6762
autorisation	-6763
▁Préparation	-6764
▁circulation	-6765
▁disposition	-6766
▁indépendants	-6767
▁israéliennes	-6768
▁transformées	-6769
▁infrastructure	-6770
FI	-6771
vn	-6772
ÇU	-6773
-15	-6774
14)	-6775
URE	-6776
gro	-6777
oco	-6778
rar	-6779
ype	-6780
▁$"	-6781
▁($	-6782
▁2,	-6783
▁As	-6784
▁SU	-6785
▁UK	-6786
▁ém	-6787
ERÇU	-6788
TAGE	-6789
delà	-6790
indi	-6791
nexe	-6792
tial	-6793
çant	-6794
èvre	-6795
érit	-6796
▁(15	-6797
▁Mac	-6798
▁Pte	-6799
▁agr	-6800
▁fur	-6801
▁gén	-6802
▁riv	-6803
▁sti	-6804
agnos	-6805
telle	-6806
terre	-6807
vents	-6808
▁SIAL	-6809
▁code	-6810
▁couv	-6811
▁enti	-6812
▁parf	-6813
huiles	-6814
llerie	-6815
▁Agent	-6816
▁Sites	-6817
▁Table	-6818
▁absor	-6819
▁domes	-6820
▁perte	-6821
▁prise	-6822
▁ralen	-6823
angling	-6824
ibilité	-6825
importe	-6826
étaires	-6827
▁Agency	-6828
▁Barcel	-6829
▁Fruits	-6830
▁United	-6831
▁Volume	-6832
▁actuel	-6833
▁dispar	-6834
▁préfér	-6835
▁ukrain	-6836
ertaines	-6837
▁Council	-6838
▁Manille	-6839
▁actuels	-6840
▁adopter	-6841
▁coopéra	-6842
▁diminue	-6843
▁décorti	-6844
▁emploie	-6845
▁engrais	-6846
▁limites	-6847
▁mettent	-6848
▁succurs	-6849
▁visites	-6850
ociations	-6851
▁approche	-6852
▁familial	-6853
▁manifest	-6854
▁profiter	-6855
▁pêcherie	-6856
▁substitu	-6857
▁Alimentos	-6858
▁commerces	-6859
▁constitué	-6860
▁détaillée	-6861
▁possibles	-6862
▁privilégi	-6863
▁Population	-6864
▁auparavant	-6865
▁détaillant	-6866
▁manufactur	-6867
▁recommandé	-6868
▁sanitaires	-6869
▁appartenant	-6870
▁association	-6871
▁bilatérales	-6872
▁canneberges	-6873
▁préemballés	-6874
▁consignation	-6875
▁modification	-6876
IO	-6877
PE	-6878
sé	-6879
vo	-6880
Con	-6881
EDC	-6882
aka	-6883
ona	-6884
yan	-6885
imes	-6886
inée	-6887
news	-6888
çons	-6889
▁(12	-6890
▁Gre	-6891
▁Mig	-6892
mbres	-6893
nesol	-6894
ouvez	-6895
rants	-6896
trans	-6897
▁Cong	-6898
▁Mill	-6899
▁Naci	-6900
▁News	-6901
▁agro	-6902
▁rédi	-6903
▁thaï	-6904
▁éten	-6905
ctions	-6906
inform	-6907
usalem	-6908
▁(504)	-6909
▁Faire	-6910
▁Forum	-6911
▁House	-6912
▁abond	-6913
▁détec	-6914
▁prati	-6915
▁édulc	-6916
acteurs	-6917
diction	-6918
ebdomad	-6919
inaires	-6920
install	-6921
lumière	-6922
▁Austin	-6923
▁CANADA	-6924
▁accélé	-6925
▁estimé	-6926
▁pouvez	-6927
▁tendre	-6928
National	-6929
explique	-6930
importer	-6931
▁Délégué	-6932
▁Système	-6933
▁adaptés	-6934
▁commune	-6935
▁communs	-6936
▁laisser	-6937
▁suivent	-6938
▁échelle	-6939
▁Nacional	-6940
▁consulat	-6941
▁excédent	-6942
▁hectares	-6943
▁moutarde	-6944
▁observer	-6945
▁obstacle	-6946
▁seraient	-6947
▁spéciaux	-6948
expérience	-6949
▁Allemands	-6950
▁exportent	-6951
▁progressi	-6952
Préparation	-6953
▁Californie	-6954
▁meilleures	-6955
▁poursuivre	-6956
introduction	-6957
▁inspections	-6958
▁institution	-6959
▁supermarché	-6960
Astrophysique	-6961
▁débarquement	-6962
▁stratégiques	-6963
▁exclusivement	-6964
AM	-6965
CO	-6966
TM	-6967
bc	-6968
ek	-6969
éh	-6970
-50	-6971
.11	-6972
12)	-6973
ERV	-6974
IRE	-6975
ORM	-6976
Sec	-6977
TIC	-6978
TRE	-6979
ado	-6980
hou	-6981
php	-6982
ume	-6983
ute	-6984
▁(+	-6985
▁Pl	-6986
▁Sc	-6987
/199	-6988
Afin	-6989
Tous	-6990
ingt	-6991
lent	-6992
îles	-6993
▁(0)	-6994
▁2,7	-6995
▁Bay	-6996
▁Dub	-6997
▁Pla	-6998
▁Que	-6999
▁Rec	-7000
▁bac	-7001
Neuve	-7002
abric	-7003
chets	-7004
ourir	-7005
rices	-7006
robat	-7007
tical	-7008
toral	-7009
ville	-7010
▁amen	-7011
▁défi	-7012
▁quin	-7013
Lorsqu	-7014
années	-7015
érance	-7016
▁(514)	-7017
▁613-7	-7018
▁David	-7019
▁brass	-7020
▁essor	-7021
▁sépar	-7022
▁tribu	-7023
▁têtes	-7024
▁verts	-7025
Pendant	-7026
Tableau	-7027
lations	-7028
égantic	-7029
étoiles	-7030
▁Pêches	-7031
▁estima	-7032
▁modèle	-7033
▁révélé	-7034
▁satell	-7035
▁stabil	-7036
Certains	-7037
gleterre	-7038
▁Article	-7039
▁accorde	-7040
▁artisan	-7041
▁conjoin	-7042
▁diagnos	-7043
▁perform	-7044
▁précise	-7045
▁réforme	-7046
▁tomates	-7047
TIQUETAGE	-7048
événement	-7049
▁Variétés	-7050
▁Victoria	-7051
▁assaison	-7052
▁entraîné	-7053
▁extraits	-7054
▁galaxies	-7055
▁graisses	-7056
▁tartiner	-7057
▁Politique	-7058
▁autorisés	-7059
▁certifiés	-7060
▁cherchent	-7061
▁conformer	-7062
▁contrôles	-7063
▁laitières	-7064
▁paiements	-7065
▁réception	-7066
▁éventuels	-7067
élaboration	-7068
▁appartient	-7069
▁délivrance	-7070
▁enregistrés	-7071
▁formulaires	-7072
▁occidentaux	-7073
▁pâtisseries	-7074
▁utilisation	-7075
intermédiaire	-7076
▁Organisateur	-7077
▁observatoire	-7078
▁surveillance	-7079
▁ralentissement	-7080
8/	-7081
AQ	-7082
Du	-7083
sa	-7084
▁▪	-7085
Aux	-7086
ESB	-7087
ame	-7088
chi	-7089
igh	-7090
rup	-7091
▁"5	-7092
▁58	-7093
▁61	-7094
▁CH	-7095
▁Fo	-7096
▁HR	-7097
▁Na	-7098
▁lb	-7099
aple	-7100
ater	-7101
ends	-7102
fort	-7103
gées	-7104
itam	-7105
▁1,7	-7106
▁192	-7107
▁514	-7108
▁519	-7109
▁Squ	-7110
▁Vis	-7111
▁cat	-7112
▁maî	-7113
▁siè	-7114
▁tur	-7115
▁tém	-7116
comme	-7117
estes	-7118
oyage	-7119
était	-7120
▁carb	-7121
▁crée	-7122
▁vive	-7123
Source	-7124
cieuse	-7125
ercice	-7126
icaine	-7127
études	-7128
▁Foire	-7129
▁plant	-7130
▁étape	-7131
engrais	-7132
icateur	-7133
itation	-7134
▁Prépar	-7135
▁frites	-7136
▁médias	-7137
▁promet	-7138
▁prévue	-7139
industri	-7140
objectif	-7141
tellectu	-7142
▁actives	-7143
▁adresse	-7144
▁affaire	-7145
▁central	-7146
▁compter	-7147
▁créneau	-7148
▁qualifi	-7149
▁reprise	-7150
▁visiter	-7151
essources	-7152
quisition	-7153
strategis	-7154
▁Paraguay	-7155
▁capitaux	-7156
▁comptait	-7157
▁diamètre	-7158
▁mélanges	-7159
▁revanche	-7160
hôtellerie	-7161
ressources	-7162
▁Nouvelles	-7163
▁pétoncles	-7164
▁tournesol	-7165
importantes	-7166
▁Atlantique	-7167
▁Production	-7168
▁confitures	-7169
▁régionales	-7170
▁constamment	-7171
▁description	-7172
▁différences	-7173
▁déclaration	-7174
▁Introduction	-7175
▁suffisamment	-7176
▁entrepreneurs	-7177
▁planification	-7178
9)	-7179
Su	-7180
jp	-7181
yl	-7182
-84	-7183
.),	-7184
CON	-7185
ann	-7186
ary	-7187
mor	-7188
peg	-7189
sur	-7190
zer	-7191
▁$)	-7192
▁je	-7193
adap	-7194
atte	-7195
haus	-7196
inos	-7197
nera	-7198
rons	-7199
sier	-7200
ueil	-7201
éhic	-7202
▁1,8	-7203
▁3,4	-7204
▁Bah	-7205
▁Cet	-7206
▁Dan	-7207
▁Far	-7208
▁Pas	-7209
▁Sir	-7210
▁Sup	-7211
▁arg	-7212
▁cre	-7213
▁spa	-7214
▁tor	-7215
Carte	-7216
chers	-7217
encer	-7218
ijing	-7219
nipeg	-7220
rador	-7221
▁125,	-7222
▁Char	-7223
▁Code	-7224
▁noir	-7225
▁plac	-7226
▁plat	-7227
▁prot	-7228
dation	-7229
existe	-7230
ormais	-7231
▁Golfe	-7232
▁Pérou	-7233
▁allég	-7234
▁médec	-7235
▁ordre	-7236
▁répan	-7237
▁véhic	-7238
igrants	-7239
mention	-7240
science	-7241
▁envers	-7242
▁images	-7243
▁puisse	-7244
▁éviter	-7245
Document	-7246
quemment	-7247
éanmoins	-7248
▁côtelée	-7249
▁forment	-7250
▁oursins	-7251
▁récents	-7252
▁vendeur	-7253
existence	-7254
▁intrants	-7255
▁transpar	-7256
▁Carrefour	-7257
▁autrement	-7258
▁colorants	-7259
▁développe	-7260
▁effectuer	-7261
▁nutritifs	-7262
▁pressions	-7263
▁principes	-7264
▁régionale	-7265
électricité	-7266
▁Croissance	-7267
▁astronomie	-7268
▁collations	-7269
▁constituer	-7270
▁deviennent	-7271
▁directives	-7272
▁intellectu	-7273
▁préférence	-7274
▁susmention	-7275
▁totalisant	-7276
▁nourrissons	-7277
▁vétérinaire	-7278
▁coentreprise	-7279
▁conséquences	-7280
▁spécialisées	-7281
▁communication	-7282
▁prescriptions	-7283
▁commercialiser	-7284
▁©	-7285
-88	-7286
CHE	-7287
ata	-7288
rag	-7289
réh	-7290
und	-7291
▁"4	-7292
▁51	-7293
▁AP	-7294
▁BC	-7295
▁SO	-7296
Conn	-7297
OTAL	-7298
abil	-7299
bert	-7300
bury	-7301
dité	-7302
euts	-7303
ores	-7304
outh	-7305
pour	-7306
roit	-7307
▁"""	-7308
▁(30	-7309
▁030	-7310
▁160	-7311
▁Bra	-7312
▁Don	-7313
▁McC	-7314
▁lux	-7315
▁may	-7316
▁tél	-7317
Alors	-7318
Atlas	-7319
Enfin	-7320
Outre	-7321
autom	-7322
cuter	-7323
dulée	-7324
icole	-7325
oigne	-7326
ridge	-7327
▁Mark	-7328
▁Minh	-7329
▁muni	-7330
▁nomm	-7331
France	-7332
aution	-7333
avance	-7334
riques	-7335
▁Maple	-7336
▁Océan	-7337
▁Toute	-7338
▁chaud	-7339
▁codes	-7340
▁conçu	-7341
▁coutu	-7342
▁gomme	-7343
▁inves	-7344
▁plais	-7345
▁style	-7346
▁virtu	-7347
▁élarg	-7348
Article	-7349
Display	-7350
enquête	-7351
tissent	-7352
ussalam	-7353
▁acheté	-7354
▁baissé	-7355
▁connue	-7356
▁double	-7357
▁départ	-7358
▁exigés	-7359
▁rabais	-7360
▁record	-7361
▁suivis	-7362
Mégantic	-7363
angeries	-7364
ituation	-7365
▁brevets	-7366
▁chiches	-7367
▁dérivés	-7368
▁experts	-7369
▁mesurer	-7370
▁obtient	-7371
▁remplac	-7372
▁science	-7373
▁transit	-7374
Néanmoins	-7375
▁derrière	-7376
▁objectif	-7377
▁occupait	-7378
▁offertes	-7379
▁produite	-7380
▁rechange	-7381
▁semblent	-7382
atmosphère	-7383
efficacité	-7384
▁annuelles	-7385
▁composent	-7386
▁diversité	-7387
▁désormais	-7388
▁effectuée	-7389
▁présentes	-7390
▁répondent	-7391
▁Darussalam	-7392
▁commencent	-7393
▁communauté	-7394
▁conteneurs	-7395
▁découverte	-7396
▁inférieurs	-7397
▁inspection	-7398
▁rencontrer	-7399
▁contraintes	-7400
▁universités	-7401
▁documentaire	-7402
▁instructions	-7403
▁sectorielles	-7404
DisplayDocument	-7405
▁intellectuelle	-7406
▁concessionnaire	-7407
▁conditionnement	-7408
.5	-7409
36	-7410
7/	-7411
ko	-7412
wn	-7413
Jus	-7414
aan	-7415
asi	-7416
bus	-7417
dir	-7418
ipp	-7419
oxy	-7420
▁84	-7421
▁TM	-7422
▁Ze	-7423
▁er	-7424
▁mg	-7425
ANDE	-7426
Alas	-7427
ENTE	-7428
airy	-7429
aits	-7430
annu	-7431
atar	-7432
ende	-7433
fraî	-7434
gène	-7435
iner	-7436
kans	-7437
leur	-7438
rera	-7439
vest	-7440
▁(14	-7441
▁Gal	-7442
▁Met	-7443
▁Mél	-7444
▁TVA	-7445
▁bol	-7446
▁dél	-7447
Avant	-7448
aland	-7449
aquie	-7450
world	-7451
▁empê	-7452
▁idée	-7453
▁parc	-7454
▁vacc	-7455
▁voul	-7456
▁âgés	-7457
▁écar	-7458
▁îles	-7459
Alaska	-7460
Connor	-7461
alifax	-7462
commun	-7463
ensent	-7464
▁Domin	-7465
▁appos	-7466
▁chute	-7467
▁moléc	-7468
▁récip	-7469
▁égard	-7470
actbook	-7471
country	-7472
istoire	-7473
▁Règles	-7474
▁chauff	-7475
▁gelées	-7476
▁lancer	-7477
▁nouvel	-7478
▁révèle	-7479
produits	-7480
▁Chambre	-7481
▁Colonia	-7482
▁SECTEUR	-7483
▁concept	-7484
▁conique	-7485
▁constru	-7486
▁réussir	-7487
▁traiter	-7488
▁vendues	-7489
compteurs	-7490
▁Barbados	-7491
▁auxquels	-7492
▁chambres	-7493
▁circuits	-7494
▁contrats	-7495
▁dépasser	-7496
▁exploite	-7497
▁favorise	-7498
▁maritime	-7499
▁Marketing	-7500
▁actuelles	-7501
▁brésilien	-7502
▁continent	-7503
▁indiquant	-7504
▁lancement	-7505
▁multiples	-7506
▁musulmans	-7507
▁Évolution	-7508
utilisateur	-7509
▁Conseiller	-7510
▁atteignant	-7511
▁essentiels	-7512
▁semblables	-7513
▁tartinades	-7514
____________	-7515
▁PRÉPARATION	-7516
▁Regulations	-7517
▁Secrétariat	-7518
▁obligatoires	-7519
▁propriétaire	-7520
▁coentreprises	-7521
▁professionnel	-7522
▁répercussions	-7523
▁pharmaceutique	-7524
2.	-7525
26	-7526
37	-7527
?"	-7528
AD	-7529
mu	-7530
nd	-7531
▁)	-7532
02)	-7533
Col	-7534
POS	-7535
Son	-7536
aug	-7537
ene	-7538
lue	-7539
ova	-7540
por	-7541
tur	-7542
ulé	-7543
▁69	-7544
▁Os	-7545
-199	-7546
80-4	-7547
ACTS	-7548
Aviv	-7549
agés	-7550
andw	-7551
endu	-7552
ight	-7553
merg	-7554
rige	-7555
rovi	-7556
rupo	-7557
▁Blé	-7558
▁Eau	-7559
▁GUI	-7560
▁Ind	-7561
▁Val	-7562
▁bel	-7563
▁bro	-7564
▁red	-7565
accep	-7566
cines	-7567
dones	-7568
manie	-7569
oyens	-7570
tième	-7571
vador	-7572
▁1,92	-7573
▁Amer	-7574
▁Bang	-7575
▁Gold	-7576
▁Hamb	-7577
▁Ltda	-7578
▁cuit	-7579
▁iran	-7580
▁luxe	-7581
▁prin	-7582
▁tiré	-7583
argent	-7584
impact	-7585
tences	-7586
truire	-7587
▁(2004	-7588
▁Monde	-7589
▁actif	-7590
▁capac	-7591
Aujourd	-7592
Lorsque	-7593
issants	-7594
istères	-7595
prendre	-7596
▁(2004)	-7597
▁Annual	-7598
▁Région	-7599
▁Square	-7600
▁Territ	-7601
▁camion	-7602
▁comité	-7603
▁danger	-7604
▁formes	-7605
▁marche	-7606
▁routes	-7607
▁suisse	-7608
▁unités	-7609
▁variés	-7610
Nouvelle	-7611
issables	-7612
mination	-7613
rigation	-7614
▁Poisson	-7615
▁exercée	-7616
▁ferrovi	-7617
▁législa	-7618
▁nations	-7619
▁ouverts	-7620
▁partage	-7621
▁porcine	-7622
▁raisins	-7623
▁raisonn	-7624
▁stables	-7625
▁yogourt	-7626
▁édition	-7627
▁évaluer	-7628
▁Winnipeg	-7629
▁Yangling	-7630
▁acidulée	-7631
▁courants	-7632
▁effectue	-7633
▁fromages	-7634
▁missions	-7635
▁modifier	-7636
▁récoltes	-7637
▁saisonni	-7638
identifier	-7639
▁Plusieurs	-7640
▁nettement	-7641
▁préparées	-7642
▁asiatiques	-7643
▁contenants	-7644
▁conversion	-7645
▁frontières	-7646
▁localement	-7647
▁propriétés	-7648
Alimentation	-7649
▁indicateurs	-7650
▁thaïlandais	-7651
▁Consommation	-7652
▁attribuables	-7653
▁transactions	-7654
▁transitaires	-7655
▁industrielles	-7656
▁reconnaissance	-7657
34	-7658
61	-7659
FC	-7660
MC	-7661
Ré	-7662
UM	-7663
em	-7664
ik	-7665
jo	-7666
AIN	-7667
CES	-7668
ael	-7669
ham	-7670
ink	-7671
ray	-7672
▁--	-7673
▁OC	-7674
▁So	-7675
Serv	-7676
eaux	-7677
encé	-7678
izza	-7679
jara	-7680
érir	-7681
▁(17	-7682
▁1,0	-7683
▁110	-7684
▁2,2	-7685
▁4,6	-7686
▁450	-7687
▁Ave	-7688
▁Cam	-7689
▁exo	-7690
▁féd	-7691
▁pla	-7692
▁tru	-7693
▁Île	-7694
crits	-7695
forme	-7696
étend	-7697
▁1980	-7698
▁Agro	-7699
▁Arab	-7700
▁Fair	-7701
▁Guad	-7702
▁Prai	-7703
▁acqu	-7704
▁cibl	-7705
▁cosm	-7706
▁mauv	-7707
▁mess	-7708
▁sens	-7709
▁soup	-7710
▁suff	-7711
▁évol	-7712
Chaque	-7713
accomp	-7714
atique	-7715
europe	-7716
ineuse	-7717
market	-7718
tifici	-7719
économ	-7720
▁2001.	-7721
▁Unies	-7722
▁adéqu	-7723
▁dirig	-7724
▁quota	-7725
▁refro	-7726
▁rural	-7727
▁siège	-7728
donesia	-7729
orporer	-7730
▁Baltes	-7731
▁Pommes	-7732
▁Reader	-7733
▁Ventes	-7734
▁appara	-7735
▁attiré	-7736
▁chemin	-7737
▁forces	-7738
▁penser	-7739
▁siècle	-7740
▁vigour	-7741
articles	-7742
attendre	-7743
▁Acrobat	-7744
▁Chinois	-7745
▁Trading	-7746
▁attirer	-7747
▁cliquer	-7748
▁céréali	-7749
▁faciles	-7750
▁filiale	-7751
▁mainten	-7752
▁physici	-7753
▁privées	-7754
▁relatif	-7755
▁réalité	-7756
SOCIATION	-7757
▁Conseils	-7758
▁captures	-7759
▁complexe	-7760
▁demeurer	-7761
▁fédérale	-7762
▁importée	-7763
▁longueur	-7764
▁pauvreté	-7765
▁pression	-7766
PRINCIPAUX	-7767
▁Fisheries	-7768
▁accompagn	-7769
▁capacités	-7770
▁exportées	-7771
▁juridique	-7772
▁mentionné	-7773
▁printemps	-7774
▁prochaine	-7775
▁procédure	-7776
▁recueilli	-7777
▁ressource	-7778
▁restreint	-7779
▁régissant	-7780
▁tarifaire	-7781
▁terrestre	-7782
▁InfoExport	-7783
▁concentrés	-7784
▁différence	-7785
▁directrice	-7786
▁détiennent	-7787
▁développés	-7788
▁homologues	-7789
▁Principales	-7790
▁bénéficient	-7791
▁expositions	-7792
▁fréquemment	-7793
▁coordination	-7794
▁sensiblement	-7795
▁technologique	-7796
▁communications	-7797
AU	-7798
FF	-7799
IP	-7800
ei	-7801
sg	-7802
ão	-7803
-24	-7804
13/	-7805
ISS	-7806
ONS	-7807
TER	-7808
ban	-7809
den	-7810
ida	-7811
ker	-7812
ora	-7813
ulf	-7814
▁2)	-7815
asia	-7816
illa	-7817
mann	-7818
omas	-7819
remp	-7820
riae	-7821
rimé	-7822
tabl	-7823
▁180	-7824
▁225	-7825
▁Bis	-7826
▁crû	-7827
▁lev	-7828
-1103	-7829
astes	-7830
cieux	-7831
expos	-7832
inten	-7833
ondie	-7834
osher	-7835
tiles	-7836
toire	-7837
trich	-7838
érité	-7839
▁1991	-7840
▁Part	-7841
▁agré	-7842
▁bout	-7843
▁dipl	-7844
▁liée	-7845
▁mort	-7846
▁noms	-7847
▁État	-7848
agnols	-7849
fraîch	-7850
habitu	-7851
iendra	-7852
Égypte	-7853
▁(506)	-7854
▁GUIDE	-7855
▁Labor	-7856
▁Liban	-7857
▁diété	-7858
▁entra	-7859
▁gagné	-7860
▁heure	-7861
▁issus	-7862
▁masse	-7863
▁maîtr	-7864
▁perdu	-7865
▁phase	-7866
▁rayon	-7867
▁russe	-7868
▁servi	-7869
▁sucré	-7870
▁tenue	-7871
▁utile	-7872
alajara	-7873
implant	-7874
▁publie	-7875
iterrané	-7876
viennent	-7877
▁Douanes	-7878
▁Halifax	-7879
▁Marques	-7880
▁Secteur	-7881
▁agrumes	-7882
▁caution	-7883
▁choisir	-7884
▁prolong	-7885
▁radioté	-7886
▁réponse	-7887
▁943-1103	-7888
▁McIntosh	-7889
▁addition	-7890
▁artifici	-7891
▁constate	-7892
▁contenir	-7893
▁effectué	-7894
▁figurant	-7895
▁investir	-7896
▁rafraîch	-7897
▁salaires	-7898
▁sociales	-7899
▁énoncées	-7900
américains	-7901
▁Documents	-7902
▁Economist	-7903
▁Slovaquie	-7904
▁accordent	-7905
▁assurance	-7906
▁gastronom	-7907
▁immédiate	-7908
▁participé	-7909
▁publiques	-7910
▁sensibles	-7911
▁événement	-7912
acquisition	-7913
emplacement	-7914
▁Federation	-7915
▁Ressources	-7916
▁appropriée	-7917
▁consacrent	-7918
▁considérée	-7919
▁ministères	-7920
▁opérations	-7921
exportsource	-7922
▁diversifiée	-7923
▁kilogrammes	-7924
▁recherchent	-7925
▁utilisateurs	-7926
▁appartiennent	-7927
▁modernisation	-7928
▁Administration	-7929
▁démographiques	-7930
29	-7931
OG	-7932
RC	-7933
ba	-7934
oz	-7935
rc	-7936
sc	-7937
-8)	-7938
ANS	-7939
APH	-7940
PAC	-7941
ena	-7942
gal	-7943
iew	-7944
iné	-7945
mel	-7946
nor	-7947
ppe	-7948
son	-7949
tal	-7950
uro	-7951
ÉES	-7952
▁78	-7953
▁Sw	-7954
▁Sé	-7955
▁mu	-7956
Tout	-7957
anas	-7958
gary	-7959
mala	-7960
ocra	-7961
rémé	-7962
undi	-7963
▁5,5	-7964
▁Bro	-7965
▁PFA	-7966
▁PRO	-7967
▁amb	-7968
▁enj	-7969
▁pur	-7970
agric	-7971
aider	-7972
arbon	-7973
arder	-7974
aïque	-7975
▁Baie	-7976
▁Camp	-7977
▁Flor	-7978
▁Lett	-7979
▁Taux	-7980
▁coco	-7981
▁saum	-7982
auteur	-7983
douard	-7984
liance	-7985
minute	-7986
mittel	-7987
verage	-7988
▁(31-7	-7989
▁(902)	-7990
▁Grand	-7991
▁Grupo	-7992
▁Image	-7993
▁Maine	-7994
▁Rural	-7995
▁abatt	-7996
▁chers	-7997
▁intit	-7998
▁jaune	-7999
▁lutte	-8000
▁massi	-8001
▁parle	-8002
▁évolu	-8003
atrices	-8004
effectu	-8005
ropolit	-8006
visible	-8007
ériques	-8008
▁Arabie	-8009
▁Berlin	-8010
▁Global	-8011
▁assure	-8012
▁automa	-8013
▁emploi	-8014
▁hautes	-8015
▁moules	-8016
▁neiges	-8017
▁parall	-8018
▁pharma	-8019
▁pièces	-8020
▁portes	-8021
▁quelle	-8022
▁relève	-8023
▁report	-8024
▁épices	-8025
Aéroport	-8026
tisserie	-8027
▁Balkans	-8028
▁Beijing	-8029
▁Données	-8030
▁bananes	-8031
▁chacune	-8032
▁compose	-8033
▁confirm	-8034
▁coupées	-8035
▁distric	-8036
▁enquête	-8037
▁gagnent	-8038
▁indiens	-8039
▁racines	-8040
▁respect	-8041
▁Salvador	-8042
▁accordée	-8043
▁chercher	-8044
▁composés	-8045
▁congelée	-8046
▁consommé	-8047
▁coutumes	-8048
▁fédéraux	-8049
▁planètes	-8050
▁procéder	-8051
▁profonde	-8052
▁totalité	-8053
irrigation	-8054
▁Bestfoods	-8055
▁Francisco	-8056
▁Jerusalem	-8057
▁migration	-8058
▁quotidien	-8059
▁téléphone	-8060
▁Industries	-8061
▁Règlements	-8062
▁classiques	-8063
▁considérer	-8064
▁enregistre	-8065
▁transports	-8066
▁télécommun	-8067
exportations	-8068
heureusement	-8069
▁contribuent	-8070
▁enregistrer	-8071
▁moyennement	-8072
▁méditerrané	-8073
▁officielles	-8074
▁Agribusiness	-8075
▁Organisation	-8076
▁susceptibles	-8077
▁documentation	-8078
▁libéralisation	-8079
▁́	-8080
▁−	-8081
-05	-8082
-1)	-8083
-17	-8084
-55	-8085
-66	-8086
.02	-8087
EST	-8088
dam	-8089
irs	-8090
ito	-8091
owe	-8092
▁3)	-8093
▁AT	-8094
▁Go	-8095
▁Ho	-8096
▁VI	-8097
▁fu	-8098
▁me	-8099
/13/	-8100
ALES	-8101
este	-8102
euro	-8103
ives	-8104
mber	-8105
plus	-8106
roît	-8107
work	-8108
ôles	-8109
▁(0,	-8110
▁(11	-8111
▁190	-8112
▁220	-8113
▁280	-8114
▁Cré	-8115
▁Pol	-8116
▁ZAS	-8117
▁arr	-8118
▁dém	-8119
GRAPH	-8120
ITION	-8121
aanxi	-8122
ajout	-8123
itant	-8124
lotte	-8125
ulgar	-8126
▁2015	-8127
▁Bras	-8128
▁Pres	-8129
▁adul	-8130
▁avez	-8131
▁lour	-8132
▁plas	-8133
LIENTS	-8134
alisés	-8135
illiam	-8136
lusion	-8137
olivie	-8138
onnage	-8139
portun	-8140
urrent	-8141
▁(604)	-8142
▁604-6	-8143
▁Dubaï	-8144
▁Nutri	-8145
▁biais	-8146
▁bébés	-8147
▁centi	-8148
▁copie	-8149
▁crous	-8150
▁délai	-8151
▁gradu	-8152
▁grill	-8153
▁jouit	-8154
▁préal	-8155
▁ultra	-8156
copieur	-8157
quateur	-8158
▁Numéro	-8159
▁barres	-8160
▁dirige	-8161
▁donnée	-8162
▁doublé	-8163
▁délais	-8164
▁engage	-8165
▁histor	-8166
▁hommes	-8167
▁marges	-8168
▁mayonn	-8169
▁presse	-8170
▁raisin	-8171
▁repose	-8172
▁reçoit	-8173
▁Égypte	-8174
Aliments	-8175
employés	-8176
▁Central	-8177
▁Federal	-8178
▁Janvier	-8179
▁Monitor	-8180
▁Shaanxi	-8181
▁achetés	-8182
▁affiche	-8183
▁article	-8184
▁associé	-8185
▁exposés	-8186
▁observé	-8187
▁servant	-8188
▁suisses	-8189
▁traduit	-8190
▁visible	-8191
▁écossés	-8192
uffisance	-8193
▁2000/13/	-8194
▁CONTACTS	-8195
▁Unilever	-8196
▁bulletin	-8197
▁endroits	-8198
▁garantit	-8199
▁kiosques	-8200
▁lecteurs	-8201
▁mélanger	-8202
▁quartier	-8203
▁613-759-7	-8204
▁Barcelone	-8205
▁Parlement	-8206
▁Tendances	-8207
▁cultivées	-8208
▁entrepôts	-8209
▁lumineuse	-8210
▁montagnes	-8211
▁Manufactur	-8212
▁caractères	-8213
▁contingent	-8214
▁diagnostic	-8215
▁développée	-8216
▁effectuées	-8217
▁expériment	-8218
▁rendements	-8219
▁tributaire	-8220
▁ÉTIQUETAGE	-8221
▁Guadalajara	-8222
▁diététiques	-8223
▁dominicaine	-8224
▁israélienne	-8225
▁performance	-8226
▁pénétration	-8227
▁édulcorants	-8228
▁commentaires	-8229
▁continueront	-8230
▁observations	-8231
▁oléagineuses	-8232
administration	-8233
approvisionner	-8234
▁améliorations	-8235
▁concentration	-8236
▁correspondent	-8237
▁disponibilité	-8238
▁géographiques	-8239
▁nécessairement	-8240
8)	-8241
BC	-8242
HS	-8243
MI	-8244
cb	-8245
ña	-8246
-16	-8247
-33	-8248
-60	-8249
00,	-8250
111	-8251
Ass	-8252
MER	-8253
Ses	-8254
atn	-8255
ays	-8256
cfm	-8257
cré	-8258
mme	-8259
pas	-8260
▁Fi	-8261
▁Ky	-8262
▁NO	-8263
▁UE	-8264
▁om	-8265
Mont	-8266
ancy	-8267
angz	-8268
dier	-8269
itez	-8270
ivre	-8271
miss	-8272
olet	-8273
oses	-8274
oupe	-8275
ourn	-8276
rira	-8277
ulée	-8278
utch	-8279
vain	-8280
îtra	-8281
▁$."	-8282
▁0,0	-8283
▁113	-8284
▁2,0	-8285
▁3,6	-8286
▁4,3	-8287
▁4,4	-8288
▁Dun	-8289
▁Imp	-8290
▁MEX	-8291
▁Nig	-8292
▁Sci	-8293
▁Sco	-8294
▁Sun	-8295
▁Tan	-8296
▁aig	-8297
▁due	-8298
▁idé	-8299
▁oct	-8300
▁orb	-8301
▁pis	-8302
▁pér	-8303
▁sep	-8304
▁Éch	-8305
▁éle	-8306
8212)	-8307
andin	-8308
faire	-8309
impos	-8310
liers	-8311
octor	-8312
tatif	-8313
vente	-8314
▁Club	-8315
▁Juin	-8316
▁Mais	-8317
▁Parc	-8318
▁Sant	-8319
▁Tout	-8320
▁Trin	-8321
▁anci	-8322
▁apla	-8323
▁auto	-8324
▁nett	-8325
Bureau	-8326
Durant	-8327
OGRAPH	-8328
Prince	-8329
events	-8330
tienne	-8331
▁1989,	-8332
▁assur	-8333
▁côtes	-8334
▁provo	-8335
▁scand	-8336
▁verre	-8337
▁visés	-8338
rarouge	-8339
uration	-8340
Édouard	-8341
évaluer	-8342
▁Avenue	-8343
▁Fabric	-8344
▁attest	-8345
▁casher	-8346
▁changé	-8347
▁défini	-8348
▁fibres	-8349
▁gammes	-8350
▁portée	-8351
▁sucres	-8352
▁touche	-8353
▁traité	-8354
truments	-8355
▁Analyse	-8356
▁Limited	-8357
▁Restaur	-8358
▁Richard	-8359
▁accordé	-8360
▁compréh	-8361
▁langues	-8362
▁pauvres	-8363
▁reprodu	-8364
▁réalise	-8365
▁solaire	-8366
▁sondage	-8367
▁uniques	-8368
▁veiller	-8369
accession	-8370
▁Lettonie	-8371
▁citoyens	-8372
▁cuisines	-8373
▁district	-8374
▁domicile	-8375
▁facilite	-8376
▁fournies	-8377
▁influent	-8378
▁procurer	-8379
▁rembours	-8380
▁standard	-8381
▁tiennent	-8382
▁vendeurs	-8383
Principaux	-8384
▁Débouchés	-8385
▁Espagnols	-8386
▁concentre	-8387
▁considère	-8388
▁contrebal	-8389
▁découvrir	-8390
▁novateurs	-8391
intéressent	-8392
▁allemandes	-8393
▁atlantique	-8394
▁bouteilles	-8395
▁comprenant	-8396
▁concentrée	-8397
▁constituée	-8398
▁construire	-8399
▁indication	-8400
▁initiative	-8401
▁renseigner	-8402
▁chiffraient	-8403
▁coordonnées	-8404
▁fournissent	-8405
▁remarquable	-8406
▁Statistiques	-8407
▁descriptions	-8408
▁intéressants	-8409
▁organisation	-8410
▁préférentiel	-8411
▁établissement	-8412
▁supplémentaire	-8413
▁technologiques	-8414
▁diversification	-8415
24	-8416
53	-8417
Ac	-8418
Is	-8419
gr	-8420
ii	-8421
ty	-8422
9."	-8423
cie	-8424
cre	-8425
inq	-8426
ita	-8427
ocs	-8428
tut	-8429
▁"*	-8430
▁AV	-8431
▁Bh	-8432
▁cm	-8433
ENCE	-8434
OUCH	-8435
atta	-8436
bens	-8437
iend	-8438
loor	-8439
oweï	-8440
prit	-8441
town	-8442
yste	-8443
▁115	-8444
▁237	-8445
▁3,2	-8446
▁563	-8447
▁Bur	-8448
▁Guy	-8449
▁Mai	-8450
▁Nic	-8451
▁adj	-8452
▁fir	-8453
▁âge	-8454
ERVIC	-8455
TIONS	-8456
agers	-8457
andon	-8458
enses	-8459
franc	-8460
miner	-8461
raire	-8462
ésité	-8463
▁Camb	-8464
▁Kans	-8465
▁Lait	-8466
▁Mars	-8467
▁POUR	-8468
▁Zone	-8469
▁chic	-8470
▁mens	-8471
▁mété	-8472
▁vidé	-8473
▁élar	-8474
▁énum	-8475
endent	-8476
orange	-8477
resent	-8478
tellig	-8479
▁2007.	-8480
▁2010,	-8481
▁TOTAL	-8482
▁atten	-8483
▁avanc	-8484
▁degré	-8485
▁déten	-8486
▁fèves	-8487
▁gratu	-8488
▁mener	-8489
▁mètre	-8490
▁pouss	-8491
▁quart	-8492
▁scène	-8493
▁sorti	-8494
▁spect	-8495
▁sèche	-8496
▁vérit	-8497
▁élect	-8498
emplois	-8499
institu	-8500
écution	-8501
▁PARTIC	-8502
▁Réseau	-8503
▁Wilson	-8504
▁actifs	-8505
▁andine	-8506
▁approf	-8507
▁cadres	-8508
▁dominé	-8509
▁décide	-8510
▁imprim	-8511
▁justif	-8512
▁profil	-8513
▁resser	-8514
▁tourte	-8515
▁écrémé	-8516
MENTAIRE	-8517
exercice	-8518
▁Algérie	-8519
▁Irlande	-8520
▁Reports	-8521
▁William	-8522
▁banques	-8523
▁capture	-8524
▁changer	-8525
▁chaudes	-8526
▁consoli	-8527
▁desserv	-8528
▁dossier	-8529
▁dépassé	-8530
▁formule	-8531
▁galaxie	-8532
▁humains	-8533
▁passage	-8534
tiquement	-8535
éducation	-8536
▁ALIMENTS	-8537
▁animales	-8538
▁consomme	-8539
▁maintien	-8540
▁maîtrise	-8541
▁minérale	-8542
▁organisé	-8543
▁poursuit	-8544
▁procédés	-8545
▁recourir	-8546
▁réalisés	-8547
▁vendredi	-8548
américaine	-8549
bensmittel	-8550
▁Exigences	-8551
▁Singapore	-8552
▁comptoirs	-8553
▁conserver	-8554
▁dépendent	-8555
▁espagnols	-8556
▁physicien	-8557
▁satisfait	-8558
▁Étiquette	-8559
ublications	-8560
▁Exposition	-8561
▁accompagné	-8562
▁augmentera	-8563
▁conclusion	-8564
▁concurrent	-8565
▁difficiles	-8566
▁impression	-8567
▁prospérité	-8568
▁recommande	-8569
▁situations	-8570
▁substituts	-8571
▁choisissent	-8572
▁directrices	-8573
▁domestiques	-8574
▁frontaliers	-8575
▁supérieures	-8576
▁nutritionnel	-8577
établissements	-8578
▁accroissement	-8579
▁augmentations	-8580
▁détermination	-8581
AA	-8582
UB	-8583
dk	-8584
mm	-8585
pâ	-8586
-03	-8587
/07	-8588
1,5	-8589
INE	-8590
PIB	-8591
Tra	-8592
ada	-8593
buc	-8594
cha	-8595
die	-8596
erm	-8597
gin	-8598
how	-8599
iev	-8600
lés	-8601
nez	-8602
osé	-8603
rug	-8604
çue	-8605
▁$,	-8606
▁79	-8607
▁IS	-8608
▁Ku	-8609
▁SP	-8610
▁Ve	-8611
.2.1	-8612
ANTS	-8613
LLES	-8614
coun	-8615
guer	-8616
itob	-8617
mond	-8618
ober	-8619
quin	-8620
rits	-8621
tein	-8622
▁"10	-8623
▁0,3	-8624
▁175	-8625
▁193	-8626
▁3,8	-8627
▁4,2	-8628
▁Bak	-8629
▁Cad	-8630
▁Cap	-8631
▁FHA	-8632
▁Hub	-8633
▁Rad	-8634
▁Rou	-8635
▁Str	-8636
▁avi	-8637
▁fid	-8638
▁mac	-8639
▁sûr	-8640
▁tôt	-8641
Jusqu	-8642
asses	-8643
charg	-8644
hiver	-8645
quire	-8646
riers	-8647
▁Atta	-8648
▁Conc	-8649
▁Leaf	-8650
▁Wine	-8651
▁clin	-8652
▁erre	-8653
▁exac	-8654
▁hong	-8655
▁jamb	-8656
▁logo	-8657
▁soya	-8658
Compte	-8659
Statis	-8660
antité	-8661
istent	-8662
ommand	-8663
vestir	-8664
éviter	-8665
▁1978,	-8666
▁1991,	-8667
▁Adobe	-8668
▁Avant	-8669
▁Fiche	-8670
▁Liste	-8671
▁Peter	-8672
▁Water	-8673
▁abats	-8674
▁autom	-8675
▁boîte	-8676
▁cuits	-8677
▁force	-8678
▁franc	-8679
▁jeune	-8680
▁journ	-8681
▁resse	-8682
▁synth	-8683
Alberta	-8684
obésité	-8685
offrent	-8686
rétaire	-8687
▁Freder	-8688
▁appare	-8689
▁appelé	-8690
▁cuites	-8691
▁céleri	-8692
▁englob	-8693
▁façons	-8694
▁fortes	-8695
▁menées	-8696
▁quotas	-8697
▁ration	-8698
▁réelle	-8699
▁résumé	-8700
▁seules	-8701
▁simpli	-8702
▁sécher	-8703
▁tomate	-8704
Colombie	-8705
millions	-8706
térieure	-8707
▁(2004),	-8708
▁Bolivie	-8709
▁Calgary	-8710
▁Demande	-8711
▁Graines	-8712
▁Juillet	-8713
▁Mesures	-8714
▁annexes	-8715
▁bateaux	-8716
▁personn	-8717
▁regroup	-8718
▁relever	-8719
▁réduite	-8720
▁situées	-8721
ilippines	-8722
▁applique	-8723
▁bancaire	-8724
▁collecte	-8725
▁consacré	-8726
▁enrichis	-8727
▁hebdomad	-8728
▁imposées	-8729
▁limitées	-8730
▁lucratif	-8731
▁priorité	-8732
▁recevoir	-8733
▁spéciale	-8734
▁tranches	-8735
sification	-8736
▁bénéficie	-8737
▁centaines	-8738
▁comporter	-8739
▁consacrée	-8740
▁découvert	-8741
▁harmonisé	-8742
▁indiquées	-8743
▁jouissent	-8744
▁monétaire	-8745
▁originale	-8746
▁saucisses	-8747
▁significa	-8748
▁soumettre	-8749
▁véhicules	-8750
▁évolution	-8751
▁engagement	-8752
▁espagnoles	-8753
▁génériques	-8754
▁occidental	-8755
▁progresser	-8756
▁présentées	-8757
▁trouveront	-8758
▁visibilité	-8759
▁allégations	-8760
▁centimètres	-8761
▁diversifier	-8762
▁succursales	-8763
exploitations	-8764
▁additionnels	-8765
▁annuellement	-8766
▁fluctuations	-8767
▁astronomiques	-8768
▁individuelles	-8769
▁partiellement	-8770
▁réglementaire	-8771
▁classification	-8772
▁commercialisés	-8773
▁radiotélescope	-8774
▁réglementaires	-8775
21	-8776
EE	-8777
GA	-8778
Hu	-8779
cn	-8780
dy	-8781
ïn	-8782
-13	-8783
-26	-8784
-27	-8785
.)"	-8786
ATE	-8787
ENE	-8788
NOM	-8789
NSO	-8790
TIV	-8791
aby	-8792
bul	-8793
ety	-8794
his	-8795
ini	-8796
mex	-8797
oke	-8798
oto	-8799
pôt	-8800
▁08	-8801
▁71	-8802
▁ES	-8803
▁Pâ	-8804
agra	-8805
dule	-8806
esse	-8807
eule	-8808
guée	-8809
menu	-8810
odge	-8811
oise	-8812
resh	-8813
▁(%)	-8814
▁...	-8815
▁1,9	-8816
▁1/2	-8817
▁40,	-8818
▁Amé	-8819
▁Fer	-8820
▁fax	-8821
BOUCH	-8822
gainf	-8823
itung	-8824
oyers	-8825
shtml	-8826
èvent	-8827
▁GAIN	-8828
▁Jour	-8829
▁MODU	-8830
▁Unit	-8831
▁bran	-8832
▁char	-8833
▁chil	-8834
▁dess	-8835
▁lact	-8836
▁note	-8837
▁sugg	-8838
▁égyp	-8839
.11.02	-8840
ctique	-8841
garine	-8842
ourmet	-8843
reries	-8844
▁1996,	-8845
▁2002"	-8846
▁2007"	-8847
▁Aires	-8848
▁Miami	-8849
▁North	-8850
▁River	-8851
▁appui	-8852
▁divis	-8853
▁juste	-8854
▁leçon	-8855
▁objet	-8856
▁éloig	-8857
▁éprou	-8858
Algérie	-8859
BOUCHÉS	-8860
Concurr	-8861
accueil	-8862
anmoins	-8863
mporter	-8864
octorat	-8865
tration	-8866
vergure	-8867
èlement	-8868
▁2010."	-8869
▁Brasil	-8870
▁Depuis	-8871
▁Golden	-8872
▁RÉGION	-8873
▁auquel	-8874
▁banque	-8875
▁couver	-8876
▁cubain	-8877
▁désoss	-8878
▁inclut	-8879
▁majeur	-8880
▁marqué	-8881
▁poules	-8882
▁privés	-8883
▁recons	-8884
▁superv	-8885
▁vastes	-8886
Astronom	-8887
ingapour	-8888
istiques	-8889
▁Michael	-8890
▁Scandin	-8891
▁affirme	-8892
▁autrich	-8893
▁charbon	-8894
▁danoise	-8895
▁dépasse	-8896
▁fondant	-8897
▁interac	-8898
▁interro	-8899
▁manitob	-8900
▁planète	-8901
▁préserv	-8902
▁retenir	-8903
▁revenir	-8904
▁salades	-8905
▁seconde	-8906
▁traités	-8907
▁voyages	-8908
appliquer	-8909
gainfiles	-8910
lacements	-8911
▁759-7506	-8912
▁Poissons	-8913
▁accueill	-8914
▁calories	-8915
▁cellules	-8916
▁déployés	-8917
▁observée	-8918
▁particul	-8919
▁regroupe	-8920
▁renforce	-8921
▁semaines	-8922
▁soucieux	-8923
▁souhaite	-8924
▁stations	-8925
Astronomie	-8926
quirements	-8927
▁Australia	-8928
▁Relations	-8929
▁Variation	-8930
▁accueilli	-8931
▁analystes	-8932
▁autorisée	-8933
▁constater	-8934
▁consultez	-8935
▁contrôler	-8936
▁décennies	-8937
▁dépensent	-8938
▁exotiques	-8939
▁hautement	-8940
▁indiquent	-8941
▁modifiées	-8942
▁prévoient	-8943
▁régulière	-8944
▁trouverez	-8945
excellentes	-8946
▁appropriés	-8947
▁différenci	-8948
▁mayonnaise	-8949
▁métropolit	-8950
▁présentant	-8951
exportateurs	-8952
▁Scandinavie	-8953
▁accompagnée	-8954
▁climatiques	-8955
▁comparables	-8956
▁compétences	-8957
▁discussions	-8958
▁enregistrée	-8959
▁normalement	-8960
▁occidentale	-8961
▁périssables	-8962
▁télécopieur	-8963
▁néerlandaise	-8964
▁pratiquement	-8965
▁vétérinaires	-8966
▁nutritionnelle	-8967
▁concurrentielle	-8968
▁progressivement	-8969
/3	-8970
RO	-8971
bé	-8972
hé	-8973
-14	-8974
-65	-8975
AUX	-8976
Cet	-8977
IVÉ	-8978
LIC	-8979
LLE	-8980
TCM	-8981
enh	-8982
ery	-8983
eth	-8984
ige	-8985
log	-8986
ory	-8987
rac	-8988
▁Ba	-8989
▁Ha	-8990
▁da	-8991
▁jo	-8992
-177	-8993
AIRE	-8994
ASTR	-8995
PRIS	-8996
alan	-8997
amil	-8998
chau	-8999
cier	-9000
enos	-9001
loie	-9002
olog	-9003
orés	-9004
pies	-9005
raft	-9006
âche	-9007
▁(18	-9008
▁(33	-9009
▁0,9	-9010
▁5,4	-9011
▁598	-9012
▁6,5	-9013
▁7,4	-9014
▁89/	-9015
▁FAO	-9016
▁Jus	-9017
▁MSC	-9018
▁Ser	-9019
▁VEB	-9020
▁Van	-9021
▁Vig	-9022
▁ang	-9023
▁bil	-9024
▁fre	-9025
▁van	-9026
-2002	-9027
MAECI	-9028
accré	-9029
biote	-9030
elsen	-9031
estiv	-9032
idité	-9033
outil	-9034
oweït	-9035
sière	-9036
usage	-9037
weets	-9038
évent	-9039
▁Alas	-9040
▁CNCA	-9041
▁Cour	-9042
▁Rece	-9043
▁agri	-9044
▁auth	-9045
▁bars	-9046
▁dure	-9047
▁déro	-9048
▁flor	-9049
▁lune	-9050
▁monn	-9051
▁mutu	-9052
▁nect	-9053
▁sain	-9054
▁symb	-9055
Office	-9056
aliste	-9057
avoine	-9058
ettera	-9059
niquez	-9060
occupe	-9061
omètre	-9062
provin	-9063
roscop	-9064
tative	-9065
▁1994,	-9066
▁1995,	-9067
▁2002*	-9068
▁Dairy	-9069
▁Mills	-9070
▁Notre	-9071
▁Ouest	-9072
▁PRIVÉ	-9073
▁Place	-9074
▁acide	-9075
▁aller	-9076
▁chose	-9077
▁décid	-9078
▁inqui	-9079
▁marqu	-9080
▁portu	-9081
▁raies	-9082
▁répar	-9083
▁sandw	-9084
▁torré	-9085
▁unité	-9086
▁vites	-9087
endroit	-9088
oignons	-9089
élargir	-9090
▁Albert	-9091
▁Divers	-9092
▁FABRIC	-9093
▁George	-9094
▁Kansai	-9095
▁Royale	-9096
▁SERVIC	-9097
▁aiment	-9098
▁bières	-9099
▁casser	-9100
▁choisi	-9101
▁connus	-9102
▁conven	-9103
▁devise	-9104
▁faudra	-9105
▁provis	-9106
▁russes	-9107
▁savour	-9108
▁sujets	-9109
▁taïwan	-9110
POSITION	-9111
aéroport	-9112
ceptions	-9113
ditation	-9114
ensement	-9115
tabilité	-9116
▁(31-70)	-9117
▁Customs	-9118
▁aplatie	-9119
▁distinc	-9120
▁endroit	-9121
▁entiers	-9122
▁entrant	-9123
▁excessi	-9124
▁filière	-9125
▁interne	-9126
▁portion	-9127
▁postale	-9128
▁reflète	-9129
▁restent	-9130
▁retirer	-9131
▁saisons	-9132
▁élargir	-9133
▁European	-9134
▁Institut	-9135
▁Intellig	-9136
▁analyses	-9137
▁chicorée	-9138
▁constaté	-9139
▁filiales	-9140
▁intégrée	-9141
▁médicale	-9142
▁transpor	-9143
▁vraiment	-9144
Prévisions	-9145
excellence	-9146
▁Francfort	-9147
▁associées	-9148
▁boutiques	-9149
▁chocolats	-9150
▁complexes	-9151
▁excellent	-9152
▁instituts	-9153
▁marchande	-9154
▁naissance	-9155
▁néanmoins	-9156
▁tablettes	-9157
▁activement	-9158
▁bénéficier	-9159
▁compétente	-9160
▁électrique	-9161
Importations	-9162
canadaeuropa	-9163
interdiction	-9164
▁Description	-9165
▁ferroviaire	-9166
▁nécessitent	-9167
▁populations	-9168
▁rigoureuses	-9169
▁Distribution	-9170
▁Intelligence	-9171
▁Requirements	-9172
▁fléchissement	-9173
▁sensibilisation	-9174
7)	-9175
79	-9176
ny	-9177
▁<	-9178
(1)	-9179
,75	-9180
-18	-9181
190	-9182
4-0	-9183
505	-9184
DUS	-9185
The	-9186
bas	-9187
env	-9188
lab	-9189
mag	-9190
mén	-9191
nsf	-9192
osc	-9193
pei	-9194
usé	-9195
win	-9196
êle	-9197
▁05	-9198
▁81	-9199
▁SM	-9200
▁We	-9201
▁nd	-9202
-33)	-9203
IBLI	-9204
LAGE	-9205
OUVE	-9206
Vous	-9207
dies	-9208
dium	-9209
isté	-9210
lish	-9211
ners	-9212
onés	-9213
orie	-9214
ouis	-9215
radi	-9216
redo	-9217
rict	-9218
rire	-9219
tica	-9220
tory	-9221
uler	-9222
vant	-9223
▁011	-9224
▁3,9	-9225
▁5,9	-9226
▁5.1	-9227
▁93/	-9228
▁Fri	-9229
▁III	-9230
▁Maj	-9231
▁Ses	-9232
▁ats	-9233
▁axé	-9234
▁hyp	-9235
▁not	-9236
▁noy	-9237
▁pel	-9238
▁épa	-9239
-2342	-9240
DUSTR	-9241
IQUES	-9242
alieu	-9243
essor	-9244
frica	-9245
jiang	-9246
messe	-9247
mêmes	-9248
onald	-9249
stell	-9250
tagon	-9251
tries	-9252
▁Côte	-9253
▁Jean	-9254
▁Quel	-9255
▁abat	-9256
▁budg	-9257
▁perd	-9258
▁perf	-9259
▁quit	-9260
▁trip	-9261
andais	-9262
atrice	-9263
inerie	-9264
terdam	-9265
▁(204)	-9266
▁1-888	-9267
▁2000.	-9268
▁2009,	-9269
▁Enter	-9270
▁Fancy	-9271
▁Green	-9272
▁Porcs	-9273
▁bioph	-9274
▁fines	-9275
▁froid	-9276
▁minis	-9277
▁nomin	-9278
▁pages	-9279
▁somme	-9280
▁équit	-9281
affiche	-9282
atemala	-9283
attente	-9284
istrict	-9285
▁Europé	-9286
▁Koweït	-9287
▁MODULE	-9288
▁Thomas	-9289
▁Winter	-9290
▁acquis	-9291
▁avenir	-9292
▁caméra	-9293
▁débuts	-9294
▁dûment	-9295
▁enjeux	-9296
▁fièvre	-9297
▁fléchi	-9298
▁fondée	-9299
▁gagner	-9300
▁halieu	-9301
▁herbes	-9302
▁intégr	-9303
▁posséd	-9304
▁proche	-9305
▁salade	-9306
▁salles	-9307
▁écarts	-9308
▁énorme	-9309
OGRAPHIE	-9310
abilités	-9311
hectares	-9312
iculture	-9313
laration	-9314
▁2005)."	-9315
▁Légumes	-9316
▁Natural	-9317
▁autonom	-9318
▁camions	-9319
▁donnent	-9320
▁déchets	-9321
▁entités	-9322
▁ferment	-9323
▁monnaie	-9324
▁municip	-9325
▁procédé	-9326
▁quoique	-9327
▁spatial	-9328
▁virtuel	-9329
attention	-9330
▁Quantité	-9331
▁Roumanie	-9332
▁Supermar	-9333
▁arrivent	-9334
▁carcasse	-9335
▁destinée	-9336
▁doctorat	-9337
▁désirent	-9338
▁exigence	-9339
▁facilité	-9340
▁positifs	-9341
▁renouvel	-9342
▁vitamine	-9343
▁Économie	-9344
▁évidence	-9345
▁apportées	-9346
▁aéroports	-9347
▁casserole	-9348
▁concernés	-9349
▁conseille	-9350
▁conseillé	-9351
▁faiblesse	-9352
▁fondation	-9353
▁grossiste	-9354
▁préalable	-9355
▁sucreries	-9356
observation	-9357
établissait	-9358
▁Philippins	-9359
▁auxquelles	-9360
▁interstell	-9361
▁prévention	-9362
▁québécoise	-9363
▁spécialisé	-9364
▁structures	-9365
IBLIOGRAPHIE	-9366
▁application	-9367
▁conditionne	-9368
▁obligations	-9369
▁provenaient	-9370
▁spécialisée	-9371
▁Alimentation	-9372
▁ExportSource	-9373
▁autorisation	-9374
▁boulangeries	-9375
▁contribution	-9376
identification	-9377
▁compréhension	-9378
▁contamination	-9379
▁normalisation	-9380
▁signification	-9381
Malheureusement	-9382
▁universitaires	-9383
68	-9384
71	-9385
74	-9386
Gu	-9387
SH	-9388
hr	-9389
kw	-9390
lt	-9391
▁°	-9392
%20	-9393
-80	-9394
002	-9395
4-5	-9396
4-7	-9397
726	-9398
INS	-9399
alp	-9400
def	-9401
ilo	-9402
iés	-9403
lap	-9404
lat	-9405
nir	-9406
ots	-9407
tan	-9408
ump	-9409
ÈRE	-9410
ôme	-9411
▁04	-9412
▁3,	-9413
▁PE	-9414
▁Pi	-9415
▁Ri	-9416
▁cé	-9417
APEC	-9418
John	-9419
MBAL	-9420
OLab	-9421
agua	-9422
chet	-9423
cium	-9424
dues	-9425
gers	-9426
home	-9427
iboc	-9428
isch	-9429
main	-9430
mate	-9431
mett	-9432
mith	-9433
mpos	-9434
niti	-9435
odka	-9436
rist	-9437
tria	-9438
vues	-9439
ômes	-9440
▁(20	-9441
▁2,1	-9442
▁3,7	-9443
▁350	-9444
▁4,0	-9445
▁4,7	-9446
▁90,	-9447
▁Big	-9448
▁CIA	-9449
▁Cre	-9450
▁Dom	-9451
▁Kar	-9452
▁Ken	-9453
▁Log	-9454
▁Mel	-9455
▁Off	-9456
▁PAC	-9457
▁Red	-9458
▁dig	-9459
▁vou	-9460
alian	-9461
cious	-9462
excéd	-9463
fices	-9464
obago	-9465
océan	-9466
ordon	-9467
ports	-9468
tible	-9469
urait	-9470
uropa	-9471
uréat	-9472
écart	-9473
▁0713	-9474
▁Drug	-9475
▁Lors	-9476
▁Park	-9477
▁Peti	-9478
▁atta	-9479
▁axés	-9480
▁bacc	-9481
▁garn	-9482
▁mené	-9483
▁mots	-9484
▁naît	-9485
▁rôti	-9486
▁sort	-9487
▁vede	-9488
▁émis	-9489
combin	-9490
entité	-9491
illage	-9492
istant	-9493
liquer	-9494
ourdes	-9495
oursin	-9496
▁1980,	-9497
▁Année	-9498
▁Chamb	-9499
▁Radio	-9500
▁Royal	-9501
▁Vente	-9502
▁cessé	-9503
▁débat	-9504
▁effec	-9505
▁fondé	-9506
▁paras	-9507
▁pièce	-9508
▁poêle	-9509
▁sémin	-9510
▁usage	-9511
▁vache	-9512
alisées	-9513
automne	-9514
estival	-9515
illants	-9516
mposium	-9517
romagné	-9518
titudes	-9519
▁(380-4	-9520
▁Alaska	-9521
▁Buenos	-9522
▁COMMER	-9523
▁Chaque	-9524
▁ajoute	-9525
▁antéri	-9526
▁choses	-9527
▁entend	-9528
▁entour	-9529
▁exempl	-9530
▁former	-9531
▁inclus	-9532
▁indien	-9533
▁jaunes	-9534
▁montée	-9535
▁moteur	-9536
▁regard	-9537
▁rester	-9538
▁suffit	-9539
▁équili	-9540
MBALLAGE	-9541
aitement	-9542
alauréat	-9543
approche	-9544
issantes	-9545
▁(58212)	-9546
▁Starbuc	-9547
▁adultes	-9548
▁aviaire	-9549
▁bettera	-9550
▁consécu	-9551
▁demandé	-9552
▁dédouan	-9553
▁défense	-9554
▁démocra	-9555
▁farines	-9556
▁feuille	-9557
▁indonés	-9558
▁joindre	-9559
▁journée	-9560
▁profits	-9561
▁prévoir	-9562
▁routier	-9563
▁carottes	-9564
▁chiffrer	-9565
▁disposés	-9566
▁examiner	-9567
▁expédier	-9568
▁expédiés	-9569
▁littoral	-9570
▁posséder	-9571
▁probable	-9572
▁protagon	-9573
▁préciser	-9574
▁recombin	-9575
▁reconnue	-9576
▁éleveurs	-9577
▁Personnes	-9578
▁cliniques	-9579
▁construit	-9580
▁expliquer	-9581
▁fonctions	-9582
▁forcément	-9583
▁longueurs	-9584
▁margarine	-9585
▁mouvement	-9586
▁opération	-9587
▁remplacer	-9588
▁commission	-9589
▁comptaient	-9590
▁formalités	-9591
▁génération	-9592
▁machinerie	-9593
▁subvention	-9594
▁équipement	-9595
▁étiquetage	-9596
ommandations	-9597
▁ASSOCIATION	-9598
▁croustilles	-9599
▁grandissant	-9600
▁indications	-9601
▁individuels	-9602
▁participent	-9603
▁réfrigérées	-9604
Observatoires	-9605
développement	-9606
▁baccalauréat	-9607
▁discompteurs	-9608
▁enregistrées	-9609
▁remplacement	-9610
▁électromagné	-9611
▁néerlandaises	-9612
EF	-9613
HP	-9614
YS	-9615
cs	-9616
hl	-9617
oï	-9618
án	-9619
ACC	-9620
GAR	-9621
Mex	-9622
Net	-9623
Règ	-9624
abs	-9625
cal	-9626
clé	-9627
ect	-9628
eli	-9629
enz	-9630
gon	-9631
hip	-9632
hum	-9633
iez	-9634
lon	-9635
rob	-9636
uls	-9637
zil	-9638
éga	-9639
▁01	-9640
▁03	-9641
▁4,	-9642
▁4.	-9643
▁CP	-9644
▁Hy	-9645
▁OB	-9646
▁PÊ	-9647
▁bâ	-9648
▁cy	-9649
▁mû	-9650
..."	-9651
.2.2	-9652
ACDI	-9653
AFMA	-9654
DIEN	-9655
agri	-9656
aies	-9657
anao	-9658
arta	-9659
atif	-9660
cule	-9661
idée	-9662
illé	-9663
merc	-9664
norr	-9665
pare	-9666
stat	-9667
ster	-9668
view	-9669
wers	-9670
▁"9.	-9671
▁(84	-9672
▁230	-9673
▁3,1	-9674
▁30,	-9675
▁31,	-9676
▁550	-9677
▁Bas	-9678
▁Fle	-9679
▁Ger	-9680
▁Hai	-9681
▁Las	-9682
▁She	-9683
▁Yuk	-9684
▁adh	-9685
▁aph	-9686
▁soi	-9687
▁ton	-9688
▁vap	-9689
▁vif	-9690
MANDE	-9691
adora	-9692
agées	-9693
ander	-9694
chard	-9695
duire	-9696
exemp	-9697
hanol	-9698
initi	-9699
nonce	-9700
onais	-9701
ourse	-9702
ouvre	-9703
ressé	-9704
îtres	-9705
▁Cher	-9706
▁Chic	-9707
▁HRSI	-9708
▁High	-9709
▁Muni	-9710
▁Pack	-9711
▁Vigo	-9712
▁Voir	-9713
▁club	-9714
▁doté	-9715
▁fixe	-9716
▁inég	-9717
▁poly	-9718
▁pros	-9719
▁répu	-9720
▁salé	-9721
▁vice	-9722
aisons	-9723
entrer	-9724
erview	-9725
eutsch	-9726
mbassy	-9727
yanmar	-9728
▁2004"	-9729
▁Calle	-9730
▁Delhi	-9731
▁Floor	-9732
▁Ville	-9733
▁arriv	-9734
▁colza	-9735
▁croît	-9736
▁delta	-9737
▁dispu	-9738
▁décro	-9739
▁exécu	-9740
▁finis	-9741
▁génie	-9742
▁incon	-9743
▁menée	-9744
▁neutr	-9745
▁purée	-9746
▁quasi	-9747
▁reten	-9748
▁thème	-9749
▁vidéo	-9750
▁voici	-9751
▁voies	-9752
Laurent	-9753
MATEURS	-9754
ensions	-9755
pective	-9756
élation	-9757
épenses	-9758
▁1997."	-9759
▁APERÇU	-9760
▁Mexica	-9761
▁Nestle	-9762
▁Provin	-9763
▁Salmon	-9764
▁aidera	-9765
▁annexe	-9766
▁canaux	-9767
▁cibler	-9768
▁décrit	-9769
▁foyers	-9770
▁guerre	-9771
▁marmel	-9772
▁météor	-9773
▁portug	-9774
▁presti	-9775
▁prière	-9776
▁prêtes	-9777
▁pénins	-9778
▁péremp	-9779
▁statut	-9780
▁traite	-9781
▁tropic	-9782
▁évolué	-9783
ASTROLab	-9784
accompag	-9785
histoire	-9786
inscrire	-9787
êtements	-9788
▁Attache	-9789
▁Laborat	-9790
▁affirmé	-9791
▁annuels	-9792
▁arables	-9793
▁atteind	-9794
▁avantag	-9795
▁baisser	-9796
▁cachers	-9797
▁congrès	-9798
▁imposés	-9799
▁situent	-9800
▁sorties	-9801
▁suppose	-9802
▁volonté	-9803
_________	-9804
ashington	-9805
obtention	-9806
▁Activité	-9807
▁Beverage	-9808
▁Bulletin	-9809
▁Jamaïque	-9810
▁Japonais	-9811
▁aphteuse	-9812
▁collabor	-9813
▁composée	-9814
▁conduite	-9815
▁exportée	-9816
▁humaines	-9817
▁indiqués	-9818
▁inscrits	-9819
▁invitées	-9820
▁lumineux	-9821
▁modifiée	-9822
▁multipli	-9823
▁réserves	-9824
▁semestre	-9825
▁trouvera	-9826
▁témoigne	-9827
▁énumérés	-9828
Angleterre	-9829
PORTATIONS	-9830
investisse	-9831
▁Brunswick	-9832
▁Delicious	-9833
▁EMBALLAGE	-9834
▁Guatemala	-9835
▁Pharmaceu	-9836
▁Recherche	-9837
▁Represent	-9838
▁catalogue	-9839
▁chiffrait	-9840
▁classique	-9841
▁conserves	-9842
▁démontrer	-9843
▁entraîner	-9844
▁indiennes	-9845
▁nordiques	-9846
▁palourdes	-9847
▁participe	-9848
▁rapproche	-9849
▁satellite	-9850
▁Certificat	-9851
▁compétitif	-9852
▁concentrer	-9853
▁couramment	-9854
▁distribués	-9855
▁génétiques	-9856
▁mécanismes	-9857
▁pharmacies	-9858
▁variations	-9859
▁historiques	-9860
▁importation	-9861
▁innovations	-9862
▁pertinentes	-9863
▁précédentes	-9864
▁spectroscop	-9865
▁vénézuélien	-9866
élargissement	-9867
▁complètement	-9868
▁consultation	-9869
▁efficacement	-9870
▁reproduction	-9871
▁contrebalancé	-9872
▁entretiennent	-9873
▁exceptionnelle	-9874
▁gastronomiques	-9875
27	-9876
CV	-9877
Et	-9878
ep	-9879
gn	-9880
ki	-9881
72,	-9882
910	-9883
AFC	-9884
CAD	-9885
ISO	-9886
Pri	-9887
Rec	-9888
TAR	-9889
TEN	-9890
TES	-9891
arr	-9892
bon	-9893
cht	-9894
cra	-9895
gée	-9896
mas	-9897
oux	-9898
rio	-9899
œur	-9900
▁5.	-9901
▁6,	-9902
▁Do	-9903
▁Fl	-9904
▁KG	-9905
▁Ke	-9906
▁Rd	-9907
▁RÉ	-9908
▁SE	-9909
▁SW	-9910
▁hé	-9911
▁mè	-9912
-30)	-9913
ISTR	-9914
Mais	-9915
TURE	-9916
agen	-9917
avec	-9918
awaï	-9919
azak	-9920
dans	-9921
ench	-9922
fran	-9923
mail	-9924
orea	-9925
plan	-9926
real	-9927
roup	-9928
stan	-9929
tate	-9930
ténu	-9931
uevo	-9932
ÈRES	-9933
▁(1)	-9934
▁1."	-9935
▁104	-9936
▁140	-9937
▁3.1	-9938
▁4,8	-9939
▁4,9	-9940
▁426	-9941
▁5,7	-9942
▁5,8	-9943
▁50,	-9944
▁750	-9945
▁8,3	-9946
▁Act	-9947
▁And	-9948
▁CAR	-9949
▁CCD	-9950
▁Cat	-9951
▁Eff	-9952
▁Mak	-9953
▁Nos	-9954
▁PUB	-9955
▁Tre	-9956
▁flè	-9957
▁fus	-9958
▁sug	-9959
-1773	-9960
arson	-9961
attra	-9962
auche	-9963
chage	-9964
enter	-9965
impôt	-9966
iture	-9967
lière	-9968
opath	-9969
pring	-9970
sible	-9971
tront	-9972
vainc	-9973
▁Aide	-9974
▁Buil	-9975
▁Deux	-9976
▁East	-9977
▁Espa	-9978
▁From	-9979
▁José	-9980
▁Kyiv	-9981
▁MATI	-9982
▁MERC	-9983
▁Près	-9984
▁Type	-9985
▁atom	-9986
▁doré	-9987
▁sard	-9988
▁slov	-9989
▁visé	-9990
▁vite	-9991
Aperçu	-9992
aragua	-9993
ataire	-9994
essais	-9995
global	-9996
harmon	-9997
hority	-9998
ignent	-9999
isembl	-10000
pecial	-10001
▁"100,	-10002
▁MERCA	-10003
▁Metro	-10004
▁Milli	-10005
▁Paulo	-10006
▁PÊCHE	-10007
▁Qatar	-10008
▁South	-10009
▁Spéci	-10010
▁Steph	-10011
▁billi	-10012
▁carré	-10013
▁dette	-10014
▁dégus	-10015
▁dépar	-10016
▁formé	-10017
▁foyer	-10018
▁gains	-10019
▁inaug	-10020
▁incit	-10021
▁magné	-10022
▁nommé	-10023
▁ondes	-10024
▁porté	-10025
▁prési	-10026
▁relev	-10027
▁revue	-10028
▁texte	-10029
▁vingt	-10030
▁vodka	-10031
Islande	-10032
accéder	-10033
adapter	-10034
alistes	-10035
ampleur	-10036
cheries	-10037
ization	-10038
univers	-10039
▁Dunlap	-10040
▁Foodex	-10041
▁Guyana	-10042
▁Malgré	-10043
▁PUBLIC	-10044
▁Revenu	-10045
▁boîtes	-10046
▁brevet	-10047
▁future	-10048
▁global	-10049
▁grimpé	-10050
▁indice	-10051
▁jouent	-10052
▁laisse	-10053
▁mousse	-10054
▁mouton	-10055
▁refroi	-10056
▁récent	-10057
▁saines	-10058
▁stipul	-10059
▁téléph	-10060
▁vaches	-10061
▁valide	-10062
▁vapeur	-10063
▁vivent	-10064
francais	-10065
secteurs	-10066
▁(011-84	-10067
▁Catégor	-10068
▁Comerci	-10069
▁Concurr	-10070
▁Profile	-10071
▁Science	-10072
▁bactéri	-10073
▁chances	-10074
▁combler	-10075
▁dessert	-10076
▁devenus	-10077
▁diploma	-10078
▁griller	-10079
▁grosses	-10080
▁horaire	-10081
▁italien	-10082
▁lecteur	-10083
▁manipul	-10084
▁maximum	-10085
▁modeste	-10086
▁rendent	-10087
▁revient	-10088
▁roupies	-10089
Plusieurs	-10090
atteindre	-10091
countries	-10092
exécution	-10093
rairement	-10094
échantill	-10095
▁(380-44)	-10096
▁Building	-10097
▁District	-10098
▁Mélanger	-10099
▁analyste	-10100
▁attendre	-10101
▁convainc	-10102
▁célestes	-10103
▁côtières	-10104
▁division	-10105
▁envisage	-10106
▁estiment	-10107
▁favorisé	-10108
▁glucides	-10109
▁précises	-10110
▁puissent	-10111
▁réalisée	-10112
▁scandina	-10113
excellents	-10114
événements	-10115
▁Authority	-10116
▁Indonesia	-10117
▁Naissance	-10118
▁Nicaragua	-10119
▁Situation	-10120
▁commencer	-10121
▁demandent	-10122
▁existants	-10123
▁fabriquer	-10124
▁familiers	-10125
▁observées	-10126
▁satisfais	-10127
▁souligner	-10128
▁vraisembl	-10129
appellation	-10130
▁collaborer	-10131
▁conférence	-10132
▁conseiller	-10133
▁consommées	-10134
▁franchises	-10135
▁livraisons	-10136
▁marmelades	-10137
▁perfection	-10138
▁péremption	-10139
▁vigoureuse	-10140
importateurs	-10141
▁Déclaration	-10142
▁accompagnés	-10143
▁communiquez	-10144
▁compétitifs	-10145
▁considérées	-10146
▁originaires	-10147
▁restriction	-10148
▁territoires	-10149
accréditation	-10150
▁ALIMENTAIRES	-10151
▁Préparations	-10152
▁essentielles	-10153
▁grandissante	-10154
▁publicitaire	-10155
▁renforcement	-10156
▁collectivités	-10157
▁conditionneur	-10158
▁immédiatement	-10159
▁spécifiquement	-10160
▁rafraîchissante	-10161
/4	-10162
DS	-10163
FE	-10164
by	-10165
cy	-10166
ÉE	-10167
ÉN	-10168
-37	-10169
-38	-10170
/06	-10171
1,3	-10172
1-7	-10173
50)	-10174
ANI	-10175
Auc	-10176
VER	-10177
agh	-10178
avi	-10179
mac	-10180
oil	-10181
osp	-10182
sea	-10183
tia	-10184
vol	-10185
zon	-10186
▁06	-10187
▁Ap	-10188
▁NZ	-10189
▁TR	-10190
▁Tu	-10191
▁bu	-10192
/198	-10193
TRES	-10194
agan	-10195
appu	-10196
data	-10197
ensé	-10198
esté	-10199
expo	-10200
fish	-10201
gici	-10202
onor	-10203
otre	-10204
phal	-10205
soci	-10206
ulsi	-10207
véni	-10208
▁0,8	-10209
▁194	-10210
▁232	-10211
▁4,1	-10212
▁5,2	-10213
▁6,8	-10214
▁902	-10215
▁992	-10216
▁Dis	-10217
▁Haï	-10218
▁Kir	-10219
▁aim	-10220
▁fol	-10221
▁jan	-10222
▁yen	-10223
CTION	-10224
ENTRE	-10225
World	-10226
aboli	-10227
acide	-10228
agnon	-10229
anish	-10230
combe	-10231
direc	-10232
ockey	-10233
orant	-10234
tirer	-10235
▁Avec	-10236
▁Café	-10237
▁Date	-10238
▁Herz	-10239
▁Jose	-10240
▁Même	-10241
▁Supp	-10242
▁ajus	-10243
▁céli	-10244
▁domm	-10245
▁grec	-10246
▁joué	-10247
▁juge	-10248
▁pose	-10249
▁pren	-10250
▁pure	-10251
▁sait	-10252
▁soin	-10253
▁sols	-10254
ancien	-10255
engage	-10256
esprit	-10257
figure	-10258
fiques	-10259
indice	-10260
isseur	-10261
rières	-10262
▁1992,	-10263
▁1993,	-10264
▁ASICC	-10265
▁Après	-10266
▁Bruit	-10267
▁Huile	-10268
▁Knorr	-10269
▁Osaka	-10270
▁Parti	-10271
▁Pâtes	-10272
▁Yukon	-10273
▁accré	-10274
▁allou	-10275
▁arabe	-10276
▁grain	-10277
▁gérer	-10278
▁hydro	-10279
▁intra	-10280
▁islam	-10281
▁lundi	-10282
▁marge	-10283
▁merlu	-10284
▁nuclé	-10285
▁palme	-10286
▁pôles	-10287
▁virus	-10288
Ajouter	-10289
accords	-10290
english	-10291
istrito	-10292
matique	-10293
occuper	-10294
oncture	-10295
éthanol	-10296
▁Martin	-10297
▁Petits	-10298
▁Robert	-10299
▁Saumon	-10300
▁Taiwan	-10301
▁Traité	-10302
▁appuie	-10303
▁cibles	-10304
▁conver	-10305
▁démons	-10306
▁flotte	-10307
▁jambon	-10308
▁multil	-10309
▁ouvrir	-10310
▁tirant	-10311
▁tirées	-10312
▁totaux	-10313
▁venant	-10314
▁verser	-10315
espagnol	-10316
habitude	-10317
élaborer	-10318
émission	-10319
▁Charles	-10320
▁Denmark	-10321
▁Embassy	-10322
▁Network	-10323
▁Trinité	-10324
▁accepté	-10325
▁adjoint	-10326
▁connues	-10327
▁célibat	-10328
▁fournie	-10329
▁froides	-10330
▁graisse	-10331
▁grimper	-10332
▁intégré	-10333
▁ouverte	-10334
▁poulets	-10335
▁remport	-10336
▁rivière	-10337
▁sociaux	-10338
▁tiendra	-10339
▁vitesse	-10340
▁élaboré	-10341
expertise	-10342
▁995-1773	-10343
▁Chapitre	-10344
▁Novembre	-10345
▁PARTICIP	-10346
▁Pourquoi	-10347
▁attentes	-10348
▁complets	-10349
▁composer	-10350
▁existent	-10351
▁fabrique	-10352
▁finement	-10353
▁indienne	-10354
▁médicaux	-10355
▁prédomin	-10356
▁prélimin	-10357
▁renforcé	-10358
▁retraite	-10359
▁richesse	-10360
▁stockage	-10361
▁élaborer	-10362
▁Amériques	-10363
▁Certaines	-10364
▁commandes	-10365
▁culinaire	-10366
▁douanière	-10367
▁découlant	-10368
▁indirects	-10369
▁nutritive	-10370
▁présentée	-10371
▁reçoivent	-10372
▁substanti	-10373
▁surgelées	-10374
▁variation	-10375
Philippines	-10376
acceptation	-10377
élimination	-10378
équipements	-10379
▁Protection	-10380
▁Recherches	-10381
▁augmentait	-10382
▁favorisant	-10383
▁négociants	-10384
▁pleinement	-10385
▁télévision	-10386
▁équivalent	-10387
Lebensmittel	-10388
entification	-10389
tablissement	-10390
échantillons	-10391
▁brésilienne	-10392
▁caractérise	-10393
▁chargements	-10394
▁conclusions	-10395
▁décortiqués	-10396
▁déplacement	-10397
▁exportation	-10398
▁inquiétudes	-10399
▁moléculaire	-10400
▁négociation	-10401
▁proposition	-10402
▁rayonnement	-10403
▁rentabilité	-10404
installations	-10405
▁brésiliennes	-10406
▁législations	-10407
▁commercialisé	-10408
▁conjointement	-10409
▁manufacturier	-10410
▁nutritionnels	-10411
▁protagonistes	-10412
▁réfrigération	-10413
▁vénézuélienne	-10414
▁vieillissement	-10415
▁météorologiques	-10416
▁responsabilités	-10417
7.	-10418
8.	-10419
BR	-10420
Dé	-10421
GP	-10422
HC	-10423
IR	-10424
Im	-10425
Je	-10426
gh	-10427
of	-10428
ye	-10429
yn	-10430
ÉD	-10431
▁?	-10432
-35	-10433
-52	-10434
-62	-10435
146	-10436
Bon	-10437
CIA	-10438
CIF	-10439
SIQ	-10440
bel	-10441
ino	-10442
iro	-10443
ith	-10444
lir	-10445
map	-10446
mid	-10447
oca	-10448
oce	-10449
ouc	-10450
rol	-10451
tas	-10452
tré	-10453
uiz	-10454
ula	-10455
una	-10456
▁"-	-10457
▁89	-10458
▁98	-10459
▁CN	-10460
▁Cu	-10461
▁Mu	-10462
▁PD	-10463
▁PL	-10464
▁PQ	-10465
▁Pu	-10466
▁QU	-10467
▁mL	-10468
▁ru	-10469
▁»)	-10470
ENSE	-10471
Form	-10472
ITÉS	-10473
Quel	-10474
RAIS	-10475
USDA	-10476
aged	-10477
agro	-10478
eler	-10479
lers	-10480
lige	-10481
ocal	-10482
onds	-10483
reta	-10484
teil	-10485
trie	-10486
télé	-10487
visc	-10488
âtre	-10489
élec	-10490
▁%).	-10491
▁(32	-10492
▁6,4	-10493
▁741	-10494
▁8,8	-10495
▁Ale	-10496
▁CCG	-10497
▁Hel	-10498
▁Lif	-10499
▁Liv	-10500
▁Max	-10501
▁Rio	-10502
▁VII	-10503
▁Vir	-10504
▁fen	-10505
▁fou	-10506
-2006	-10507
ASICC	-10508
GARPA	-10509
PORTA	-10510
Ville	-10511
abitu	-10512
abond	-10513
alage	-10514
aucun	-10515
chton	-10516
ierre	-10517
ingen	-10518
istol	-10519
leste	-10520
ligne	-10521
mette	-10522
ocole	-10523
ortie	-10524
oudre	-10525
uxemb	-10526
États	-10527
▁151,	-10528
▁1955	-10529
▁Août	-10530
▁Aqua	-10531
▁Drin	-10532
▁Form	-10533
▁Géné	-10534
▁Meat	-10535
▁Pois	-10536
▁Sand	-10537
▁Tour	-10538
▁Vers	-10539
▁brun	-10540
▁chol	-10541
▁coré	-10542
▁cœur	-10543
▁durs	-10544
▁foie	-10545
▁frig	-10546
▁gril	-10547
▁heur	-10548
▁horm	-10549
▁irré	-10550
▁peso	-10551
▁rare	-10552
▁whis	-10553
▁êtes	-10554
Images	-10555
Toutes	-10556
avérer	-10557
charge	-10558
cherie	-10559
effici	-10560
iseaux	-10561
lition	-10562
marque	-10563
morque	-10564
zaines	-10565
étoile	-10566
▁Camel	-10567
▁DISTR	-10568
▁Farms	-10569
▁INTER	-10570
▁Jalan	-10571
▁Kraft	-10572
▁Plant	-10573
▁Trois	-10574
▁atlas	-10575
▁axées	-10576
▁basée	-10577
▁crain	-10578
▁dégra	-10579
▁hauts	-10580
▁neige	-10581
▁prête	-10582
▁ramen	-10583
▁rares	-10584
▁récup	-10585
▁révél	-10586
▁tenus	-10587
▁visée	-10588
▁écrit	-10589
ISATION	-10590
chtones	-10591
esterie	-10592
gétique	-10593
illette	-10594
iration	-10595
optique	-10596
organic	-10597
éditeur	-10598
équence	-10599
▁Bridge	-10600
▁Common	-10601
▁Island	-10602
▁Malays	-10603
▁McCain	-10604
▁Miguel	-10605
▁Prince	-10606
▁acides	-10607
▁agente	-10608
▁conçus	-10609
▁corrig	-10610
▁coupes	-10611
▁courte	-10612
▁décidé	-10613
▁envois	-10614
▁gommes	-10615
▁incité	-10616
▁incons	-10617
▁manioc	-10618
▁monter	-10619
▁méteil	-10620
▁partag	-10621
▁rendez	-10622
▁sodium	-10623
▁troupe	-10624
▁veille	-10625
▁voient	-10626
investir	-10627
itations	-10628
ufacturi	-10629
énomique	-10630
▁Bristol	-10631
▁Centres	-10632
▁Février	-10633
▁Kingdom	-10634
▁Process	-10635
▁Product	-10636
▁Zealand	-10637
▁ajoutés	-10638
▁automob	-10639
▁cubains	-10640
▁fourrag	-10641
▁longues	-10642
▁recette	-10643
▁requise	-10644
▁retards	-10645
▁régimes	-10646
▁salaire	-10647
▁support	-10648
▁échange	-10649
MENTATION	-10650
PORTATION	-10651
mbassades	-10652
transform	-10653
uxembourg	-10654
▁CANADIEN	-10655
▁Décembre	-10656
▁Factbook	-10657
▁Réaliser	-10658
▁Sciences	-10659
▁classait	-10660
▁durables	-10661
▁familiar	-10662
▁indiquée	-10663
▁internes	-10664
▁marquage	-10665
▁montants	-10666
▁pouvoirs	-10667
▁primaire	-10668
▁prospère	-10669
▁pénuries	-10670
▁respectu	-10671
▁strictes	-10672
▁vivantes	-10673
▁Premières	-10674
▁Président	-10675
▁Starbucks	-10676
▁alliances	-10677
▁améliorée	-10678
▁confirmer	-10679
▁dominante	-10680
▁française	-10681
▁permanent	-10682
▁plastique	-10683
▁priorités	-10684
▁puissance	-10685
▁taïwanais	-10686
▁Canadienne	-10687
▁Conférence	-10688
▁Technology	-10689
▁apprécient	-10690
▁atmosphère	-10691
▁avantageux	-10692
▁déterminée	-10693
▁encourager	-10694
▁prometteur	-10695
▁respectent	-10696
▁totalement	-10697
▁vietnamien	-10698
▁FABRICATION	-10699
▁communautés	-10700
▁déshydratés	-10701
▁Organization	-10702
▁biopharmaceu	-10703
▁coopératives	-10704
▁célibataires	-10705
▁déterminants	-10706
▁instantanées	-10707
▁législatives	-10708
▁présentement	-10709
▁spécialistes	-10710
▁transparence	-10711
▁transporteur	-10712
▁bénéficiaires	-10713
▁connaissement	-10714
▁considération	-10715
▁constituaient	-10716
▁débarquements	-10717
▁indépendantes	-10718
▁rapprochement	-10719
▁électroniques	-10720
▁fonctionnement	-10721
▁métropolitaine	-10722
▁gouvernementale	-10723
LL	-10724
fK	-10725
kh	-10726
ln	-10727
là	-10728
oo	-10729
zy	-10730
,""	-10731
-63	-10732
-82	-10733
10,	-10734
121	-10735
125	-10736
7-4	-10737
ANC	-10738
NES	-10739
OMO	-10740
TVA	-10741
cic	-10742
ecu	-10743
fru	-10744
iso	-10745
len	-10746
nia	-10747
omé	-10748
ovi	-10749
red	-10750
rey	-10751
usa	-10752
vég	-10753
▁(«	-10754
▁5%	-10755
▁BI	-10756
▁IV	-10757
▁Lo	-10758
▁OR	-10759
▁be	-10760
▁ÉM	-10761
Deux	-10762
FORM	-10763
ICUL	-10764
OCDE	-10765
Quoi	-10766
agir	-10767
ahar	-10768
allé	-10769
amas	-10770
ario	-10771
ault	-10772
ayas	-10773
chup	-10774
cion	-10775
ción	-10776
come	-10777
coré	-10778
dson	-10779
iang	-10780
itre	-10781
néra	-10782
rans	-10783
rill	-10784
site	-10785
téro	-10786
unds	-10787
west	-10788
érap	-10789
▁0,6	-10790
▁0,7	-10791
▁070	-10792
▁105	-10793
▁130	-10794
▁185	-10795
▁235	-10796
▁5,1	-10797
▁6,2	-10798
▁636	-10799
▁7,9	-10800
▁91/	-10801
▁BIO	-10802
▁CAQ	-10803
▁Che	-10804
▁FAC	-10805
▁May	-10806
▁Ren	-10807
▁Vol	-10808
▁div	-10809
▁num	-10810
▁rub	-10811
▁sex	-10812
▁tre	-10813
AQSIQ	-10814
attle	-10815
danao	-10816
hôtel	-10817
icana	-10818
itter	-10819
nière	-10820
oints	-10821
onner	-10822
ouché	-10823
senti	-10824
uerto	-10825
verse	-10826
èlent	-10827
étant	-10828
▁"030	-10829
▁(65)	-10830
▁(81)	-10831
▁Anim	-10832
▁CONS	-10833
▁City	-10834
▁Data	-10835
▁Esti	-10836
▁León	-10837
▁Marc	-10838
▁Matt	-10839
▁Milk	-10840
▁PAGE	-10841
▁PAYS	-10842
▁diab	-10843
▁diss	-10844
▁fact	-10845
▁tire	-10846
▁ébul	-10847
Centre	-10848
Profil	-10849
annuel	-10850
dement	-10851
embass	-10852
espèce	-10853
etchup	-10854
ifiées	-10855
inspec	-10856
édoine	-10857
▁228-6	-10858
▁Booth	-10859
▁Chant	-10860
▁Donne	-10861
▁India	-10862
▁Louis	-10863
▁Medic	-10864
▁Monte	-10865
▁Nuevo	-10866
▁Syste	-10867
▁Valle	-10868
▁Vitam	-10869
▁appuy	-10870
▁confl	-10871
▁cycle	-10872
▁dépos	-10873
▁enfin	-10874
▁fixer	-10875
▁framb	-10876
▁ouvre	-10877
▁quels	-10878
▁refus	-10879
▁stade	-10880
Institu	-10881
emploie	-10882
ference	-10883
lusions	-10884
parlers	-10885
secteur	-10886
élevait	-10887
éréales	-10888
▁Agente	-10889
▁Boston	-10890
▁Huiles	-10891
▁Laredo	-10892
▁Marine	-10893
▁Orient	-10894
▁Résumé	-10895
▁Spring	-10896
▁Taipei	-10897
▁admiss	-10898
▁animal	-10899
▁bassin	-10900
▁chance	-10901
▁devait	-10902
▁désign	-10903
▁engagé	-10904
▁espère	-10905
▁flèche	-10906
▁froide	-10907
▁fructu	-10908
▁fusion	-10909
▁incorp	-10910
▁livrer	-10911
▁norvég	-10912
▁persil	-10913
▁privée	-10914
▁retard	-10915
▁salmon	-10916
▁salées	-10917
▁savent	-10918
▁signer	-10919
▁sugges	-10920
▁thèmes	-10921
▁vallée	-10922
aluation	-10923
angement	-10924
entielle	-10925
occupent	-10926
▁Camelot	-10927
▁Chicago	-10928
▁MEXIQUE	-10929
▁Majesté	-10930
▁Sources	-10931
▁abandon	-10932
▁appelée	-10933
▁chargée	-10934
▁exprimé	-10935
▁fiables	-10936
▁fondées	-10937
▁invités	-10938
▁mettant	-10939
▁oignons	-10940
▁parrain	-10941
▁permise	-10942
▁plateau	-10943
▁profite	-10944
▁quelcon	-10945
▁sucrées	-10946
▁tentent	-10947
▁étroite	-10948
▁étudier	-10949
effectuer	-10950
ticulture	-10951
tiquetage	-10952
▁225-2342	-10953
▁Alliance	-10954
▁Barriers	-10955
▁Contexte	-10956
▁Création	-10957
▁Distrito	-10958
▁Estimate	-10959
▁Labrador	-10960
▁Matériel	-10961
▁Mindanao	-10962
▁Receveur	-10963
▁SERVICES	-10964
▁chauffer	-10965
▁critique	-10966
▁douanier	-10967
▁détecter	-10968
▁entraîne	-10969
▁excluant	-10970
▁exemples	-10971
▁feuilles	-10972
▁initiale	-10973
▁insuffis	-10974
▁limitent	-10975
▁négocier	-10976
▁observés	-10977
▁opportun	-10978
▁original	-10979
▁parvient	-10980
▁promette	-10981
▁rentable	-10982
▁réunions	-10983
▁sandwich	-10984
▁vivement	-10985
▁Échanges	-10986
imposition	-10987
▁bénéfices	-10988
▁chercheur	-10989
▁composées	-10990
▁courantes	-10991
▁demeurera	-10992
▁détermine	-10993
▁emballées	-10994
▁introduit	-10995
▁orientale	-10996
▁passagers	-10997
▁profitent	-10998
▁proposées	-10999
▁péninsule	-11000
▁rentables	-11001
▁vêtements	-11002
orientation	-11003
▁PRINCIPAUX	-11004
▁abordables	-11005
▁autorisées	-11006
▁comportant	-11007
▁composante	-11008
▁culinaires	-11009
▁fourniture	-11010
▁juridiques	-11011
▁ordonnance	-11012
▁profondeur	-11013
▁provincial	-11014
▁restructur	-11015
▁ébullition	-11016
▁écologique	-11017
publications	-11018
▁COMPOSITION	-11019
▁Importation	-11020
▁accessibles	-11021
▁compétentes	-11022
▁déterminant	-11023
▁manitobains	-11024
▁positionner	-11025
▁pourparlers	-11026
▁précisément	-11027
▁recensement	-11028
▁spécialités	-11029
▁subsistance	-11030
▁énergétique	-11031
Environnement	-11032
▁Britanniques	-11033
▁caractérisée	-11034
▁déclarations	-11035
▁déplacements	-11036
▁photographie	-11037
▁publications	-11038
▁Representative	-11039
▁enregistrement	-11040
▁AGROALIMENTAIRE	-11041
▁administratives	-11042
▁biotechnologies	-11043
▁caractéristique	-11044
▁microorganismes	-11045
▁restructuration	-11046
64	-11047
AV	-11048
Co	-11049
ED	-11050
IX	-11051
Th	-11052
cé	-11053
dn	-11054
ym	-11055
"",	-11056
.).	-11057
/12	-11058
1-1	-11059
19)	-11060
AIS	-11061
Bar	-11062
ITÉ	-11063
Lab	-11064
alt	-11065
bra	-11066
cio	-11067
cro	-11068
fia	-11069
fie	-11070
gen	-11071
ics	-11072
imb	-11073
ism	-11074
jin	-11075
mpe	-11076
nac	-11077
oyé	-11078
ruz	-11079
tir	-11080
uan	-11081
vey	-11082
ÉAN	-11083
▁%;	-11084
▁4)	-11085
▁AG	-11086
▁Né	-11087
▁OU	-11088
Hong	-11089
Leur	-11090
TAIL	-11091
anda	-11092
auth	-11093
bule	-11094
dits	-11095
dont	-11096
eill	-11097
esca	-11098
farm	-11099
hong	-11100
igan	-11101
itée	-11102
olis	-11103
osér	-11104
oxyd	-11105
rops	-11106
ward	-11107
érol	-11108
▁(16	-11109
▁(40	-11110
▁(70	-11111
▁236	-11112
▁3,0	-11113
▁347	-11114
▁420	-11115
▁5,3	-11116
▁6,3	-11117
▁7,3	-11118
▁80,	-11119
▁9,3	-11120
▁930	-11121
▁Arg	-11122
▁Ast	-11123
▁Bun	-11124
▁CIF	-11125
▁How	-11126
▁Jac	-11127
▁Lob	-11128
▁Méd	-11129
▁Oct	-11130
▁PES	-11131
▁PME	-11132
▁SPÉ	-11133
▁STR	-11134
▁São	-11135
▁Tec	-11136
▁Wil	-11137
▁din	-11138
-8820	-11139
/2003	-11140
ilier	-11141
inion	-11142
isage	-11143
latin	-11144
mento	-11145
prend	-11146
rimer	-11147
timis	-11148
èques	-11149
érind	-11150
▁89/3	-11151
▁Gren	-11152
▁Land	-11153
▁Main	-11154
▁Maur	-11155
▁Nota	-11156
▁Tari	-11157
▁Tech	-11158
▁aqua	-11159
▁bref	-11160
▁jugé	-11161
▁peau	-11162
▁rest	-11163
▁réun	-11164
▁stip	-11165
▁thés	-11166
agraph	-11167
estock	-11168
mateur	-11169
ockeye	-11170
onneur	-11171
osérum	-11172
wealth	-11173
épices	-11174
▁Aucun	-11175
▁Champ	-11176
▁Fonds	-11177
▁Frank	-11178
▁Hanoi	-11179
▁Smith	-11180
▁State	-11181
▁aigre	-11182
▁avion	-11183
▁bruts	-11184
▁crois	-11185
▁crédi	-11186
▁devez	-11187
▁essay	-11188
▁fixés	-11189
▁folle	-11190
▁immob	-11191
▁inver	-11192
▁irrig	-11193
▁laits	-11194
▁noirs	-11195
▁peaux	-11196
▁plain	-11197
▁polar	-11198
▁tâche	-11199
▁émerg	-11200
▁états	-11201
CLIENTS	-11202
Carling	-11203
Estonie	-11204
andises	-11205
cussion	-11206
exemple	-11207
inateur	-11208
kwintes	-11209
sential	-11210
équival	-11211
établit	-11212
▁2015."	-11213
▁Accord	-11214
▁Centro	-11215
▁Copenh	-11216
▁Danois	-11217
▁Kosher	-11218
▁Munich	-11219
▁adress	-11220
▁annonc	-11221
▁arrivé	-11222
▁attray	-11223
▁basses	-11224
▁chaude	-11225
▁chèque	-11226
▁contro	-11227
▁domine	-11228
▁exhaus	-11229
▁exiger	-11230
▁feront	-11231
▁graves	-11232
▁grigno	-11233
▁interf	-11234
▁laitue	-11235
▁malais	-11236
▁présid	-11237
▁prévus	-11238
▁quarts	-11239
▁réside	-11240
▁tempor	-11241
▁varier	-11242
▁vertes	-11243
▁visées	-11244
encéphal	-11245
▁Comment	-11246
▁MARCHÉS	-11247
▁adoptée	-11248
▁calcium	-11249
▁capable	-11250
▁charges	-11251
▁circons	-11252
▁circuit	-11253
▁exempts	-11254
▁exposer	-11255
▁futures	-11256
▁huîtres	-11257
▁implant	-11258
▁lunette	-11259
▁modèles	-11260
▁oiseaux	-11261
▁religie	-11262
▁réfléch	-11263
▁réunion	-11264
▁saumons	-11265
▁station	-11266
▁teneurs	-11267
▁étendue	-11268
economist	-11269
etiquette	-11270
expliquer	-11271
notamment	-11272
▁COMMERCI	-11273
▁Cambodge	-11274
▁Herzberg	-11275
▁Province	-11276
▁Séquence	-11277
▁accepter	-11278
▁apporter	-11279
▁cultivés	-11280
▁directes	-11281
▁débouché	-11282
▁emporter	-11283
▁entrepôt	-11284
▁exprimés	-11285
▁garantie	-11286
▁liquides	-11287
▁montagne	-11288
▁mousseux	-11289
▁médecine	-11290
▁négatifs	-11291
▁prévenir	-11292
▁rapidité	-11293
▁répandue	-11294
▁souligné	-11295
▁soumises	-11296
▁tonalité	-11297
▁téléphon	-11298
▁éliminer	-11299
exploitant	-11300
tification	-11301
▁Macédoine	-11302
▁accueille	-11303
▁attribuée	-11304
▁critiques	-11305
▁deviendra	-11306
▁effectués	-11307
▁garanties	-11308
▁inconvéni	-11309
▁interdite	-11310
▁maintient	-11311
▁maritimes	-11312
▁maximales	-11313
▁précision	-11314
▁semblable	-11315
▁ukrainien	-11316
▁variables	-11317
Statistique	-11318
▁Incorporer	-11319
▁Innovation	-11320
▁Inspection	-11321
▁augmentant	-11322
▁diversifié	-11323
▁effectuent	-11324
▁favorisent	-11325
▁impossible	-11326
▁mouvements	-11327
▁obtiennent	-11328
▁opposition	-11329
▁pertinents	-11330
▁quelconque	-11331
▁respectées	-11332
▁séminaires	-11333
▁ultérieure	-11334
▁évaluation	-11335
Associations	-11336
Commissariat	-11337
▁Aquaculture	-11338
▁Instruments	-11339
▁Spécialiste	-11340
▁Technologie	-11341
▁comparative	-11342
▁congélation	-11343
▁conjoncture	-11344
▁probabilité	-11345
▁provinciale	-11346
▁suggestions	-11347
▁électriques	-11348
▁étroitement	-11349
▁destinations	-11350
▁halieutiques	-11351
kwintessential	-11352
▁BIBLIOGRAPHIE	-11353
▁Manufacturers	-11354
▁Observatoires	-11355
▁graduellement	-11356
▁complémentaires	-11357
▁recommandations	-11358
.*	-11359
./	-11360
/"	-11361
CN	-11362
DU	-11363
FS	-11364
Fr	-11365
MV	-11366
PG	-11367
SS	-11368
);"	-11369
-11	-11370
-45	-11371
-49	-11372
1,2	-11373
1-9	-11374
400	-11375
Fin	-11376
LAN	-11377
Sal	-11378
TOR	-11379
URR	-11380
ald	-11381
ani	-11382
ano	-11383
aud	-11384
axe	-11385
coz	-11386
idl	-11387
iji	-11388
ile	-11389
oon	-11390
orn	-11391
ycl	-11392
Île	-11393
ûte	-11394
œil	-11395
▁AL	-11396
▁DK	-11397
▁GR	-11398
▁IM	-11399
▁PT	-11400
▁Ti	-11401
Fach	-11402
OTAN	-11403
aily	-11404
chim	-11405
eria	-11406
etti	-11407
fair	-11408
gies	-11409
hana	-11410
kett	-11411
oney	-11412
ongi	-11413
opie	-11414
osph	-11415
rief	-11416
unes	-11417
ysté	-11418
éans	-11419
êche	-11420
▁(90	-11421
▁020	-11422
▁102	-11423
▁124	-11424
▁183	-11425
▁210	-11426
▁239	-11427
▁4.1	-11428
▁435	-11429
▁510	-11430
▁6,7	-11431
▁60,	-11432
▁910	-11433
▁96/	-11434
▁All	-11435
▁Bir	-11436
▁Cir	-11437
▁Fac	-11438
▁Ham	-11439
▁ITC	-11440
▁Jau	-11441
▁Lin	-11442
▁Los	-11443
▁LÉG	-11444
▁RÉF	-11445
▁Sab	-11446
▁Sim	-11447
▁Sum	-11448
▁Tar	-11449
▁UTI	-11450
▁Wel	-11451
▁nda	-11452
▁ste	-11453
Autre	-11454
Breta	-11455
Nouve	-11456
acion	-11457
angzi	-11458
azine	-11459
banie	-11460
ereau	-11461
errey	-11462
inées	-11463
natur	-11464
onnus	-11465
orent	-11466
orifi	-11467
ousse	-11468
santé	-11469
umpur	-11470
utter	-11471
▁(10,	-11472
▁0,25	-11473
▁1970	-11474
▁AAFC	-11475
▁Aldi	-11476
▁Alex	-11477
▁Carg	-11478
▁Fait	-11479
▁Font	-11480
▁Gard	-11481
▁Gran	-11482
▁Indi	-11483
▁Lidl	-11484
▁Oman	-11485
▁Pork	-11486
▁Voie	-11487
▁bond	-11488
▁exam	-11489
▁fini	-11490
▁flot	-11491
▁judi	-11492
▁menu	-11493
▁méri	-11494
▁sacs	-11495
▁spor	-11496
▁stag	-11497
▁viol	-11498
APERÇU	-11499
Hudson	-11500
Marché	-11501
accélé	-11502
agneau	-11503
animal	-11504
associ	-11505
entina	-11506
iforme	-11507
illant	-11508
lexion	-11509
oberge	-11510
orment	-11511
tribue	-11512
ténuer	-11513
ultant	-11514
valeur	-11515
énégro	-11516
époque	-11517
▁(44-1	-11518
▁1-800	-11519
▁Angel	-11520
▁Autre	-11521
▁Bread	-11522
▁CARAC	-11523
▁Crème	-11524
▁Exter	-11525
▁Liens	-11526
▁OCÉAN	-11527
▁PROMO	-11528
▁Pizza	-11529
▁White	-11530
▁baies	-11531
▁croit	-11532
▁créés	-11533
▁dates	-11534
▁forum	-11535
▁infec	-11536
▁joint	-11537
▁lever	-11538
▁mécan	-11539
▁navig	-11540
▁nouer	-11541
▁noyau	-11542
▁oppos	-11543
▁optim	-11544
▁photo	-11545
▁recev	-11546
▁remer	-11547
▁senti	-11548
Demande	-11549
INATION	-11550
adopter	-11551
biotech	-11552
demment	-11553
duction	-11554
ecutive	-11555
embassy	-11556
essence	-11557
estérol	-11558
lairage	-11559
laskett	-11560
octobre	-11561
opathie	-11562
ouement	-11563
quelins	-11564
tissant	-11565
ultures	-11566
étiques	-11567
▁1990."	-11568
▁Martel	-11569
▁Puerto	-11570
▁States	-11571
▁Yangzi	-11572
▁access	-11573
▁achète	-11574
▁brutes	-11575
▁contac	-11576
▁effort	-11577
▁erreur	-11578
▁fiable	-11579
▁grippe	-11580
▁génère	-11581
▁imposé	-11582
▁influe	-11583
▁irrigu	-11584
▁lactée	-11585
▁navire	-11586
▁occupé	-11587
▁perçue	-11588
▁photos	-11589
▁régler	-11590
▁saisir	-11591
▁sortes	-11592
▁spongi	-11593
▁sucrés	-11594
▁tenter	-11595
▁vision	-11596
▁écoles	-11597
▁étudie	-11598
Bretagne	-11599
Facteurs	-11600
Labrador	-11601
estation	-11602
habitant	-11603
iendront	-11604
interpré	-11605
lèvement	-11606
msterdam	-11607
échanges	-11608
▁DEMANDE	-11609
▁Journal	-11610
▁Marchés	-11611
▁Myanmar	-11612
▁Pearson	-11613
▁Présent	-11614
▁Visayas	-11615
▁actions	-11616
▁arriver	-11617
▁bassins	-11618
▁classés	-11619
▁céleste	-11620
▁dominée	-11621
▁exercer	-11622
▁formats	-11623
▁hausses	-11624
▁hauteur	-11625
▁illustr	-11626
▁inclure	-11627
▁liaison	-11628
▁limiter	-11629
▁néglige	-11630
▁offerte	-11631
▁plaques	-11632
▁pouvait	-11633
▁profité	-11634
▁quelles	-11635
▁réservé	-11636
▁sixième	-11637
▁séchage	-11638
▁tailles	-11639
▁vedette	-11640
▁visitez	-11641
▁végétar	-11642
▁évaluée	-11643
Relations	-11644
anisation	-11645
lications	-11646
ordinaire	-11647
président	-11648
réciation	-11649
éographie	-11650
▁2002-200	-11651
▁943-8820	-11652
▁Hambourg	-11653
▁Nouveaux	-11654
▁acheteur	-11655
▁argentin	-11656
▁auraient	-11657
▁bouillon	-11658
▁commande	-11659
▁comptoir	-11660
▁contenus	-11661
▁coûteuse	-11662
▁demandés	-11663
▁définies	-11664
▁désireux	-11665
▁détaillé	-11666
▁fabriqué	-11667
▁fragment	-11668
▁globales	-11669
▁informer	-11670
▁informés	-11671
▁réservée	-11672
▁réservés	-11673
▁tableaux	-11674
▁textiles	-11675
▁tourteau	-11676
▁traduite	-11677
formulaire	-11678
immigrants	-11679
impression	-11680
▁Activités	-11681
▁Lentilles	-11682
▁Mexicains	-11683
▁Nutrition	-11684
▁PROMOTION	-11685
▁Promotion	-11686
▁Strategis	-11687
▁Symposium	-11688
▁approprié	-11689
▁approuvée	-11690
▁atteindra	-11691
▁bancaires	-11692
▁carcasses	-11693
▁contrôlée	-11694
▁distincts	-11695
▁détection	-11696
▁exprimées	-11697
▁fraîcheur	-11698
▁frigorifi	-11699
▁fruitière	-11700
▁générique	-11701
▁irlandais	-11702
▁nécessite	-11703
▁paragraph	-11704
▁partagent	-11705
▁pouvaient	-11706
▁précédent	-11707
▁reconnaît	-11708
▁réflexion	-11709
▁Événement	-11710
▁étiquetés	-11711
américaines	-11712
graissement	-11713
▁Bridgetown	-11714
▁accessible	-11715
▁dimensions	-11716
▁définition	-11717
▁fonctionne	-11718
▁infrarouge	-11719
▁rapportent	-11720
▁secondaire	-11721
▁sécheresse	-11722
▁volontaire	-11723
alimentaires	-11724
▁Département	-11725
▁Entreprises	-11726
▁Territoires	-11727
▁admissibles	-11728
▁approbation	-11729
▁compléments	-11730
▁coopérative	-11731
▁expériences	-11732
▁fournissant	-11733
▁participant	-11734
▁perspective	-11735
▁productions	-11736
▁préoccupent	-11737
▁quotidienne	-11738
▁spongiforme	-11739
▁supervision	-11740
▁Commonwealth	-11741
▁certainement	-11742
▁exploitation	-11743
▁laboratoires	-11744
▁observateurs	-11745
▁vietnamienne	-11746
▁photographies	-11747
▁préoccupation	-11748
▁significative	-11749
encéphalopathie	-11750
▁industrialisés	-11751
▁institutionnel	-11752
▁multiplication	-11753
4/	-11754
6.	-11755
Po	-11756
SB	-11757
St	-11758
UC	-11759
fc	-11760
qc	-11761
ût	-11762
,25	-11763
/02	-11764
112	-11765
119	-11766
2."	-11767
32/	-11768
333	-11769
62,	-11770
690	-11771
Her	-11772
ICO	-11773
Rep	-11774
Rés	-11775
TEC	-11776
TIN	-11777
Tou	-11778
ady	-11779
adé	-11780
ato	-11781
aya	-11782
bac	-11783
ccc	-11784
col	-11785
cub	-11786
din	-11787
edu	-11788
eld	-11789
fgh	-11790
hér	-11791
kok	-11792
nic	-11793
ost	-11794
own	-11795
prê	-11796
riz	-11797
uet	-11798
▁6.	-11799
▁AR	-11800
▁Fu	-11801
▁Ga	-11802
▁Hô	-11803
▁It	-11804
▁Kr	-11805
▁Xi	-11806
▁el	-11807
Fait	-11808
actu	-11809
adis	-11810
aliz	-11811
atio	-11812
boom	-11813
chen	-11814
dney	-11815
elph	-11816
elui	-11817
entr	-11818
eves	-11819
ffre	-11820
muné	-11821
ning	-11822
nous	-11823
outs	-11824
oûts	-11825
uble	-11826
xtes	-11827
élag	-11828
▁(80	-11829
▁0,2	-11830
▁0,4	-11831
▁116	-11832
▁227	-11833
▁240	-11834
▁6,6	-11835
▁670	-11836
▁7,5	-11837
▁Air	-11838
▁GfK	-11839
▁Hav	-11840
▁NON	-11841
▁Non	-11842
▁Pen	-11843
▁Saf	-11844
▁Sea	-11845
▁air	-11846
▁cig	-11847
▁gla	-11848
▁las	-11849
▁nat	-11850
▁ram	-11851
▁ric	-11852
▁roy	-11853
▁tub	-11854
▁€."	-11855
ALEUR	-11856
abats	-11857
abatt	-11858
aries	-11859
bourg	-11860
encia	-11861
entôt	-11862
gions	-11863
ident	-11864
ients	-11865
itale	-11866
joter	-11867
mbler	-11868
ovine	-11869
rages	-11870
tiens	-11871
téroï	-11872
▁(33)	-11873
▁(800	-11874
▁1100	-11875
▁Bank	-11876
▁CONC	-11877
▁Coll	-11878
▁Hall	-11879
▁Hill	-11880
▁Laos	-11881
▁Mass	-11882
▁Nova	-11883
▁Prof	-11884
▁Quar	-11885
▁Stor	-11886
▁Viêt	-11887
▁aver	-11888
▁baby	-11889
▁déla	-11890
▁expl	-11891
▁fant	-11892
▁mill	-11893
▁ndca	-11894
▁para	-11895
▁pomm	-11896
▁pond	-11897
▁prou	-11898
▁renv	-11899
▁sovi	-11900
-02/07	-11901
Nombre	-11902
Sweets	-11903
Tobago	-11904
agisse	-11905
alisco	-11906
angers	-11907
aucune	-11908
chauff	-11909
cients	-11910
deline	-11911
ensité	-11912
gation	-11913
issage	-11914
lettes	-11915
parole	-11916
trasse	-11917
▁(450)	-11918
▁Améli	-11919
▁Avril	-11920
▁CONDI	-11921
▁ENTRE	-11922
▁FRAIS	-11923
▁Jaune	-11924
▁Kuala	-11925
▁NOUVE	-11926
▁Niger	-11927
▁Rouge	-11928
▁Saoud	-11929
▁autos	-11930
▁bases	-11931
▁biodi	-11932
▁coeur	-11933
▁creux	-11934
▁créée	-11935
▁enrob	-11936
▁forts	-11937
▁forêt	-11938
▁fumés	-11939
▁gagne	-11940
▁garan	-11941
▁idées	-11942
▁jouer	-11943
▁jugés	-11944
▁kilos	-11945
▁mater	-11946
▁motiv	-11947
▁métal	-11948
▁tunis	-11949
▁venus	-11950
▁égale	-11951
DUSTRIE	-11952
ataires	-11953
llement	-11954
oignent	-11955
profile	-11956
quereau	-11957
ruption	-11958
stacles	-11959
▁Agents	-11960
▁Annuel	-11961
▁Aucune	-11962
▁DÉTAIL	-11963
▁Invest	-11964
▁NATION	-11965
▁Reeves	-11966
▁Scotia	-11967
▁VALEUR	-11968
▁absorb	-11969
▁accrus	-11970
▁attend	-11971
▁cancer	-11972
▁citons	-11973
▁devoir	-11974
▁financ	-11975
▁firmes	-11976
▁fondés	-11977
▁grasse	-11978
▁hachée	-11979
▁listes	-11980
▁maigre	-11981
▁menace	-11982
▁option	-11983
▁poires	-11984
▁rappro	-11985
▁rurale	-11986
▁rémuné	-11987
▁séjour	-11988
▁touché	-11989
▁whisky	-11990
▁énergé	-11991
Toujours	-11992
ancienne	-11993
arration	-11994
férences	-11995
isations	-11996
élandais	-11997
▁America	-11998
▁Control	-11999
▁DISTRIB	-12000
▁Exports	-12001
▁Islande	-12002
▁Mission	-12003
▁Nielsen	-12004
▁anticip	-12005
▁appuyer	-12006
▁assisté	-12007
▁bientôt	-12008
▁chaleur	-12009
▁command	-12010
▁commerç	-12011
▁compote	-12012
▁diabète	-12013
▁entrées	-12014
▁favoris	-12015
▁goberge	-12016
▁limités	-12017
▁mijoter	-12018
▁plaines	-12019
▁produis	-12020
▁profils	-12021
▁proposé	-12022
▁sockeye	-12023
▁spectac	-12024
▁surplus	-12025
▁suscité	-12026
▁théorie	-12027
▁tourner	-12028
▁tranche	-12029
▁étroits	-12030
Certaines	-12031
abondance	-12032
incidence	-12033
partition	-12034
▁Consumer	-12035
▁Position	-12036
▁Prairies	-12037
▁accorder	-12038
▁adoptées	-12039
▁blanches	-12040
▁changent	-12041
▁concepts	-12042
▁confront	-12043
▁courrier	-12044
▁crevette	-12045
▁dommages	-12046
▁déclarée	-12047
▁décrites	-12048
▁démontre	-12049
▁exprimée	-12050
▁intitulé	-12051
▁marinade	-12052
▁marquées	-12053
▁maturité	-12054
▁reconnus	-12055
▁ressorti	-12056
▁saucisse	-12057
▁souligne	-12058
▁touchent	-12059
appliquant	-12060
engagement	-12061
expiration	-12062
extraction	-12063
▁Fondation	-12064
▁Monterrey	-12065
▁Tradeline	-12066
▁affichant	-12067
▁appareils	-12068
▁campagnes	-12069
▁conservés	-12070
▁conteneur	-12071
▁dangereux	-12072
▁décideurs	-12073
▁dépassant	-12074
▁dépassent	-12075
▁excessive	-12076
▁grossière	-12077
▁inconsomm	-12078
▁intéressé	-12079
▁nettoyage	-12080
▁parasites	-12081
▁répondant	-12082
▁résidents	-12083
▁satisfont	-12084
▁tradition	-12085
▁véritable	-12086
▁équitable	-12087
▁Copenhague	-12088
▁Restaurant	-12089
▁acceptable	-12090
▁aquatiques	-12091
▁collective	-12092
▁comestible	-12093
▁concernent	-12094
▁convention	-12095
▁discussion	-12096
▁immigrants	-12097
▁instantané	-12098
▁intérieurs	-12099
▁mentionner	-12100
▁particules	-12101
▁philippine	-12102
▁pâtisserie	-12103
▁retrouvent	-12104
▁récipients	-12105
▁répertoire	-12106
▁répondants	-12107
▁spécialise	-12108
▁surveiller	-12109
enseignement	-12110
implantation	-12111
▁Directement	-12112
▁cholestérol	-12113
▁composaient	-12114
▁engagements	-12115
▁généralisée	-12116
▁mentionnées	-12117
▁philippines	-12118
▁raisonnable	-12119
▁travaillant	-12120
Contrairement	-12121
▁fondamentale	-12122
▁individuelle	-12123
▁investissent	-12124
▁parfaitement	-12125
▁préemballées	-12126
▁regroupement	-12127
▁totalisaient	-12128
▁énergétiques	-12129
accompagnement	-12130
▁dénominations	-12131
▁gestionnaires	-12132
▁organisateurs	-12133
▁propriétaires	-12134
▁préliminaires	-12135
investissements	-12136
▁additionnelles	-12137
▁identificateur	-12138
▁ÉvolutionImages	-12139
3.	-12140
78	-12141
=1	-12142
DÉ	-12143
ET	-12144
GN	-12145
Iv	-12146
Ma	-12147
OY	-12148
PM	-12149
ST	-12150
Te	-12151
UA	-12152
])	-12153
aq	-12154
fl	-12155
ju	-12156
mr	-12157
tw	-12158
ño	-12159
(3)	-12160
-28	-12161
/10	-12162
/43	-12163
1,6	-12164
3-3	-12165
693	-12166
AND	-12167
ARD	-12168
Bio	-12169
CAF	-12170
CAR	-12171
DRI	-12172
ECA	-12173
OMM	-12174
ORD	-12175
Qui	-12176
Sol	-12177
Vin	-12178
adh	-12179
bis	-12180
bri	-12181
enn	-12182
izz	-12183
kan	-12184
lac	-12185
mec	-12186
ony	-12187
thi	-12188
tto	-12189
vue	-12190
web	-12191
ÉDI	-12192
▁"6	-12193
▁+3	-12194
▁0.	-12195
▁09	-12196
▁5,	-12197
▁7,	-12198
▁8.	-12199
▁Cy	-12200
▁Kh	-12201
▁Op	-12202
▁Qc	-12203
▁sh	-12204
▁ur	-12205
-332	-12206
ACCP	-12207
ANCE	-12208
Cinq	-12209
DRID	-12210
OLOG	-12211
Sous	-12212
acas	-12213
alud	-12214
andy	-12215
anka	-12216
août	-12217
aseo	-12218
aspx	-12219
atis	-12220
breu	-12221
brés	-12222
cole	-12223
cton	-12224
cées	-12225
east	-12226
etts	-12227
glom	-12228
gypt	-12229
heim	-12230
idad	-12231
idon	-12232
igle	-12233
link	-12234
mand	-12235
mane	-12236
mins	-12237
obre	-12238
oids	-12239
otta	-12240
ount	-12241
ract	-12242
rion	-12243
sauf	-12244
ulat	-12245
ulse	-12246
umin	-12247
well	-12248
ypre	-12249
ésel	-12250
▁103	-12251
▁108	-12252
▁170	-12253
▁172	-12254
▁5,6	-12255
▁59,	-12256
▁7,2	-12257
▁7,6	-12258
▁79/	-12259
▁8,5	-12260
▁AUX	-12261
▁Bol	-12262
▁COÛ	-12263
▁DCV	-12264
▁FIN	-12265
▁Hom	-12266
▁Inf	-12267
▁Inu	-12268
▁Joh	-12269
▁MAP	-12270
▁Nov	-12271
▁RÉS	-12272
▁Sub	-12273
▁Syl	-12274
▁Thé	-12275
▁Way	-12276
▁cib	-12277
▁dor	-12278
▁esc	-12279
▁flé	-12280
▁hui	-12281
▁ign	-12282
▁typ	-12283
▁vul	-12284
ACION	-12285
OUVER	-12286
aders	-12287
ambie	-12288
avons	-12289
avril	-12290
azakh	-12291
ectes	-12292
estim	-12293
inson	-12294
itera	-12295
itzer	-12296
outre	-12297
produ	-12298
roits	-12299
▁1)."	-12300
▁1000	-12301
▁2800	-12302
▁Beef	-12303
▁Blue	-12304
▁Bond	-12305
▁Chef	-12306
▁Coup	-12307
▁Coût	-12308
▁Fort	-12309
▁Line	-12310
▁Mart	-12311
▁Paul	-12312
▁Sans	-12313
▁cade	-12314
▁conv	-12315
▁exis	-12316
▁flux	-12317
▁food	-12318
▁grav	-12319
▁géla	-12320
▁iden	-12321
▁nuis	-12322
▁prud	-12323
▁père	-12324
▁race	-12325
▁rose	-12326
▁sulf	-12327
▁égal	-12328
Market	-12329
accise	-12330
alotes	-12331
aspect	-12332
ercial	-12333
france	-12334
gueule	-12335
idémie	-12336
instar	-12337
ipping	-12338
ispens	-12339
nicien	-12340
ocolat	-12341
organe	-12342
orique	-12343
quérir	-12344
region	-12345
ronter	-12346
région	-12347
ulsion	-12348
▁(800)	-12349
▁1998.	-12350
▁ATTEN	-12351
▁Algon	-12352
▁Board	-12353
▁Coupe	-12354
▁Daily	-12355
▁Etats	-12356
▁Ingre	-12357
▁Initi	-12358
▁Korea	-12359
▁Luçon	-12360
▁Parmi	-12361
▁Paseo	-12362
▁Plaza	-12363
▁Stock	-12364
▁TRANS	-12365
▁VENTE	-12366
▁affér	-12367
▁amorc	-12368
▁avois	-12369
▁bacon	-12370
▁belge	-12371
▁boire	-12372
▁canal	-12373
▁chlor	-12374
▁clair	-12375
▁clubs	-12376
▁détri	-12377
▁exigé	-12378
▁foule	-12379
▁lenti	-12380
▁litre	-12381
▁léger	-12382
▁mensu	-12383
▁moule	-12384
▁oméga	-12385
▁press	-12386
▁proje	-12387
▁précé	-12388
▁préfé	-12389
▁pélag	-12390
▁pério	-12391
▁ratta	-12392
▁tente	-12393
▁voire	-12394
▁âgées	-12395
▁émise	-12396
Country	-12397
Données	-12398
Rapport	-12399
engager	-12400
entiels	-12401
eraient	-12402
espèces	-12403
feuille	-12404
oixante	-12405
seafood	-12406
tatives	-12407
tements	-12408
ulgarie	-12409
élevant	-12410
▁(011-9	-12411
▁AUTRES	-12412
▁Bosnie	-12413
▁Chypre	-12414
▁Copper	-12415
▁Gordon	-12416
▁Guelph	-12417
▁Lumpur	-12418
▁Partie	-12419
▁Serbie	-12420
▁Sydney	-12421
▁affili	-12422
▁attire	-12423
▁bateau	-12424
▁champs	-12425
▁diffus	-12426
▁diverg	-12427
▁exerce	-12428
▁exercé	-12429
▁exposé	-12430
▁fraise	-12431
▁guides	-12432
▁incont	-12433
▁logici	-12434
▁mènent	-12435
▁médioc	-12436
▁nébule	-12437
▁orange	-12438
▁plaque	-12439
▁quinze	-12440
▁reculé	-12441
▁renomm	-12442
▁tenant	-12443
▁vaccin	-12444
Pourtant	-12445
commerce	-12446
economia	-12447
expédier	-12448
incluant	-12449
Équateur	-12450
▁(52-33)	-12451
▁Cargill	-12452
▁Cherche	-12453
▁Complex	-12454
▁Fishery	-12455
▁Fromage	-12456
▁Gourmet	-12457
▁Growers	-12458
▁Hamburg	-12459
▁Israeli	-12460
▁Jalisco	-12461
▁Mexican	-12462
▁Sylvain	-12463
▁Viandes	-12464
▁abattus	-12465
▁amateur	-12466
▁chargés	-12467
▁classes	-12468
▁comités	-12469
▁compare	-12470
▁croient	-12471
▁doubler	-12472
▁dépensé	-12473
▁désigné	-12474
▁détenir	-12475
▁envoyer	-12476
▁espaces	-12477
▁fraises	-12478
▁générer	-12479
▁heureux	-12480
▁incombe	-12481
▁ketchup	-12482
▁livrent	-12483
▁multila	-12484
▁médicin	-12485
▁nectars	-12486
▁notable	-12487
▁organes	-12488
▁plaisir	-12489
▁procure	-12490
▁profond	-12491
▁prépond	-12492
▁rapides	-12493
▁saurait	-12494
▁soutenu	-12495
▁séances	-12496
▁trimest	-12497
▁énergis	-12498
▁évalués	-12499
ARMATEURS	-12500
Débouchés	-12501
attendent	-12502
azakhstan	-12503
envergure	-12504
exclusion	-12505
implanter	-12506
intéresse	-12507
▁Commerci	-12508
▁Facteurs	-12509
▁Ministre	-12510
▁Plaskett	-12511
▁Shipping	-12512
▁adhésion	-12513
▁arrondie	-12514
▁associée	-12515
▁certifié	-12516
▁circonst	-12517
▁conservé	-12518
▁cubaines	-12519
▁dominées	-12520
▁empêcher	-12521
▁exercent	-12522
▁finances	-12523
▁fixation	-12524
▁huitième	-12525
▁inconnue	-12526
▁influenc	-12527
▁lentille	-12528
▁occupant	-12529
▁porcines	-12530
▁pourtant	-12531
▁religion	-12532
▁remettre	-12533
▁remorque	-12534
▁reporter	-12535
▁révèlent	-12536
▁signaler	-12537
▁soutient	-12538
apparition	-12539
industries	-12540
▁Algonquin	-12541
▁Livestock	-12542
▁NATIONALE	-12543
▁Structure	-12544
▁accélérer	-12545
▁affichent	-12546
▁bouteille	-12547
▁centrales	-12548
▁charcuter	-12549
▁dimension	-12550
▁distances	-12551
▁détriment	-12552
▁entrevues	-12553
▁graphique	-12554
▁intention	-12555
▁ministres	-12556
▁minérales	-12557
▁musulmane	-12558
▁organisée	-12559
▁proposent	-12560
▁prospères	-12561
▁qualifiés	-12562
▁reflètent	-12563
▁remarquer	-12564
▁ressortir	-12565
▁réalisent	-12566
▁suffisant	-12567
▁échantill	-12568
▁Angleterre	-12569
▁Luxembourg	-12570
▁Philippine	-12571
▁Washington	-12572
▁applicable	-12573
▁appliquées	-12574
▁australien	-12575
▁canneberge	-12576
▁comportent	-12577
▁dirigeants	-12578
▁désireuses	-12579
▁détaillées	-12580
▁exploitent	-12581
▁exploitées	-12582
▁familiales	-12583
▁garnitures	-12584
▁kilogramme	-12585
▁moderniser	-12586
▁organisées	-12587
▁recueillir	-12588
▁références	-12589
▁réseautage	-12590
▁satisfaits	-12591
▁secrétaire	-12592
▁suffisante	-12593
▁terrestres	-12594
▁traditions	-12595
▁Coopération	-12596
▁appropriées	-12597
▁combinaison	-12598
▁concentrent	-12599
▁constituant	-12600
▁consécutive	-12601
▁contraction	-12602
▁emplacement	-12603
▁exemplaires	-12604
▁intégration	-12605
▁intérieures	-12606
▁scandinaves	-12607
▁spécialiste	-12608
▁transformer	-12609
▁transmettre	-12610
_____________	-12611
engraissement	-12612
▁augmenteront	-12613
▁constituants	-12614
▁décortiquées	-12615
▁initialement	-12616
▁installation	-12617
▁prioritaires	-12618
▁provinciales	-12619
▁précédemment	-12620
▁réalisations	-12621
▁sensibiliser	-12622
▁administratif	-12623
▁commercialise	-12624
▁diplomatiques	-12625
▁démonstration	-12626
▁méditerranéen	-12627
▁présentations	-12628
▁reconnaissent	-12629
▁réexportation	-12630
▁communautaires	-12631
▁interstellaire	-12632
▁officiellement	-12633
▁renouvellement	-12634
▁transformateur	-12635
▁éventuellement	-12636
▁assaisonnements	-12637
▁professionnelle	-12638
▁promotionnelles	-12639
$,	-12640
58	-12641
LÉ	-12642
Mc	-12643
Ni	-12644
Pe	-12645
].	-12646
ku	-12647
mc	-12648
my	-12649
nz	-12650
sk	-12651
sw	-12652
vd	-12653
vu	-12654
▁⇒	-12655
,0%	-12656
-04	-12657
-08	-12658
-40	-12659
.01	-12660
1-3	-12661
11)	-12662
6-4	-12663
80)	-12664
96/	-12665
Bel	-12666
IEU	-12667
LEA	-12668
New	-12669
OCU	-12670
PEC	-12671
Roy	-12672
Sau	-12673
TMM	-12674
dev	-12675
jas	-12676
kar	-12677
lif	-12678
lux	-12679
oug	-12680
see	-12681
the	-12682
éth	-12683
▁"9	-12684
▁4%	-12685
▁5)	-12686
▁AM	-12687
▁Az	-12688
▁Et	-12689
▁Ko	-12690
▁Ye	-12691
▁ge	-12692
Géné	-12693
Près	-12694
URCE	-12695
agar	-12696
amél	-12697
ardi	-12698
ardo	-12699
bour	-12700
chno	-12701
deal	-12702
edro	-12703
eufs	-12704
fait	-12705
fiam	-12706
grés	-12707
géri	-12708
heet	-12709
hews	-12710
hors	-12711
icon	-12712
iden	-12713
ilos	-12714
inet	-12715
ingo	-12716
kets	-12717
lang	-12718
lues	-12719
mant	-12720
mini	-12721
otés	-12722
oyez	-12723
page	-12724
pain	-12725
pean	-12726
ptel	-12727
réqu	-12728
tain	-12729
tech	-12730
tile	-12731
tini	-12732
troi	-12733
unch	-12734
urés	-12735
uves	-12736
vaux	-12737
èses	-12738
éria	-12739
▁(3)	-12740
▁106	-12741
▁107	-12742
▁117	-12743
▁119	-12744
▁128	-12745
▁165	-12746
▁186	-12747
▁430	-12748
▁560	-12749
▁650	-12750
▁675	-12751
▁70,	-12752
▁725	-12753
▁759	-12754
▁76/	-12755
▁9,8	-12756
▁BRL	-12757
▁Bhd	-12758
▁Gla	-12759
▁Hen	-12760
▁Kel	-12761
▁McD	-12762
▁Pet	-12763
▁Pon	-12764
▁Pre	-12765
▁Ram	-12766
▁Riv	-12767
▁Rod	-12768
▁SUD	-12769
▁Sri	-12770
▁Stu	-12771
▁ais	-12772
▁alé	-12773
▁dat	-12774
▁dév	-12775
▁etr	-12776
▁nui	-12777
▁pom	-12778
▁réd	-12779
▁sév	-12780
▁tis	-12781
/2002	-12782
4-11)	-12783
ALECI	-12784
accro	-12785
amily	-12786
andro	-12787
attre	-12788
boire	-12789
cider	-12790
drait	-12791
envoi	-12792
inqui	-12793
ituan	-12794
japan	-12795
lusiv	-12796
monie	-12797
mosph	-12798
oblig	-12799
oppos	-12800
oulez	-12801
étape	-12802
▁$)."	-12803
▁1981	-12804
▁1987	-12805
▁Beau	-12806
▁Boul	-12807
▁CENT	-12808
▁Coca	-12809
▁DATE	-12810
▁DOCU	-12811
▁FORM	-12812
▁Huaz	-12813
▁Hôte	-12814
▁Kiev	-12815
▁Life	-12816
▁Long	-12817
▁Mise	-12818
▁Mosc	-12819
▁Noël	-12820
▁PROF	-12821
▁Unis	-12822
▁aidé	-12823
▁avoc	-12824
▁casé	-12825
▁cote	-12826
▁gazé	-12827
▁gran	-12828
▁ment	-12829
▁meur	-12830
▁mène	-12831
▁pizz	-12832
▁poiv	-12833
▁pron	-12834
▁rhum	-12835
▁réta	-12836
▁sang	-12837
▁tein	-12838
▁tiss	-12839
▁visa	-12840
▁voud	-12841
▁yeux	-12842
▁émin	-12843
Ivoire	-12844
TIQUES	-12845
agence	-12846
agents	-12847
agerie	-12848
akarta	-12849
appuie	-12850
diquez	-12851
hôtels	-12852
monton	-12853
ottawa	-12854
quêtes	-12855
telier	-12856
équili	-12857
érapeu	-12858
▁(519)	-12859
▁(780)	-12860
▁(905)	-12861
▁1970,	-12862
▁2015,	-12863
▁Andre	-12864
▁Brief	-12865
▁Cadre	-12866
▁DÉNOM	-12867
▁Exper	-12868
▁Fourn	-12869
▁Hanoï	-12870
▁Kenya	-12871
▁Lanka	-12872
▁MAECI	-12873
▁Norte	-12874
▁Queen	-12875
▁Reine	-12876
▁RÉFÉR	-12877
▁Times	-12878
▁basse	-12879
▁broch	-12880
▁cfiam	-12881
▁crist	-12882
▁dotée	-12883
▁filet	-12884
▁gelée	-12885
▁honor	-12886
▁pense	-12887
▁reflé	-12888
▁robus	-12889
▁route	-12890
▁seuil	-12891
▁socio	-12892
▁systé	-12893
▁tardi	-12894
▁écart	-12895
▁évisc	-12896
Nouveau	-12897
TIVITÉS	-12898
accorde	-12899
amadrid	-12900
attrait	-12901
chement	-12902
experts	-12903
igation	-12904
olitres	-12905
olument	-12906
onsieur	-12907
princip	-12908
urgence	-12909
égovine	-12910
étaient	-12911
▁Faites	-12912
▁Howard	-12913
▁Newton	-12914
▁Online	-12915
▁Raison	-12916
▁SPÉCIF	-12917
▁Verser	-12918
▁Virgin	-12919
▁accent	-12920
▁aident	-12921
▁aspect	-12922
▁avancé	-12923
▁couvre	-12924
▁degrés	-12925
▁espèce	-12926
▁fiscal	-12927
▁fruiti	-12928
▁hypoth	-12929
▁impact	-12930
▁lituan	-12931
▁marins	-12932
▁mélang	-12933
▁nuages	-12934
▁parler	-12935
▁perdre	-12936
▁piscic	-12937
▁porcin	-12938
▁postal	-12939
▁préval	-12940
▁prévoy	-12941
▁remont	-12942
▁répand	-12943
▁réunit	-12944
▁stades	-12945
▁suppos	-12946
▁valoir	-12947
▁venait	-12948
▁voulez	-12949
▁élargi	-12950
▁évalue	-12951
ANCOUVER	-12952
adrement	-12953
distribu	-12954
factbook	-12955
industry	-12956
térieurs	-12957
ènements	-12958
▁(49-30)	-12959
▁(54-11)	-12960
▁(972-4)	-12961
▁ACTEURS	-12962
▁Austria	-12963
▁Interna	-12964
▁Spatial	-12965
▁Western	-12966
▁atmosph	-12967
▁cadeaux	-12968
▁carbone	-12969
▁comètes	-12970
▁donnera	-12971
▁défavor	-12972
▁définis	-12973
▁engagés	-12974
▁marinés	-12975
▁offrira	-12976
▁options	-12977
▁prépare	-12978
▁publiée	-12979
▁suivies	-12980
▁surpass	-12981
▁urbaine	-12982
▁vaccins	-12983
▁variant	-12984
▁vulnéra	-12985
▁énergie	-12986
▁évident	-12987
Singapour	-12988
Tendances	-12989
avantages	-12990
entrepôts	-12991
élicieuse	-12992
▁Biscuits	-12993
▁DISTRIBU	-12994
▁Finances	-12995
▁Fontaine	-12996
▁Huazhong	-12997
▁Malaysia	-12998
▁Mexicana	-12999
▁Packaged	-13000
▁SECTEURS	-13001
▁adéquate	-13002
▁afficher	-13003
▁amélioré	-13004
▁assurent	-13005
▁attribué	-13006
▁carrière	-13007
▁communes	-13008
▁conseill	-13009
▁continué	-13010
▁couvrent	-13011
▁cultivée	-13012
▁demeurée	-13013
▁désignés	-13014
▁existant	-13015
▁expliqué	-13016
▁exposant	-13017
▁faudrait	-13018
▁financer	-13019
▁gélatine	-13020
▁génèrent	-13021
▁hormones	-13022
▁identifi	-13023
▁illustre	-13024
▁location	-13025
▁logement	-13026
▁musulman	-13027
▁obtenues	-13028
▁permises	-13029
▁proposer	-13030
▁publiées	-13031
▁rapporte	-13032
▁registre	-13033
▁ressembl	-13034
▁restants	-13035
▁répartis	-13036
▁sardines	-13037
▁solaires	-13038
▁sûrement	-13039
▁traitées	-13040
▁variable	-13041
▁venaient	-13042
▁Équateur	-13043
Fédération	-13044
inspecteur	-13045
pâtisserie	-13046
économique	-13047
▁DÉBOUCHÉS	-13048
▁Frederick	-13049
▁Narration	-13050
▁Pratiques	-13051
▁Télescope	-13052
▁Vénézuéli	-13053
▁administr	-13054
▁affronter	-13055
▁autonomes	-13056
▁barrières	-13057
▁contacter	-13058
▁douzaines	-13059
▁démarrage	-13060
▁exclusive	-13061
▁fréquents	-13062
▁indispens	-13063
▁intitulée	-13064
▁islamique	-13065
▁maximiser	-13066
▁mécanisme	-13067
▁médicales	-13068
▁officiels	-13069
▁ordinaire	-13070
▁positions	-13071
▁poursuite	-13072
▁préserver	-13073
▁qualifiée	-13074
▁refroidir	-13075
▁résultant	-13076
▁superfici	-13077
▁territori	-13078
▁unitaires	-13079
▁viabilité	-13080
LEMENTATION	-13081
▁(011-84-4)	-13082
▁Australian	-13083
▁Kazakhstan	-13084
▁Processing	-13085
▁adaptative	-13086
▁ambassades	-13087
▁atteignait	-13088
▁atteignent	-13089
▁budgétaire	-13090
▁bénéfiques	-13091
▁cfiamaster	-13092
▁comparable	-13093
▁craquelins	-13094
▁différends	-13095
▁différente	-13096
▁dynamiques	-13097
▁exactement	-13098
▁expliquent	-13099
▁médicament	-13100
▁nutriments	-13101
▁provisoire	-13102
▁présentera	-13103
▁rigoureuse	-13104
▁temporaire	-13105
hypermarchés	-13106
▁Ingredients	-13107
▁Supermarket	-13108
▁approfondie	-13109
▁consultatif	-13110
▁contribuant	-13111
▁conviennent	-13112
▁crédibilité	-13113
▁manufacturi	-13114
▁prometteurs	-13115
▁restreindre	-13116
▁écologiques	-13117
▁établissant	-13118
▁établissent	-13119
astrophysique	-13120
▁EXPORTATIONS	-13121
▁Perspectives	-13122
▁Vénézuéliens	-13123
▁applications	-13124
▁comportement	-13125
▁concurrencer	-13126
▁conditionnés	-13127
▁constitution	-13128
▁démocratique	-13129
▁familiariser	-13130
▁gestionnaire	-13131
▁intéressante	-13132
▁manufacturés	-13133
▁personnelles	-13134
▁portefeuille	-13135
▁transgénique	-13136
▁PARTICIPATION	-13137
▁Singapouriens	-13138
▁hebdomadaires	-13139
▁intermédiaire	-13140
▁spectroscopie	-13141
▁stabilisation	-13142
▁Pharmaceutical	-13143
▁développements	-13144
▁gouvernemental	-13145
▁approvisionnent	-13146
**	-13147
39	-13148
Be	-13149
Bi	-13150
EU	-13151
PD	-13152
▁|	-13153
-36	-13154
-64	-13155
-70	-13156
-72	-13157
1,1	-13158
1,7	-13159
1-2	-13160
1-8	-13161
590	-13162
Cha	-13163
DEX	-13164
GAN	-13165
LAC	-13166
Ltd	-13167
TRO	-13168
UMÉ	-13169
aba	-13170
aft	-13171
ams	-13172
aïs	-13173
cfe	-13174
cía	-13175
fur	-13176
hom	-13177
hyd	-13178
inn	-13179
kin	-13180
lip	-13181
mez	-13182
nat	-13183
ols	-13184
sen	-13185
tee	-13186
uck	-13187
▁%"	-13188
▁7.	-13189
▁Gi	-13190
▁Rh	-13191
▁Ul	-13192
▁by	-13193
▁it	-13194
▁oC	-13195
▁rc	-13196
▁râ	-13197
----	-13198
-819	-13199
11-1	-13200
ANTI	-13201
ATÉG	-13202
COAI	-13203
Cent	-13204
Cola	-13205
Herz	-13206
INES	-13207
Prix	-13208
UITS	-13209
Vari	-13210
amén	-13211
ases	-13212
ceau	-13213
cfea	-13214
cida	-13215
erts	-13216
geos	-13217
hern	-13218
hill	-13219
icas	-13220
irdf	-13221
issa	-13222
jiko	-13223
mall	-13224
oday	-13225
oice	-13226
ombo	-13227
onge	-13228
ound	-13229
ower	-13230
pers	-13231
reïn	-13232
rias	-13233
rine	-13234
rose	-13235
sium	-13236
tina	-13237
ulti	-13238
vens	-13239
vert	-13240
yles	-13241
épal	-13242
▁+49	-13243
▁1.4	-13244
▁109	-13245
▁112	-13246
▁114	-13247
▁315	-13248
▁325	-13249
▁432	-13250
▁562	-13251
▁572	-13252
▁6,9	-13253
▁727	-13254
▁8,4	-13255
▁885	-13256
▁94/	-13257
▁Ang	-13258
▁Aux	-13259
▁FOB	-13260
▁Fai	-13261
▁HAL	-13262
▁Lor	-13263
▁Mid	-13264
▁Mus	-13265
▁Nag	-13266
▁SOU	-13267
▁Sdn	-13268
▁Sto	-13269
▁Tim	-13270
▁cab	-13271
▁dra	-13272
▁nan	-13273
▁pil	-13274
▁top	-13275
▁uns	-13276
▁édu	-13277
-2000	-13278
-2004	-13279
-2500	-13280
Accès	-13281
Adobe	-13282
Asoci	-13283
Celui	-13284
Chili	-13285
Hawaï	-13286
Japon	-13287
Produ	-13288
Trans	-13289
Trois	-13290
acent	-13291
achus	-13292
autos	-13293
cents	-13294
cunes	-13295
erson	-13296
idora	-13297
ignes	-13298
islam	-13299
minés	-13300
moine	-13301
nante	-13302
ointe	-13303
ophis	-13304
seurs	-13305
trons	-13306
ublié	-13307
union	-13308
émerg	-13309
érons	-13310
▁(100	-13311
▁1.4,	-13312
▁17,5	-13313
▁2)."	-13314
▁Expl	-13315
▁Fact	-13316
▁Fili	-13317
▁Ital	-13318
▁Kent	-13319
▁Leur	-13320
▁Luis	-13321
▁Mong	-13322
▁Rewe	-13323
▁Trop	-13324
▁agir	-13325
▁baie	-13326
▁biom	-13327
▁bloc	-13328
▁bras	-13329
▁bébé	-13330
▁croy	-13331
▁doux	-13332
▁enzy	-13333
▁impu	-13334
▁isol	-13335
▁lent	-13336
▁mini	-13337
▁rigi	-13338
▁séri	-13339
▁tomb	-13340
▁vola	-13341
▁vrai	-13342
▁étal	-13343
Autres	-13344
Volume	-13345
assume	-13346
ciales	-13347
effort	-13348
ervais	-13349
illent	-13350
istrer	-13351
jandro	-13352
outils	-13353
ticals	-13354
élever	-13355
▁1997.	-13356
▁2003"	-13357
▁944-6	-13358
▁Bière	-13359
▁Boeuf	-13360
▁Chris	-13361
▁Cuire	-13362
▁Españ	-13363
▁Fruit	-13364
▁Fréqu	-13365
▁Grâce	-13366
▁Haïti	-13367
▁Label	-13368
▁Népal	-13369
▁Pedro	-13370
▁Price	-13371
▁Pêche	-13372
▁Sucre	-13373
▁accap	-13374
▁attra	-13375
▁démén	-13376
▁expon	-13377
▁foies	-13378
▁fonde	-13379
▁fondu	-13380
▁gérés	-13381
▁impli	-13382
▁incap	-13383
▁liban	-13384
▁limit	-13385
▁major	-13386
▁molle	-13387
▁motif	-13388
▁nuits	-13389
▁ouest	-13390
▁pâtur	-13391
▁radic	-13392
▁rendu	-13393
▁repli	-13394
▁récep	-13395
▁satur	-13396
▁tarte	-13397
▁vague	-13398
▁varié	-13399
▁verte	-13400
▁équip	-13401
▁équiv	-13402
Secteur	-13403
URRENCE	-13404
alettes	-13405
america	-13406
arettes	-13407
cédents	-13408
hésitez	-13409
illages	-13410
inscrit	-13411
instant	-13412
oliques	-13413
orption	-13414
ricains	-13415
surtout	-13416
tassium	-13417
tiendra	-13418
élèvent	-13419
énormes	-13420
étendre	-13421
▁Bundes	-13422
▁FRUITS	-13423
▁Garçon	-13424
▁Joseph	-13425
▁Migros	-13426
▁PRODUC	-13427
▁Salade	-13428
▁Servir	-13429
▁Weston	-13430
▁acteur	-13431
▁amener	-13432
▁arbres	-13433
▁cassés	-13434
▁cheval	-13435
▁dehors	-13436
▁discré	-13437
▁entité	-13438
▁forêts	-13439
▁géants	-13440
▁humain	-13441
▁hébreu	-13442
▁invité	-13443
▁irradi	-13444
▁lancée	-13445
▁levure	-13446
▁mixtes	-13447
▁médian	-13448
▁normal	-13449
▁oignon	-13450
▁parfum	-13451
▁plante	-13452
▁postes	-13453
▁promul	-13454
▁pureté	-13455
▁relief	-13456
▁rédigé	-13457
▁signes	-13458
▁situer	-13459
▁sophis	-13460
▁stands	-13461
▁triplé	-13462
▁vulgar	-13463
▁épaiss	-13464
Internet	-13465
Manitoba	-13466
adresser	-13467
cubation	-13468
excédant	-13469
ignature	-13470
métiques	-13471
tisation	-13472
uestions	-13473
visibles	-13474
éléments	-13475
▁Bahamas	-13476
▁Bahreïn	-13477
▁Bangkok	-13478
▁BioFach	-13479
▁Colombo	-13480
▁Congrès	-13481
▁Culture	-13482
▁Gestion	-13483
▁Imports	-13484
▁Prairie	-13485
▁Presque	-13486
▁adapter	-13487
▁anciens	-13488
▁apposée	-13489
▁arrivée	-13490
▁attirés	-13491
▁billion	-13492
▁caisses	-13493
▁chambre	-13494
▁concert	-13495
▁convenu	-13496
▁dispara	-13497
▁définit	-13498
▁dépense	-13499
▁englobe	-13500
▁fidèles	-13501
▁influer	-13502
▁inscrit	-13503
▁intense	-13504
▁lacunes	-13505
▁maisons	-13506
▁montrer	-13507
▁négatif	-13508
▁obtenue	-13509
▁occuper	-13510
▁parents	-13511
▁retrait	-13512
▁résulte	-13513
▁saumure	-13514
▁signale	-13515
▁stipule	-13516
▁subséqu	-13517
▁surmont	-13518
▁symbole	-13519
▁teintée	-13520
▁tendent	-13521
▁énoncés	-13522
▁énormes	-13523
▁équilib	-13524
FORMATION	-13525
Situation	-13526
achusetts	-13527
atrimoine	-13528
dicateurs	-13529
exposants	-13530
formément	-13531
itzerland	-13532
oundation	-13533
émergence	-13534
▁Bulgarie	-13535
▁Director	-13536
▁Fillette	-13537
▁Haricots	-13538
▁Indiquez	-13539
▁Matthews	-13540
▁Michigan	-13541
▁Minister	-13542
▁Richmond	-13543
▁Shanghaï	-13544
▁acquérir	-13545
▁comparer	-13546
▁contenue	-13547
▁dialogue	-13548
▁discuter	-13549
▁estimées	-13550
▁formules	-13551
▁maximale	-13552
▁passable	-13553
▁précieux	-13554
▁ralentir	-13555
▁reposent	-13556
▁surgelée	-13557
▁tournent	-13558
▁transbor	-13559
▁uniforme	-13560
▁vieillit	-13561
▁élection	-13562
▁étroites	-13563
▁évoluent	-13564
Monténégro	-13565
allèlement	-13566
excellente	-13567
expéditeur	-13568
initiative	-13569
▁_________	-13570
▁appliquer	-13571
▁appliquée	-13572
▁astronome	-13573
▁autoriser	-13574
▁biodiésel	-13575
▁boucherie	-13576
▁croissent	-13577
▁culturels	-13578
▁demeurées	-13579
▁densément	-13580
▁diffusion	-13581
▁découlent	-13582
▁employées	-13583
▁envisager	-13584
▁fractions	-13585
▁framboise	-13586
▁fédérales	-13587
▁invisible	-13588
▁italienne	-13589
▁maquereau	-13590
▁marchands	-13591
▁neutrinos	-13592
▁portugais	-13593
▁possédant	-13594
▁prospérer	-13595
▁protégées	-13596
▁précieuse	-13597
▁prévision	-13598
▁réservées	-13599
▁troupeaux	-13600
Concurrents	-13601
▁Brésiliens	-13602
▁CONDITIONS	-13603
▁Changement	-13604
▁Conference	-13605
▁Entreprise	-13606
▁Management	-13607
▁Méditerran	-13608
▁Prévisions	-13609
▁Superficie	-13610
▁Territoire	-13611
▁absolument	-13612
▁améliorant	-13613
▁assurances	-13614
▁autosuffis	-13615
▁desservent	-13616
▁distinguer	-13617
▁expédition	-13618
▁françaises	-13619
▁innovation	-13620
▁perception	-13621
▁pertinente	-13622
▁portuaires	-13623
▁produisant	-13624
▁radiations	-13625
▁rechercher	-13626
▁réfrigérée	-13627
▁résistance	-13628
▁révolution	-13629
▁soviétique	-13630
▁transférer	-13631
agriculteurs	-13632
informations	-13633
informatique	-13634
insuffisance	-13635
parativement	-13636
▁Alimentaria	-13637
▁Foodservice	-13638
▁Pourcentage	-13639
▁accessoires	-13640
▁aromatisées	-13641
▁assaisonner	-13642
▁décroissant	-13643
▁désignation	-13644
▁fonctionner	-13645
▁franchisage	-13646
▁interactive	-13647
▁interprovin	-13648
▁médicinales	-13649
▁permettrait	-13650
▁permettront	-13651
▁personnelle	-13652
▁prélèvement	-13653
▁québécoises	-13654
▁réglementer	-13655
▁superficies	-13656
International	-13657
▁DÉNOMINATION	-13658
▁Supermarchés	-13659
▁amélioration	-13660
▁différencier	-13661
▁indépendante	-13662
▁nouvellement	-13663
▁sélectionnés	-13664
▁températures	-13665
Renseignements	-13666
autosuffisance	-13667
▁attentivement	-13668
▁contrairement	-13669
▁frigorifiques	-13670
▁reproducteurs	-13671
▁universitaire	-13672
▁fonctionnaires	-13673
▁spécifications	-13674
▁susmentionnées	-13675
):	-13676
69	-13677
Am	-13678
BA	-13679
Bo	-13680
VO	-13681
dc	-13682
dh	-13683
uy	-13684
ém	-13685
ür	-13686
-19	-13687
-69	-13688
-77	-13689
008	-13690
1-4	-13691
2),	-13692
966	-13693
AGR	-13694
ASA	-13695
BRL	-13696
ERM	-13697
ISM	-13698
OST	-13699
PIC	-13700
Peu	-13701
Reg	-13702
aco	-13703
aix	-13704
bou	-13705
dis	-13706
dix	-13707
dle	-13708
gat	-13709
gua	-13710
iel	-13711
liz	-13712
lut	-13713
mal	-13714
odo	-13715
olf	-13716
ool	-13717
reb	-13718
row	-13719
sal	-13720
ury	-13721
van	-13722
Évé	-13723
▁"◦	-13724
▁AD	-13725
▁CL	-13726
▁Jo	-13727
▁Ly	-13728
▁Pr	-13729
▁dî	-13730
▁sw	-13731
-01/	-13732
-335	-13733
.2.3	-13734
OGIS	-13735
Puis	-13736
TIEN	-13737
abon	-13738
abwe	-13739
ajou	-13740
anto	-13741
arro	-13742
athé	-13743
bien	-13744
cean	-13745
coût	-13746
desh	-13747
docs	-13748
esco	-13749
ford	-13750
gium	-13751
guci	-13752
head	-13753
hier	-13754
hire	-13755
inge	-13756
kiev	-13757
lait	-13758
mars	-13759
olie	-13760
olli	-13761
olus	-13762
ondu	-13763
onio	-13764
owan	-13765
prix	-13766
pron	-13767
ride	-13768
show	-13769
soit	-13770
ston	-13771
thur	-13772
tisé	-13773
êpes	-13774
▁"07	-13775
▁(2)	-13776
▁1.1	-13777
▁111	-13778
▁184	-13779
▁301	-13780
▁495	-13781
▁6.1	-13782
▁7,8	-13783
▁723	-13784
▁8,2	-13785
▁8,6	-13786
▁9,5	-13787
▁925	-13788
▁983	-13789
▁Ace	-13790
▁Agr	-13791
▁Emp	-13792
▁Eng	-13793
▁FDA	-13794
▁Fir	-13795
▁GÉN	-13796
▁INN	-13797
▁ISO	-13798
▁Jim	-13799
▁Kit	-13800
▁LIS	-13801
▁Lit	-13802
▁MIN	-13803
▁Mad	-13804
▁Oil	-13805
▁Pur	-13806
▁Ris	-13807
▁Rog	-13808
▁See	-13809
▁Sol	-13810
▁Sou	-13811
▁Sul	-13812
▁VUE	-13813
▁Viv	-13814
▁aud	-13815
▁fri	-13816
▁has	-13817
▁jum	-13818
▁lou	-13819
▁meu	-13820
▁oli	-13821
▁pen	-13822
▁pie	-13823
▁tap	-13824
▁tol	-13825
▁ÉTA	-13826
Franc	-13827
Guide	-13828
Semis	-13829
agara	-13830
apace	-13831
asins	-13832
autés	-13833
ayant	-13834
chons	-13835
coter	-13836
ditif	-13837
erner	-13838
ersey	-13839
galpa	-13840
glish	-13841
ience	-13842
iname	-13843
incer	-13844
ingre	-13845
ivant	-13846
neaux	-13847
oises	-13848
oques	-13849
orées	-13850
ouper	-13851
tesse	-13852
unité	-13853
venus	-13854
ÉSENT	-13855
▁12,8	-13856
▁14,5	-13857
▁1971	-13858
▁1976	-13859
▁Beng	-13860
▁Dong	-13861
▁Feed	-13862
▁Hold	-13863
▁Juli	-13864
▁Kauf	-13865
▁Ltée	-13866
▁Miss	-13867
▁Norm	-13868
▁Post	-13869
▁Proc	-13870
▁Pros	-13871
▁Pure	-13872
▁Rick	-13873
▁SANI	-13874
▁Wood	-13875
▁acid	-13876
▁amis	-13877
▁arch	-13878
▁basé	-13879
▁cali	-13880
▁card	-13881
▁coqu	-13882
▁coïn	-13883
▁desc	-13884
▁ferm	-13885
▁insp	-13886
▁issu	-13887
▁janv	-13888
▁mère	-13889
▁path	-13890
▁prét	-13891
▁rass	-13892
▁surc	-13893
▁susp	-13894
▁veau	-13895
▁zéro	-13896
▁Élab	-13897
Israel	-13898
antine	-13899
crites	-13900
efforc	-13901
enrich	-13902
fiants	-13903
ficité	-13904
health	-13905
manger	-13906
miques	-13907
nistes	-13908
oncent	-13909
planet	-13910
ristop	-13911
rophes	-13912
semble	-13913
ticien	-13914
tilité	-13915
voyage	-13916
▁(306)	-13917
▁1987,	-13918
▁2001*	-13919
▁2006)	-13920
▁Appro	-13921
▁Bonus	-13922
▁Bruné	-13923
▁Chois	-13924
▁Creek	-13925
▁Creve	-13926
▁Expos	-13927
▁Faits	-13928
▁Fresh	-13929
▁Hutch	-13930
▁Laval	-13931
▁ORGAN	-13932
▁Order	-13933
▁Sains	-13934
▁Santa	-13935
▁arach	-13936
▁coins	-13937
▁cubes	-13938
▁cuite	-13939
▁dissé	-13940
▁golfe	-13941
▁illég	-13942
▁libel	-13943
▁lique	-13944
▁mathé	-13945
▁pizza	-13946
▁poire	-13947
▁rasse	-13948
▁signe	-13949
▁subir	-13950
▁terra	-13951
▁tirés	-13952
▁zeste	-13953
▁énorm	-13954
▁énumé	-13955
Aliment	-13956
Conseil	-13957
NEMENTS	-13958
Service	-13959
attribu	-13960
aujourd	-13961
charger	-13962
coterms	-13963
default	-13964
endront	-13965
imbabwe	-13966
orthodo	-13967
thiopie	-13968
verview	-13969
étérias	-13970
▁(32-2)	-13971
▁BIOLOG	-13972
▁Brazil	-13973
▁Cooper	-13974
▁Forest	-13975
▁Havane	-13976
▁Inuits	-13977
▁Jersey	-13978
▁MADRID	-13979
▁Normes	-13980
▁PROFIL	-13981
▁Projec	-13982
▁Robina	-13983
▁Teguci	-13984
▁Vienne	-13985
▁africa	-13986
▁algéri	-13987
▁ananas	-13988
▁chasse	-13989
▁collèg	-13990
▁couche	-13991
▁coupés	-13992
▁croire	-13993
▁duquel	-13994
▁défaut	-13995
▁détéri	-13996
▁explos	-13997
▁fixées	-13998
▁fondre	-13999
▁frappé	-14000
▁garder	-14001
▁goûter	-14002
▁grille	-14003
▁généré	-14004
▁impose	-14005
▁invite	-14006
▁leader	-14007
▁libres	-14008
▁légale	-14009
▁légers	-14010
▁méridi	-14011
▁notera	-14012
▁négoce	-14013
▁office	-14014
▁panamé	-14015
▁percer	-14016
▁phosph	-14017
▁plaine	-14018
▁précip	-14019
▁rabbin	-14020
▁réclam	-14021
▁réputé	-14022
▁seigle	-14023
▁signée	-14024
▁struct	-14025
▁tirent	-14026
▁truite	-14027
▁urbain	-14028
▁époque	-14029
Quelques	-14030
agissait	-14031
issaient	-14032
tilation	-14033
électron	-14034
▁89/396/	-14035
▁Chiffre	-14036
▁Deutsch	-14037
▁Indiens	-14038
▁Medical	-14039
▁Niagara	-14040
▁PRODUIT	-14041
▁Pradesh	-14042
▁Préparé	-14043
▁STRATÉG	-14044
▁Storage	-14045
▁Systems	-14046
▁Zeitung	-14047
▁absorbe	-14048
▁acidité	-14049
▁calculé	-14050
▁complex	-14051
▁couvrir	-14052
▁cultivé	-14053
▁décliné	-14054
▁décrits	-14055
▁entendu	-14056
▁exister	-14057
▁express	-14058
▁faisait	-14059
▁globaux	-14060
▁impacts	-14061
▁imposer	-14062
▁instaur	-14063
▁laitier	-14064
▁leaders	-14065
▁milieux	-14066
▁moteurs	-14067
▁moutons	-14068
▁nourrir	-14069
▁occupée	-14070
▁occupés	-14071
▁passent	-14072
▁passion	-14073
▁planifi	-14074
▁poussée	-14075
▁pouvons	-14076
▁révéler	-14077
▁signalé	-14078
▁soupçon	-14079
▁stricte	-14080
▁swilson	-14081
▁tailler	-14082
▁élargie	-14083
▁étendre	-14084
Nouvelles	-14085
OGISTIQUE	-14086
VANCOUVER	-14087
bergement	-14088
biotiques	-14089
iculteurs	-14090
parations	-14091
resources	-14092
standards	-14093
▁598-2500	-14094
▁759-7726	-14095
▁Canaries	-14096
▁Dépenses	-14097
▁Edmonton	-14098
▁Particip	-14099
▁Suriname	-14100
▁acceptés	-14101
▁accident	-14102
▁adresses	-14103
▁aisément	-14104
▁approfon	-14105
▁assister	-14106
▁branches	-14107
▁classent	-14108
▁coeffici	-14109
▁corriger	-14110
▁cultiver	-14111
▁décroche	-14112
▁démarche	-14113
▁désossés	-14114
▁hongrois	-14115
▁infectie	-14116
▁inscrire	-14117
▁internet	-14118
▁italiens	-14119
▁mauvaise	-14120
▁mutuelle	-14121
▁paraboli	-14122
▁prochain	-14123
▁renommée	-14124
▁requises	-14125
▁respecte	-14126
▁réserver	-14127
▁souffert	-14128
▁susciter	-14129
▁séparant	-14130
▁thérapeu	-14131
▁transmis	-14132
▁trouvant	-14133
▁validité	-14134
▁Éléments	-14135
▁écossées	-14136
▁équivaut	-14137
▁éventuel	-14138
PORTATEURS	-14139
Production	-14140
Règlements	-14141
absorption	-14142
chnologies	-14143
ectolitres	-14144
engouement	-14145
obligation	-14146
oléagineux	-14147
Événements	-14148
▁Améliorer	-14149
▁Catégorie	-14150
▁Comercial	-14151
▁Crevettes	-14152
▁Dominique	-14153
▁Fréquence	-14154
▁Productos	-14155
▁Représent	-14156
▁Sainsbury	-14157
▁Universal	-14158
▁abondance	-14159
▁accrédité	-14160
▁angulaire	-14161
▁attrayant	-14162
▁bordereau	-14163
▁bénéficié	-14164
▁carburant	-14165
▁certifiée	-14166
▁compenser	-14167
▁complétée	-14168
▁différent	-14169
▁dynamisme	-14170
▁déterminé	-14171
▁entourant	-14172
▁estimatif	-14173
▁expertise	-14174
▁exploiter	-14175
▁fruitiers	-14176
▁fréquence	-14177
▁intéresse	-14178
▁irriguées	-14179
▁molécules	-14180
▁mortalité	-14181
▁organiser	-14182
▁plaisante	-14183
▁progresse	-14184
▁rencontre	-14185
▁rigoureux	-14186
▁réfrigéra	-14187
▁savoureux	-14188
▁subissent	-14189
▁substance	-14190
▁émissions	-14191
Concurrence	-14192
aménagement	-14193
euromonitor	-14194
ingredients	-14195
économiques	-14196
▁California	-14197
▁Foundation	-14198
▁betteraves	-14199
▁cigarettes	-14200
▁complément	-14201
▁consistent	-14202
▁céréaliers	-14203
▁discrétion	-14204
▁disparités	-14205
▁encouragés	-14206
▁entretient	-14207
▁estimatifs	-14208
▁exploitant	-14209
▁extérieurs	-14210
▁fumigation	-14211
▁multilatér	-14212
▁nutritives	-14213
▁paragraphe	-14214
▁personnels	-14215
▁pélagiques	-14216
▁rapportant	-14217
▁rencontres	-14218
▁égyptienne	-14219
▁énormément	-14220
urbanisation	-14221
▁Afghanistan	-14222
▁Agricultura	-14223
▁Conclusions	-14224
▁Concurrence	-14225
▁Environment	-14226
▁Inscription	-14227
▁Tegucigalpa	-14228
▁accompagner	-14229
▁australiens	-14230
▁autochtones	-14231
▁automobiles	-14232
▁constituait	-14233
▁culturelles	-14234
▁disputables	-14235
▁essentielle	-14236
▁fournitures	-14237
▁poursuivent	-14238
▁spécificité	-14239
harmonisation	-14240
▁Commentaires	-14241
▁Méditerranée	-14242
▁accompagnées	-14243
▁continentale	-14244
▁fondamentaux	-14245
▁hebdomadaire	-14246
▁préemballage	-14247
▁raisonnables	-14248
▁récupération	-14249
▁énergisantes	-14250
interprétation	-14251
▁Massachusetts	-14252
▁approvisionne	-14253
▁circonstances	-14254
▁exponentielle	-14255
▁inconvénients	-14256
▁intéressantes	-14257
▁spectaculaire	-14258
▁susmentionnés	-14259
approvisionnent	-14260
ditionnellement	-14261
▁collaborateurs	-14262
▁correspondance	-14263
▁Diversification	-14264
▁Recommandations	-14265
▁administrations	-14266
▁réglementations	-14267
/~	-14268
1_	-14269
=5	-14270
AE	-14271
CL	-14272
CR	-14273
El	-14274
GI	-14275
IU	-14276
TN	-14277
TÉ	-14278
Vi	-14279
bb	-14280
ck	-14281
dd	-14282
hs	-14283
ml	-14284
nb	-14285
xy	-14286
yu	-14287
Év	-14288
ça	-14289
ôp	-14290
(2)	-14291
-01	-14292
-07	-14293
-99	-14294
/2/	-14295
1,4	-14296
130	-14297
142	-14298
2-3	-14299
300	-14300
600	-14301
653	-14302
77/	-14303
92/	-14304
Bru	-14305
CCT	-14306
ENR	-14307
FAO	-14308
IDD	-14309
IES	-14310
Ins	-14311
ONT	-14312
SEA	-14313
SUR	-14314
TMR	-14315
aid	-14316
aro	-14317
ask	-14318
buy	-14319
cti	-14320
dex	-14321
dig	-14322
geo	-14323
hof	-14324
hol	-14325
ild	-14326
key	-14327
llo	-14328
new	-14329
nik	-14330
oly	-14331
raq	-14332
ror	-14333
ube	-14334
ull	-14335
vet	-14336
von	-14337
vée	-14338
édé	-14339
éni	-14340
épa	-14341
îne	-14342
▁0$	-14343
▁1%	-14344
▁1⁄	-14345
▁6%	-14346
▁JP	-14347
▁Ra	-14348
▁os	-14349
▁ue	-14350
▁zo	-14351
▁¥/	-14352
▁Éc	-14353
.)."	-14354
4-79	-14355
ASFC	-14356
ENEZ	-14357
ITES	-14358
Indi	-14359
Lean	-14360
OSUR	-14361
Pers	-14362
abri	-14363
acia	-14364
agré	-14365
agée	-14366
alit	-14367
anch	-14368
aper	-14369
argo	-14370
bran	-14371
cfia	-14372
exig	-14373
ggan	-14374
govt	-14375
ilia	-14376
ista	-14377
kong	-14378
lare	-14379
mcle	-14380
mité	-14381
once	-14382
oupl	-14383
pper	-14384
quet	-14385
quez	-14386
sité	-14387
tead	-14388
tens	-14389
ther	-14390
tino	-14391
ucky	-14392
ulés	-14393
wait	-14394
ÉDÉR	-14395
émen	-14396
éthy	-14397
▁(28	-14398
▁(29	-14399
▁(45	-14400
▁-0,	-14401
▁126	-14402
▁204	-14403
▁226	-14404
▁238	-14405
▁270	-14406
▁320	-14407
▁445	-14408
▁5,0	-14409
▁540	-14410
▁6,1	-14411
▁7,7	-14412
▁80/	-14413
▁9,2	-14414
▁Bag	-14415
▁Bil	-14416
▁CCC	-14417
▁CCN	-14418
▁Dén	-14419
▁ECI	-14420
▁ENT	-14421
▁Edi	-14422
▁Emb	-14423
▁Hor	-14424
▁Hug	-14425
▁Ire	-14426
▁Jav	-14427
▁Kim	-14428
▁Mat	-14429
▁Oli	-14430
▁Out	-14431
▁Pat	-14432
▁Ray	-14433
▁Ros	-14434
▁SEA	-14435
▁Sil	-14436
▁Sky	-14437
▁Syn	-14438
▁Tru	-14439
▁VIE	-14440
▁Vue	-14441
▁cue	-14442
▁pin	-14443
▁uni	-14444
/2004	-14445
ENCES	-14446
MARCH	-14447
PRISE	-14448
TAIRE	-14449
TIVES	-14450
acier	-14451
admin	-14452
alise	-14453
allée	-14454
astre	-14455
china	-14456
chère	-14457
ectif	-14458
ellow	-14459
endes	-14460
erait	-14461
essen	-14462
ffres	-14463
frais	-14464
group	-14465
guide	-14466
housi	-14467
hydro	-14468
ittee	-14469
jetro	-14470
lacer	-14471
maine	-14472
mberg	-14473
morte	-14474
ocarb	-14475
ogène	-14476
oline	-14477
ouler	-14478
pides	-14479
spéci	-14480
terna	-14481
tille	-14482
tonio	-14483
écule	-14484
éloig	-14485
▁+380	-14486
▁10,5	-14487
▁10,6	-14488
▁12,5	-14489
▁1829	-14490
▁1946	-14491
▁1973	-14492
▁1977	-14493
▁1989	-14494
▁5-20	-14495
▁Base	-14496
▁Bern	-14497
▁Book	-14498
▁Chac	-14499
▁Chap	-14500
▁Clar	-14501
▁Cold	-14502
▁Cort	-14503
▁DANS	-14504
▁DENR	-14505
▁Fine	-14506
▁Gene	-14507
▁Good	-14508
▁Mère	-14509
▁Niss	-14510
▁Nort	-14511
▁Note	-14512
▁PISO	-14513
▁Page	-14514
▁Rome	-14515
▁Ruiz	-14516
▁amas	-14517
▁aucu	-14518
▁beau	-14519
▁bleu	-14520
▁cond	-14521
▁dési	-14522
▁fixé	-14523
▁flex	-14524
▁illi	-14525
▁lacs	-14526
▁lire	-14527
▁midi	-14528
▁orge	-14529
▁pair	-14530
▁pali	-14531
▁rick	-14532
▁râpé	-14533
▁sean	-14534
▁solv	-14535
▁sure	-14536
▁surv	-14537
▁vécu	-14538
▁épar	-14539
-01/07	-14540
Normes	-14541
afflux	-14542
alisme	-14543
alogie	-14544
amered	-14545
arines	-14546
celets	-14547
emball	-14548
fghans	-14549
giques	-14550
herbes	-14551
impose	-14552
jeuner	-14553
kosher	-14554
longue	-14555
mclean	-14556
mortem	-14557
octroi	-14558
offres	-14559
ortium	-14560
rables	-14561
tébrés	-14562
violet	-14563
volume	-14564
▁"0713	-14565
▁(2006	-14566
▁(709)	-14567
▁1976,	-14568
▁1999.	-14569
▁514-2	-14570
▁Berne	-14571
▁Capit	-14572
▁Dutch	-14573
▁Farce	-14574
▁Fried	-14575
▁Halal	-14576
▁Macao	-14577
▁Ocean	-14578
▁Pulse	-14579
▁Santo	-14580
▁Seven	-14581
▁VENEZ	-14582
▁Votre	-14583
▁abrit	-14584
▁accus	-14585
▁aires	-14586
▁apprê	-14587
▁aquac	-14588
▁barre	-14589
▁brute	-14590
▁copra	-14591
▁estiv	-14592
▁facul	-14593
▁fouet	-14594
▁futur	-14595
▁glacé	-14596
▁globe	-14597
▁grave	-14598
▁idéal	-14599
▁impré	-14600
▁meurt	-14601
▁miser	-14602
▁moulu	-14603
▁oubli	-14604
▁perçu	-14605
▁promo	-14606
▁remis	-14607
▁tasse	-14608
▁tonne	-14609
▁éclai	-14610
▁éduca	-14611
Chambre	-14612
Produit	-14613
accroît	-14614
aghetti	-14615
aillons	-14616
ajouter	-14617
alberta	-14618
angzhou	-14619
dimento	-14620
efforce	-14621
embargo	-14622
endrier	-14623
iconque	-14624
ilosoph	-14625
intensi	-14626
mettent	-14627
ontract	-14628
rainage	-14629
special	-14630
ueillir	-14631
échelon	-14632
énavant	-14633
▁(2006)	-14634
▁(33-1)	-14635
▁1994."	-14636
▁2008."	-14637
▁2009."	-14638
▁7258-6	-14639
▁Analys	-14640
▁Choice	-14641
▁Danone	-14642
▁Danube	-14643
▁Drinks	-14644
▁FORMUL	-14645
▁Foires	-14646
▁Gemini	-14647
▁Guinée	-14648
▁Habitu	-14649
▁McLean	-14650
▁Nature	-14651
▁Nepean	-14652
▁Palais	-14653
▁Produc	-14654
▁Quelle	-14655
▁Safety	-14656
▁Strahl	-14657
▁Straté	-14658
▁Survey	-14659
▁Taille	-14660
▁agréés	-14661
▁arômes	-14662
▁barbec	-14663
▁broche	-14664
▁caisse	-14665
▁ciblés	-14666
▁correc	-14667
▁cuisin	-14668
▁desque	-14669
▁divisé	-14670
▁débuté	-14671
▁espace	-14672
▁exigée	-14673
▁explor	-14674
▁fécule	-14675
▁grillé	-14676
▁gâteau	-14677
▁impôts	-14678
▁judici	-14679
▁lutter	-14680
▁microb	-14681
▁minces	-14682
▁module	-14683
▁métaux	-14684
▁pierre	-14685
▁pizzas	-14686
▁placés	-14687
▁pourvu	-14688
▁prisés	-14689
▁prêter	-14690
▁recycl	-14691
▁réunir	-14692
▁séance	-14693
▁vinyle	-14694
▁étendu	-14695
ICULTURE	-14696
Services	-14697
ajoutent	-14698
indiquer	-14699
intrants	-14700
misphère	-14701
orienter	-14702
épidémie	-14703
éventail	-14704
▁Biotech	-14705
▁CARACAS	-14706
▁CLIENTS	-14707
▁Caracas	-14708
▁DENRÉES	-14709
▁Dénomin	-14710
▁ENTENTE	-14711
▁Economy	-14712
▁Grenade	-14713
▁Hamered	-14714
▁Jakarta	-14715
▁Lobster	-14716
▁Lorsque	-14717
▁Nigéria	-14718
▁Octobre	-14719
▁SOUTIEN	-14720
▁Stephan	-14721
▁accepte	-14722
▁agences	-14723
▁appelés	-14724
▁apporte	-14725
▁assumer	-14726
▁assurée	-14727
▁baisses	-14728
▁branche	-14729
▁calculs	-14730
▁caméras	-14731
▁cession	-14732
▁chemins	-14733
▁cheptel	-14734
▁compens	-14735
▁conçues	-14736
▁crédits	-14737
▁diffère	-14738
▁fluctué	-14739
▁fusions	-14740
▁massive	-14741
▁maximal	-14742
▁message	-14743
▁microbi	-14744
▁minière	-14745
▁procède	-14746
▁propice	-14747
▁précisé	-14748
▁publiés	-14749
▁rouille	-14750
▁sérieux	-14751
▁tardive	-14752
▁tendres	-14753
▁tisanes	-14754
▁toucher	-14755
▁trousse	-14756
▁urbanis	-14757
▁vergers	-14758
DÉBOUCHÉS	-14759
[...]
